<unk>	0
<s>	0
</s>	0
▁t	-0
▁a	-1
he	-2
in	-3
er	-4
▁the	-5
on	-6
▁s	-7
re	-8
▁,	-9
▁w	-10
en	-11
▁.	-12
▁o	-13
at	-14
▁c	-15
ed	-16
an	-17
or	-18
▁b	-19
it	-20
▁f	-21
es	-22
is	-23
▁p	-24
ing	-25
ar	-26
▁in	-27
al	-28
▁to	-29
▁an	-30
ou	-31
▁of	-32
▁h	-33
▁m	-34
as	-35
ic	-36
▁d	-37
▁and	-38
om	-39
il	-40
ion	-41
▁th	-42
▁l	-43
ent	-44
id	-45
▁T	-46
▁re	-47
▁n	-48
el	-49
ro	-50
▁'	-51
st	-52
ec	-53
ay	-54
▁A	-55
▁"	-56
▁S	-57
ut	-58
et	-59
▁g	-60
ad	-61
le	-62
▁on	-63
ve	-64
▁e	-65
▁for	-66
ac	-67
▁M	-68
ol	-69
▁C	-70
ot	-71
▁I	-72
am	-73
ur	-74
▁be	-75
ig	-76
ly	-77
ver	-78
▁he	-79
im	-80
▁that	-81
▁B	-82
ir	-83
▁st	-84
ow	-85
ter	-86
▁The	-87
un	-88
▁is	-89
us	-90
ill	-91
▁wh	-92
ation	-93
ith	-94
▁it	-95
ers	-96
▁with	-97
ce	-98
▁sa	-99
▁was	-100
▁P	-101
ld	-102
▁as	-103
▁at	-104
▁1	-105
▁H	-106
▁W	-107
▁r	-108
os	-109
▁y	-110
▁said	-111
est	-112
ear	-113
em	-114
▁al	-115
ch	-116
▁con	-117
oun	-118
ul	-119
her	-120
ts	-121
▁D	-122
th	-123
ore	-124
▁2	-125
▁fr	-126
▁R	-127
▁F	-128
▁pro	-129
ag	-130
ain	-131
and	-132
▁com	-133
▁N	-134
▁ha	-135
ak	-136
ri	-137
pp	-138
res	-139
▁by	-140
ew	-141
▁G	-142
igh	-143
ment	-144
▁L	-145
ate	-146
op	-147
▁from	-148
if	-149
▁are	-150
▁his	-151
▁has	-152
ect	-153
ould	-154
▁have	-155
▁ex	-156
00	-157
▁v	-158
▁-	-159
▁O	-160
ess	-161
▁sh	-162
▁su	-163
our	-164
ort	-165
▁J	-166
▁ch	-167
▁E	-168
ast	-169
ies	-170
▁U	-171
▁de	-172
ist	-173
ity	-174
oc	-175
ab	-176
od	-177
end	-178
▁not	-179
all	-180
qu	-181
art	-182
▁un	-183
iv	-184
ive	-185
um	-186
ial	-187
gh	-188
se	-189
ra	-190
ard	-191
▁le	-192
ack	-193
ee	-194
ud	-195
ct	-196
▁pl	-197
up	-198
ust	-199
out	-200
▁or	-201
day	-202
▁)	-203
▁(	-204
▁will	-205
ost	-206
▁sp	-207
ich	-208
ight	-209
▁who	-210
▁ab	-211
▁go	-212
ome	-213
▁In	-214
ant	-215
are	-216
▁j	-217
▁k	-218
ice	-219
▁year	-220
▁off	-221
ap	-222
▁had	-223
ere	-224
▁wor	-225
ell	-226
▁whe	-227
▁--	-228
▁their	-229
ff	-230
ok	-231
▁ag	-232
▁per	-233
▁were	-234
▁se	-235
▁but	-236
▁comp	-237
▁they	-238
ong	-239
▁tr	-240
▁K	-241
ans	-242
ge	-243
▁been	-244
▁this	-245
ough	-246
ound	-247
ther	-248
ure	-249
▁out	-250
▁ad	-251
▁its	-252
mer	-253
ire	-254
▁more	-255
ber	-256
▁which	-257
fter	-258
ions	-259
ia	-260
▁cl	-261
der	-262
▁would	-263
ous	-264
▁St	-265
ine	-266
▁up	-267
▁res	-268
▁ne	-269
▁inc	-270
ary	-271
▁ac	-272
ep	-273
ry	-274
▁Th	-275
ide	-276
▁exp	-277
ie	-278
ub	-279
▁ar	-280
▁about	-281
▁rep	-282
one	-283
▁3	-284
▁Ch	-285
▁200	-286
ated	-287
▁after	-288
▁over	-289
▁we	-290
▁all	-291
▁int	-292
age	-293
ime	-294
ark	-295
ik	-296
▁man	-297
wo	-298
ue	-299
▁one	-300
▁:	-301
▁cont	-302
ign	-303
▁pr	-304
ip	-305
so	-306
ame	-307
▁new	-308
▁than	-309
▁rec	-310
ence	-311
ident	-312
uc	-313
ord	-314
▁$	-315
ian	-316
own	-317
lo	-318
ount	-319
ally	-320
ake	-321
ks	-322
▁An	-323
▁can	-324
▁do	-325
ays	-326
act	-327
▁fir	-328
ven	-329
use	-330
old	-331
▁pol	-332
▁her	-333
ond	-334
ose	-335
▁pe	-336
▁It	-337
ors	-338
▁en	-339
ail	-340
▁im	-341
▁dis	-342
ree	-343
▁also	-344
ations	-345
▁He	-346
ance	-347
▁you	-348
ace	-349
ress	-350
ile	-351
▁two	-352
▁me	-353
▁fin	-354
ely	-355
illion	-356
▁Y	-357
ren	-358
▁qu	-359
▁sc	-360
ople	-361
▁when	-362
lic	-363
rit	-364
ass	-365
▁other	-366
▁app	-367
av	-368
ib	-369
anc	-370
▁part	-371
ish	-372
wn	-373
▁first	-374
ite	-375
hed	-376
ates	-377
▁so	-378
▁bec	-379
▁people	-380
og	-381
ase	-382
▁last	-383
orm	-384
▁gr	-385
▁ro	-386
▁she	-387
▁But	-388
▁4	-389
vern	-390
iz	-391
▁V	-392
▁pre	-393
oll	-394
able	-395
man	-396
▁sec	-397
▁into	-398
▁Mr	-399
oin	-400
ical	-401
erv	-402
▁acc	-403
very	-404
amp	-405
ade	-406
ning	-407
ens	-408
ild	-409
▁19	-410
▁inv	-411
▁op	-412
ick	-413
ach	-414
▁5	-415
▁some	-416
ru	-417
ict	-418
▁could	-419
ition	-420
▁att	-421
ents	-422
▁lo	-423
▁work	-424
▁lik	-425
▁inter	-426
▁us	-427
vel	-428
▁dec	-429
▁them	-430
▁years	-431
▁there	-432
ang	-433
vernment	-434
▁Un	-435
cent	-436
ult	-437
aw	-438
lud	-439
▁wee	-440
▁no	-441
▁time	-442
reat	-443
▁?	-444
urn	-445
▁mon	-446
ank	-447
iss	-448
▁imp	-449
ational	-450
arg	-451
▁offic	-452
▁lead	-453
▁el	-454
ings	-455
▁ind	-456
itt	-457
resident	-458
oup	-459
ause	-460
ov	-461
▁Al	-462
enc	-463
ey	-464
ft	-465
▁him	-466
ton	-467
▁bo	-468
▁again	-469
▁comm	-470
▁cons	-471
ory	-472
▁co	-473
▁any	-474
ind	-475
▁includ	-476
▁count	-477
ob	-478
▁government	-479
ublic	-480
ons	-481
▁percent	-482
vers	-483
pt	-484
000	-485
ious	-486
ets	-487
▁under	-488
▁am	-489
▁compan	-490
▁play	-491
▁just	-492
form	-493
▁if	-494
red	-495
▁back	-496
land	-497
,000	-498
▁te	-499
▁kn	-500
ied	-501
meric	-502
▁6	-503
fore	-504
▁New	-505
ash	-506
ince	-507
ater	-508
fer	-509
ues	-510
ected	-511
rough	-512
▁what	-513
▁bet	-514
▁month	-515
ited	-516
▁million	-517
▁only	-518
▁As	-519
als	-520
▁three	-521
▁ear	-522
▁cr	-523
▁act	-524
▁Americ	-525
▁report	-526
▁most	-527
row	-528
led	-529
ama	-530
ities	-531
▁Fr	-532
hn	-533
ock	-534
rop	-535
▁We	-536
▁week	-537
▁down	-538
▁say	-539
▁reg	-540
oss	-541
▁before	-542
▁mark	-543
ink	-544
▁get	-545
uring	-546
▁cent	-547
ters	-548
ise	-549
▁rem	-550
we	-551
▁now	-552
ert	-553
▁add	-554
▁like	-555
▁20	-556
▁car	-557
ased	-558
▁supp	-559
onom	-560
▁bl	-561
▁because	-562
▁bu	-563
ating	-564
▁Wh	-565
uch	-566
▁ec	-567
▁min	-568
▁call	-569
▁des	-570
ath	-571
ood	-572
▁7	-573
▁end	-574
other	-575
▁Ob	-576
gr	-577
air	-578
▁show	-579
und	-580
▁ass	-581
▁how	-582
▁ret	-583
▁invest	-584
ement	-585
les	-586
▁did	-587
lin	-588
▁;	-589
ix	-590
ool	-591
ting	-592
ier	-593
▁being	-594
▁where	-595
▁And	-596
ices	-597
▁hel	-598
▁against	-599
ouse	-600
ork	-601
▁10	-602
orn	-603
▁em	-604
ved	-605
ward	-606
▁official	-607
▁sur	-608
▁world	-609
▁Obama	-610
aking	-611
▁econom	-612
ble	-613
▁rel	-614
son	-615
ove	-616
▁made	-617
▁def	-618
yst	-619
▁may	-620
▁ins	-621
ower	-622
eral	-623
▁help	-624
du	-625
▁four	-626
▁str	-627
▁br	-628
▁many	-629
▁through	-630
▁even	-631
alth	-632
▁fl	-633
tern	-634
xt	-635
▁need	-636
ife	-637
ection	-638
oth	-639
ily	-640
▁mil	-641
▁ev	-642
▁home	-643
ital	-644
▁fe	-645
▁long	-646
▁our	-647
▁since	-648
▁own	-649
gan	-650
▁serv	-651
▁On	-652
▁war	-653
▁Com	-654
▁while	-655
ason	-656
▁second	-657
▁see	-658
▁plan	-659
▁make	-660
ros	-661
▁told	-662
▁Re	-663
gg	-664
▁bus	-665
▁/	-666
▁should	-667
its	-668
▁says	-669
▁poin	-670
▁8	-671
ful	-672
rib	-673
▁prov	-674
ms	-675
year	-676
ared	-677
▁Ar	-678
ments	-679
ax	-680
▁such	-681
ual	-682
▁high	-683
▁company	-684
▁£	-685
▁group	-686
▁set	-687
urs	-688
ric	-689
ists	-690
▁run	-691
ced	-692
▁ann	-693
▁bel	-694
ange	-695
iness	-696
▁those	-697
▁win	-698
cc	-699
ures	-700
ision	-701
▁fam	-702
orts	-703
uss	-704
▁En	-705
ling	-706
ned	-707
ah	-708
iew	-709
▁law	-710
▁Is	-711
ember	-712
ives	-713
▁my	-714
▁found	-715
hen	-716
ina	-717
▁eff	-718
▁cour	-719
▁Mar	-720
▁Brit	-721
▁well	-722
rat	-723
▁child	-724
▁much	-725
▁sm	-726
ween	-727
▁Mon	-728
ics	-729
▁sl	-730
▁stud	-731
▁country	-732
▁This	-733
▁take	-734
ecut	-735
▁look	-736
min	-737
chool	-738
▁gu	-739
▁public	-740
▁then	-741
▁between	-742
▁still	-743
▁Jo	-744
duc	-745
▁sign	-746
▁including	-747
▁way	-748
ather	-749
▁cap	-750
▁state	-751
ered	-752
elf	-753
▁aut	-754
▁team	-755
au	-756
way	-757
hip	-758
▁during	-759
▁US	-760
▁sub	-761
ility	-762
▁ph	-763
ction	-764
▁near	-765
outh	-766
imes	-767
▁start	-768
▁your	-769
▁police	-770
▁president	-771
▁Sp	-772
▁disc	-773
ull	-774
▁next	-775
▁ter	-776
hes	-777
▁9	-778
ex	-779
▁Sh	-780
▁Af	-781
ying	-782
▁They	-783
eb	-784
med	-785
ants	-786
ving	-787
▁med	-788
aj	-789
ular	-790
iel	-791
▁day	-792
▁every	-793
nes	-794
▁num	-795
ady	-796
io	-797
▁vot	-798
lear	-799
▁prop	-800
ush	-801
ised	-802
▁gen	-803
▁head	-804
▁big	-805
ev	-806
▁incre	-807
ph	-808
▁Mc	-809
ister	-810
▁business	-811
▁det	-812
ted	-813
▁polit	-814
▁United	-815
▁tri	-816
arter	-817
ef	-818
▁dep	-819
ged	-820
ird	-821
olog	-822
▁wom	-823
ug	-824
az	-825
▁want	-826
irect	-827
oy	-828
alk	-829
▁ent	-830
ible	-831
orth	-832
▁ser	-833
▁conf	-834
ency	-835
erson	-836
ner	-837
▁pay	-838
▁resp	-839
ll	-840
ty	-841
ames	-842
▁market	-843
▁dif	-844
bers	-845
▁sal	-846
▁kill	-847
ave	-848
pped	-849
iday	-850
ands	-851
▁billion	-852
ative	-853
ret	-854
▁cur	-855
▁former	-856
oney	-857
cer	-858
▁camp	-859
ording	-860
▁bro	-861
▁care	-862
pr	-863
▁good	-864
▁At	-865
▁milit	-866
ont	-867
ever	-868
ief	-869
ross	-870
▁iss	-871
▁ext	-872
ean	-873
ury	-874
emoc	-875
ivers	-876
velop	-877
▁Rep	-878
▁health	-879
▁know	-880
ific	-881
▁For	-882
per	-883
▁stat	-884
oot	-885
▁recent	-886
istr	-887
istan	-888
▁officials	-889
▁Eu	-890
▁though	-891
ines	-892
▁oper	-893
loy	-894
ollow	-895
atch	-896
▁She	-897
gram	-898
▁open	-899
▁very	-900
gy	-901
▁don	-902
▁American	-903
▁leg	-904
▁President	-905
▁Ind	-906
▁del	-907
▁won	-908
▁around	-909
▁five	-910
▁news	-911
eth	-912
▁school	-913
osed	-914
ystem	-915
▁think	-916
▁financ	-917
▁adv	-918
▁left	-919
▁cost	-920
▁put	-921
▁Sun	-922
atur	-923
▁attack	-924
▁Le	-925
▁pass	-926
▁opp	-927
com	-928
ars	-929
line	-930
▁far	-931
▁another	-932
▁12	-933
ending	-934
▁air	-935
▁There	-936
▁contin	-937
▁fore	-938
▁fil	-939
▁prot	-940
att	-941
▁tra	-942
▁mem	-943
ger	-944
▁reported	-945
▁15	-946
▁ris	-947
▁loc	-948
▁direct	-949
alf	-950
uesday	-951
ained	-952
▁Tuesday	-953
▁Europ	-954
used	-955
▁months	-956
▁follow	-957
▁pri	-958
▁both	-959
aim	-960
▁..	-961
▁inst	-962
hor	-963
▁does	-964
▁support	-965
ness	-966
ral	-967
▁Monday	-968
▁these	-969
▁Wed	-970
eep	-971
▁rest	-972
oci	-973
ces	-974
▁John	-975
▁program	-976
▁job	-977
▁Sc	-978
ves	-979
▁York	-980
▁six	-981
ajor	-982
▁Wednes	-983
▁manag	-984
▁Wednesday	-985
▁spok	-986
▁11	-987
▁money	-988
▁%	-989
--	-990
emocrat	-991
ution	-992
let	-993
▁same	-994
ield	-995
▁top	-996
▁deal	-997
▁Friday	-998
▁spec	-999
▁meet	-1000
▁vis	-1001
ott	-1002
ursday	-1003
▁Thursday	-1004
▁going	-1005
▁develop	-1006
earch	-1007
▁That	-1008
ran	-1009
▁ob	-1010
▁If	-1011
ism	-1012
▁belie	-1013
▁system	-1014
ient	-1015
▁cut	-1016
▁inf	-1017
▁children	-1018
▁dri	-1019
▁rele	-1020
get	-1021
▁fund	-1022
▁30	-1023
▁Z	-1024
ense	-1025
▁too	-1026
▁prof	-1027
▁trans	-1028
▁bank	-1029
rol	-1030
els	-1031
iam	-1032
▁season	-1033
▁right	-1034
ects	-1035
▁power	-1036
▁allow	-1037
urity	-1038
▁announ	-1039
ired	-1040
▁pres	-1041
▁tax	-1042
▁prev	-1043
ys	-1044
▁che	-1045
ries	-1046
▁game	-1047
ept	-1048
▁few	-1049
▁use	-1050
ights	-1051
▁number	-1052
rent	-1053
▁used	-1054
ins	-1055
ually	-1056
uck	-1057
ished	-1058
▁...	-1059
▁dem	-1060
▁Democrat	-1061
▁financial	-1062
aren	-1063
▁mov	-1064
over	-1065
▁days	-1066
▁major	-1067
▁grow	-1068
▁cre	-1069
▁sever	-1070
▁hop	-1071
▁Bar	-1072
pl	-1073
raq	-1074
aign	-1075
ains	-1076
▁proble	-1077
ale	-1078
ley	-1079
▁real	-1080
▁est	-1081
▁deb	-1082
▁night	-1083
▁Iraq	-1084
▁life	-1085
▁claim	-1086
▁find	-1087
▁called	-1088
▁less	-1089
▁record	-1090
ody	-1091
▁Bro	-1092
▁quarter	-1093
ission	-1094
iver	-1095
▁Eng	-1096
ploy	-1097
▁ra	-1098
▁ref	-1099
▁fac	-1100
▁family	-1101
ute	-1102
▁rece	-1103
▁past	-1104
▁according	-1105
▁person	-1106
ages	-1107
▁expected	-1108
▁turn	-1109
▁par	-1110
▁sw	-1111
▁tak	-1112
▁bre	-1113
▁China	-1114
▁prom	-1115
▁AP	-1116
te	-1117
▁Q	-1118
▁intern	-1119
▁Comm	-1120
▁dr	-1121
▁campaign	-1122
▁return	-1123
ention	-1124
▁third	-1125
ession	-1126
arge	-1127
ior	-1128
ering	-1129
ured	-1130
▁indust	-1131
▁199	-1132
ards	-1133
▁build	-1134
▁av	-1135
▁ban	-1136
▁hand	-1137
▁som	-1138
▁best	-1139
▁spe	-1140
▁giv	-1141
▁might	-1142
▁Pol	-1143
▁requ	-1144
ten	-1145
▁place	-1146
▁sim	-1147
▁Min	-1148
▁States	-1149
▁vict	-1150
▁ask	-1151
▁inform	-1152
▁great	-1153
▁come	-1154
▁ago	-1155
▁least	-1156
▁early	-1157
ized	-1158
less	-1159
ington	-1160
til	-1161
ians	-1162
▁ed	-1163
▁city	-1164
osp	-1165
▁took	-1166
▁appro	-1167
▁2008	-1168
▁poss	-1169
▁Man	-1170
▁Sunday	-1171
▁exper	-1172
▁Sen	-1173
▁main	-1174
ject	-1175
reen	-1176
▁test	-1177
▁How	-1178
lob	-1179
▁post	-1180
▁South	-1181
▁0	-1182
▁beh	-1183
▁points	-1184
▁18	-1185
▁came	-1186
cept	-1187
view	-1188
▁case	-1189
▁later	-1190
ready	-1191
▁coll	-1192
echn	-1193
▁interest	-1194
ience	-1195
▁quest	-1196
ract	-1197
ck	-1198
ately	-1199
▁2009	-1200
ai	-1201
▁half	-1202
.5	-1203
▁military	-1204
▁aff	-1205
ued	-1206
side	-1207
▁mod	-1208
▁produc	-1209
ondon	-1210
augh	-1211
ham	-1212
▁death	-1213
ison	-1214
▁small	-1215
▁court	-1216
▁author	-1217
ittle	-1218
ases	-1219
▁seem	-1220
▁House	-1221
▁Republic	-1222
sh	-1223
▁201	-1224
▁already	-1225
▁pat	-1226
▁without	-1227
artment	-1228
▁trad	-1229
▁fact	-1230
ided	-1231
▁spokes	-1232
▁men	-1233
▁move	-1234
ched	-1235
ially	-1236
▁pop	-1237
alif	-1238
co	-1239
▁British	-1240
ored	-1241
ederal	-1242
▁Br	-1243
▁happ	-1244
▁Car	-1245
▁!	-1246
▁fail	-1247
orp	-1248
ived	-1249
▁hard	-1250
aining	-1251
▁investig	-1252
▁political	-1253
ony	-1254
▁differ	-1255
▁Gr	-1256
▁produ	-1257
▁Bl	-1258
▁commun	-1259
ety	-1260
▁col	-1261
ke	-1262
▁economic	-1263
usp	-1264
osition	-1265
▁art	-1266
▁until	-1267
▁charg	-1268
▁members	-1269
▁current	-1270
▁Be	-1271
▁Russ	-1272
▁sent	-1273
▁companies	-1274
▁polic	-1275
▁never	-1276
rest	-1277
▁agre	-1278
▁among	-1279
▁whether	-1280
une	-1281
ober	-1282
-1	-1283
aturday	-1284
▁execut	-1285
▁each	-1286
▁Saturday	-1287
▁Pro	-1288
▁Co	-1289
ising	-1290
▁elect	-1291
▁keep	-1292
▁fall	-1293
aid	-1294
cess	-1295
me	-1296
▁inj	-1297
▁25	-1298
ator	-1299
▁ca	-1300
▁coun	-1301
▁London	-1302
cl	-1303
▁susp	-1304
▁today	-1305
▁press	-1306
▁North	-1307
▁women	-1308
▁Sec	-1309
oung	-1310
iversity	-1311
▁13	-1312
▁Afgh	-1313
▁share	-1314
▁hour	-1315
ened	-1316
▁stand	-1317
▁larg	-1318
▁added	-1319
▁Chr	-1320
▁away	-1321
lier	-1322
▁Ge	-1323
▁crit	-1324
▁Wash	-1325
ertain	-1326
reet	-1327
ides	-1328
▁sk	-1329
ended	-1330
▁little	-1331
▁14	-1332
▁several	-1333
▁economy	-1334
▁consid	-1335
▁Pr	-1336
by	-1337
▁appe	-1338
▁here	-1339
rug	-1340
enn	-1341
ops	-1342
▁security	-1343
▁cred	-1344
▁cond	-1345
▁information	-1346
▁hit	-1347
▁Afghan	-1348
▁local	-1349
▁concer	-1350
▁better	-1351
▁May	-1352
▁Col	-1353
▁net	-1354
▁killed	-1355
ically	-1356
▁Dav	-1357
ots	-1358
▁Ad	-1359
▁Go	-1360
▁So	-1361
▁Washington	-1362
▁McC	-1363
▁writ	-1364
▁old	-1365
▁&	-1366
▁short	-1367
ump	-1368
lobal	-1369
▁party	-1370
cil	-1371
▁partic	-1372
▁16	-1373
▁got	-1374
▁chief	-1375
▁No	-1376
▁level	-1377
▁You	-1378
aff	-1379
self	-1380
▁expl	-1381
gin	-1382
ends	-1383
▁leaders	-1384
▁clear	-1385
▁Jan	-1386
iol	-1387
▁national	-1388
▁perform	-1389
▁hold	-1390
▁invol	-1391
▁hom	-1392
▁techn	-1393
▁doc	-1394
ike	-1395
▁equ	-1396
▁Intern	-1397
▁house	-1398
▁bill	-1399
ergy	-1400
▁sales	-1401
▁Ab	-1402
▁change	-1403
▁mid	-1404
▁hig	-1405
▁fell	-1406
▁ben	-1407
▁miss	-1408
ology	-1409
▁organ	-1410
▁sold	-1411
ones	-1412
ium	-1413
▁final	-1414
▁visit	-1415
to	-1416
▁likely	-1417
▁rul	-1418
▁Iran	-1419
▁sing	-1420
▁Ass	-1421
app	-1422
▁free	-1423
▁become	-1424
▁Cl	-1425
idence	-1426
▁2007	-1427
ults	-1428
▁17	-1429
ably	-1430
▁hist	-1431
rael	-1432
▁Ph	-1433
▁succ	-1434
rew	-1435
ON	-1436
▁All	-1437
hern	-1438
aun	-1439
▁hum	-1440
▁Ger	-1441
▁Wor	-1442
▁Tr	-1443
▁mar	-1444
ators	-1445
eg	-1446
▁priv	-1447
▁fut	-1448
▁control	-1449
port	-1450
istration	-1451
verage	-1452
▁area	-1453
▁sol	-1454
▁Israel	-1455
▁50	-1456
▁taken	-1457
▁went	-1458
▁let	-1459
▁West	-1460
▁sit	-1461
▁When	-1462
▁must	-1463
▁1.	-1464
▁employ	-1465
▁join	-1466
▁loss	-1467
sw	-1468
my	-1469
ann	-1470
▁oil	-1471
▁One	-1472
▁val	-1473
▁America	-1474
acy	-1475
▁National	-1476
▁prices	-1477
▁announced	-1478
head	-1479
▁across	-1480
▁Cent	-1481
▁plans	-1482
▁sum	-1483
▁tel	-1484
▁fri	-1485
ference	-1486
▁Or	-1487
▁making	-1488
▁viol	-1489
▁import	-1490
ror	-1491
BC	-1492
akes	-1493
inal	-1494
ague	-1495
▁March	-1496
ats	-1497
▁give	-1498
ggest	-1499
▁100	-1500
▁strong	-1501
urch	-1502
▁book	-1503
eng	-1504
off	-1505
▁admin	-1506
eter	-1507
▁cust	-1508
▁suggest	-1509
ech	-1510
ize	-1511
▁held	-1512
▁drug	-1513
▁industry	-1514
▁success	-1515
▁appear	-1516
▁Dep	-1517
▁lost	-1518
▁England	-1519
▁young	-1520
uters	-1521
▁Ex	-1522
▁low	-1523
▁countries	-1524
utes	-1525
▁form	-1526
itions	-1527
▁doll	-1528
ees	-1529
▁Con	-1530
▁global	-1531
▁late	-1532
▁seen	-1533
▁Res	-1534
▁With	-1535
▁dist	-1536
omb	-1537
aring	-1538
▁office	-1539
ways	-1540
aper	-1541
atter	-1542
omin	-1543
though	-1544
▁point	-1545
▁enough	-1546
▁His	-1547
most	-1548
▁full	-1549
▁capital	-1550
▁weeks	-1551
▁met	-1552
▁fur	-1553
▁compet	-1554
▁international	-1555
▁arrest	-1556
hest	-1557
▁order	-1558
▁along	-1559
▁service	-1560
ern	-1561
▁given	-1562
▁const	-1563
▁impro	-1564
▁chang	-1565
▁list	-1566
▁times	-1567
▁po	-1568
▁consum	-1569
▁mus	-1570
▁sen	-1571
▁World	-1572
▁eas	-1573
hers	-1574
▁Bush	-1575
▁European	-1576
▁close	-1577
▁Clin	-1578
▁pros	-1579
ourn	-1580
▁really	-1581
▁Geor	-1582
uel	-1583
▁threat	-1584
ball	-1585
▁view	-1586
thing	-1587
▁fire	-1588
▁statement	-1589
bo	-1590
▁dou	-1591
ait	-1592
▁Mich	-1593
ospital	-1594
▁line	-1595
▁decision	-1596
▁ant	-1597
▁working	-1598
ares	-1599
▁water	-1600
▁anal	-1601
iving	-1602
▁es	-1603
▁Dec	-1604
ified	-1605
ron	-1606
▁Pal	-1607
▁UK	-1608
raw	-1609
▁design	-1610
▁services	-1611
ively	-1612
▁stri	-1613
▁alle	-1614
ething	-1615
▁spokesman	-1616
▁sell	-1617
uly	-1618
▁After	-1619
▁conv	-1620
▁earlier	-1621
▁Har	-1622
▁City	-1623
▁led	-1624
▁died	-1625
▁jud	-1626
inc	-1627
▁saf	-1628
▁tal	-1629
ounds	-1630
▁gener	-1631
▁insur	-1632
▁event	-1633
▁election	-1634
▁leader	-1635
ffic	-1636
▁region	-1637
ival	-1638
be	-1639
▁Pak	-1640
▁Afric	-1641
yp	-1642
▁Ang	-1643
▁nation	-1644
pite	-1645
▁known	-1646
▁future	-1647
ried	-1648
▁fig	-1649
▁taking	-1650
▁site	-1651
ming	-1652
▁saying	-1653
ances	-1654
▁University	-1655
▁face	-1656
▁Fl	-1657
▁complet	-1658
▁buy	-1659
ential	-1660
▁Britain	-1661
▁risk	-1662
▁federal	-1663
▁Aust	-1664
▁Sept	-1665
iod	-1666
▁cand	-1667
▁nearly	-1668
▁Calif	-1669
▁Pakistan	-1670
▁meeting	-1671
▁Clinton	-1672
▁previous	-1673
▁director	-1674
▁mor	-1675
▁having	-1676
▁40	-1677
imate	-1678
▁ve	-1679
aps	-1680
iron	-1681
▁pot	-1682
▁Am	-1683
▁emer	-1684
▁food	-1685
▁Christ	-1686
▁Police	-1687
▁credit	-1688
▁treat	-1689
▁whose	-1690
itted	-1691
▁cris	-1692
▁read	-1693
▁talk	-1694
▁something	-1695
▁ide	-1696
ring	-1697
▁June	-1698
aul	-1699
▁further	-1700
ients	-1701
ruct	-1702
▁once	-1703
▁char	-1704
▁fight	-1705
▁seven	-1706
amed	-1707
▁began	-1708
here	-1709
▁behind	-1710
▁Can	-1711
yn	-1712
▁others	-1713
work	-1714
▁almost	-1715
▁German	-1716
▁neg	-1717
AS	-1718
pan	-1719
▁side	-1720
▁bar	-1721
apan	-1722
▁David	-1723
▁21	-1724
▁due	-1725
▁hours	-1726
▁Will	-1727
▁pub	-1728
▁feel	-1729
▁price	-1730
▁trying	-1731
▁Cong	-1732
ene	-1733
▁Brown	-1734
▁didn	-1735
ata	-1736
ead	-1737
ler	-1738
▁asked	-1739
IN	-1740
gress	-1741
aker	-1742
wards	-1743
aged	-1744
▁laun	-1745
▁bas	-1746
▁ball	-1747
▁What	-1748
▁Japan	-1749
-2	-1750
▁El	-1751
▁question	-1752
▁result	-1753
▁often	-1754
hel	-1755
▁different	-1756
▁Gu	-1757
ds	-1758
▁increase	-1759
▁Reuters	-1760
pril	-1761
pping	-1762
af	-1763
▁lot	-1764
▁period	-1765
ulation	-1766
▁policy	-1767
▁State	-1768
▁rate	-1769
▁games	-1770
▁meas	-1771
▁yet	-1772
irl	-1773
▁tot	-1774
▁2006	-1775
▁Some	-1776
▁special	-1777
lex	-1778
▁effect	-1779
empt	-1780
mp	-1781
ences	-1782
uary	-1783
▁dead	-1784
▁Bank	-1785
▁candid	-1786
▁April	-1787
ille	-1788
▁eng	-1789
▁able	-1790
▁process	-1791
▁star	-1792
▁Gen	-1793
osing	-1794
crib	-1795
▁issue	-1796
▁foreign	-1797
▁foot	-1798
▁Afghanistan	-1799
PI	-1800
▁lim	-1801
▁24	-1802
▁vote	-1803
ael	-1804
▁reb	-1805
rem	-1806
▁woman	-1807
▁banks	-1808
▁bor	-1809
▁custom	-1810
▁activ	-1811
▁large	-1812
retary	-1813
▁executive	-1814
▁believe	-1815
▁land	-1816
▁media	-1817
▁tro	-1818
▁within	-1819
rup	-1820
ature	-1821
▁crisis	-1822
sel	-1823
▁Med	-1824
▁benef	-1825
▁infl	-1826
▁eight	-1827
▁White	-1828
▁avail	-1829
ittee	-1830
gency	-1831
▁break	-1832
▁series	-1833
ories	-1834
ivil	-1835
▁important	-1836
fic	-1837
lood	-1838
lish	-1839
icle	-1840
aster	-1841
ocial	-1842
▁ur	-1843
▁22	-1844
▁following	-1845
▁energy	-1846
orters	-1847
▁occ	-1848
akers	-1849
oon	-1850
▁things	-1851
▁Department	-1852
▁repres	-1853
▁class	-1854
iqu	-1855
ourt	-1856
▁administration	-1857
▁coup	-1858
▁private	-1859
iers	-1860
asing	-1861
▁div	-1862
ane	-1863
▁arg	-1864
▁Sw	-1865
▁town	-1866
ne	-1867
▁results	-1868
▁concern	-1869
▁Oct	-1870
▁road	-1871
▁paren	-1872
▁Inc	-1873
▁thought	-1874
iber	-1875
▁expect	-1876
ners	-1877
▁outside	-1878
▁shot	-1879
▁ever	-1880
▁why	-1881
▁film	-1882
itional	-1883
par	-1884
▁Dr	-1885
▁demand	-1886
gest	-1887
▁chall	-1888
▁Ed	-1889
time	-1890
▁However	-1891
▁club	-1892
▁non	-1893
▁July	-1894
▁released	-1895
ither	-1896
▁staff	-1897
aced	-1898
▁always	-1899
▁key	-1900
atives	-1901
for	-1902
▁suff	-1903
▁discuss	-1904
▁possible	-1905
umb	-1906
stand	-1907
.2	-1908
▁include	-1909
ester	-1910
▁using	-1911
▁cor	-1912
back	-1913
▁January	-1914
▁198	-1915
▁study	-1916
▁targ	-1917
▁UPI	-1918
▁Europe	-1919
▁Associ	-1920
▁offer	-1921
▁problems	-1922
▁based	-1923
▁env	-1924
itive	-1925
▁minutes	-1926
▁human	-1927
▁players	-1928
▁dev	-1929
▁markets	-1930
elt	-1931
▁foc	-1932
▁higher	-1933
▁opt	-1934
ements	-1935
▁serious	-1936
lished	-1937
▁Congress	-1938
▁Par	-1939
▁Kore	-1940
uclear	-1941
▁problem	-1942
▁Bo	-1943
▁ren	-1944
▁bring	-1945
▁mother	-1946
iet	-1947
▁leading	-1948
▁McCain	-1949
▁growth	-1950
▁To	-1951
▁gas	-1952
go	-1953
▁Minister	-1954
ging	-1955
▁available	-1956
arm	-1957
ortun	-1958
▁dro	-1959
ensive	-1960
▁bad	-1961
▁Aug	-1962
▁tell	-1963
epend	-1964
▁Californ	-1965
▁sn	-1966
▁black	-1967
ought	-1968
dle	-1969
▁sex	-1970
▁ident	-1971
▁mean	-1972
lam	-1973
bs	-1974
▁2010	-1975
▁hot	-1976
▁host	-1977
cast	-1978
.3	-1979
▁forces	-1980
▁costs	-1981
int	-1982
▁certain	-1983
▁Street	-1984
of	-1985
▁adm	-1986
ironment	-1987
ening	-1988
isc	-1989
▁workers	-1990
▁room	-1991
igr	-1992
▁Pl	-1993
▁authorities	-1994
▁contract	-1995
▁reports	-1996
sc	-1997
▁broad	-1998
▁started	-1999
ades	-2000
▁Count	-2001
ality	-2002
▁history	-2003
▁prison	-2004
▁research	-2005
down	-2006
▁particular	-2007
▁Court	-2008
▁ste	-2009
▁looking	-2010
▁fav	-2011
▁Feb	-2012
ribut	-2013
▁September	-2014
▁hospital	-2015
▁provide	-2016
▁civil	-2017
▁Austral	-2018
raft	-2019
raph	-2020
▁California	-2021
▁cho	-2022
▁My	-2023
▁mom	-2024
▁body	-2025
▁victory	-2026
▁building	-2027
▁nuclear	-2028
▁travel	-2029
▁getting	-2030
▁ple	-2031
▁ahead	-2032
▁Air	-2033
▁minister	-2034
inese	-2035
▁stay	-2036
rench	-2037
ney	-2038
▁December	-2039
iding	-2040
mber	-2041
▁role	-2042
▁dam	-2043
▁course	-2044
▁average	-2045
▁general	-2046
▁continue	-2047
▁Se	-2048
.4	-2049
▁gave	-2050
▁jobs	-2051
▁music	-2052
ressed	-2053
▁den	-2054
▁vide	-2055
▁biggest	-2056
ability	-2057
▁total	-2058
▁Republican	-2059
aud	-2060
▁received	-2061
▁hous	-2062
▁groups	-2063
ilar	-2064
▁present	-2065
▁name	-2066
ese	-2067
▁diffic	-2068
emp	-2069
ached	-2070
▁Ms	-2071
ims	-2072
▁hope	-2073
cy	-2074
▁champ	-2075
▁largest	-2076
ware	-2077
▁difficult	-2078
orpor	-2079
▁Chinese	-2080
▁relations	-2081
▁troops	-2082
▁rights	-2083
ung	-2084
▁recently	-2085
ovember	-2086
▁spending	-2087
▁front	-2088
based	-2089
▁23	-2090
▁done	-2091
▁begin	-2092
▁data	-2093
▁terror	-2094
▁Just	-2095
▁Democratic	-2096
.1	-2097
▁live	-2098
▁repl	-2099
▁mort	-2100
▁fourth	-2101
ford	-2102
▁poll	-2103
▁November	-2104
▁famil	-2105
▁ap	-2106
den	-2107
▁rather	-2108
▁girl	-2109
▁students	-2110
▁talks	-2111
▁comes	-2112
▁chair	-2113
▁lat	-2114
▁colle	-2115
▁Angel	-2116
▁became	-2117
▁charges	-2118
▁agency	-2119
▁While	-2120
hing	-2121
ij	-2122
▁wind	-2123
▁educ	-2124
▁comb	-2125
▁init	-2126
▁lower	-2127
▁Ste	-2128
▁veh	-2129
▁step	-2130
atic	-2131
▁forward	-2132
▁Michael	-2133
ape	-2134
oint	-2135
▁interview	-2136
▁field	-2137
▁gl	-2138
▁wife	-2139
duct	-2140
read	-2141
nings	-2142
uff	-2143
▁describ	-2144
rupt	-2145
▁De	-2146
▁War	-2147
▁respons	-2148
▁detail	-2149
▁played	-2150
▁himself	-2151
▁senior	-2152
▁signific	-2153
▁prob	-2154
medi	-2155
▁fre	-2156
idents	-2157
▁quick	-2158
ibility	-2159
▁firm	-2160
▁er	-2161
▁San	-2162
▁action	-2163
▁mess	-2164
▁bomb	-2165
▁International	-2166
▁Pe	-2167
AN	-2168
▁Part	-2169
▁French	-2170
▁sour	-2171
▁force	-2172
.7	-2173
▁arri	-2174
▁deter	-2175
▁vol	-2176
▁seek	-2177
ett	-2178
ids	-2179
OR	-2180
▁cover	-2181
▁Senate	-2182
▁board	-2183
▁Sm	-2184
▁pain	-2185
▁pract	-2186
▁conference	-2187
ined	-2188
▁thous	-2189
▁community	-2190
oring	-2191
▁Americans	-2192
▁telev	-2193
▁Ro	-2194
▁morning	-2195
estern	-2196
ales	-2197
▁latest	-2198
▁however	-2199
▁walk	-2200
ream	-2201
▁evidence	-2202
ches	-2203
▁states	-2204
▁coming	-2205
▁strate	-2206
ighb	-2207
▁compl	-2208
ector	-2209
selves	-2210
▁goal	-2211
▁issues	-2212
▁stock	-2213
▁27	-2214
▁race	-2215
ization	-2216
isl	-2217
▁rose	-2218
▁unc	-2219
▁needed	-2220
▁showed	-2221
▁Hill	-2222
▁East	-2223
▁father	-2224
▁exc	-2225
irc	-2226
▁60	-2227
▁toget	-2228
▁together	-2229
▁simp	-2230
▁confir	-2231
rap	-2232
ional	-2233
.6	-2234
uge	-2235
▁thing	-2236
hold	-2237
▁lear	-2238
▁pack	-2239
rong	-2240
ery	-2241
oman	-2242
▁investment	-2243
▁age	-2244
▁doesn	-2245
▁pred	-2246
▁kind	-2247
▁represent	-2248
ari	-2249
▁Coun	-2250
▁cash	-2251
aving	-2252
▁Democrats	-2253
▁Russia	-2254
▁sure	-2255
ests	-2256
▁October	-2257
▁access	-2258
▁compared	-2259
ournal	-2260
uation	-2261
▁try	-2262
▁account	-2263
▁emb	-2264
rugg	-2265
ination	-2266
▁tour	-2267
▁significant	-2268
▁despite	-2269
▁watch	-2270
amer	-2271
▁doing	-2272
▁fear	-2273
▁Paul	-2274
▁attacks	-2275
▁red	-2276
attle	-2277
esterday	-2278
eleb	-2279
▁mur	-2280
▁disp	-2281
▁phot	-2282
▁August	-2283
▁areas	-2284
ges	-2285
▁pick	-2286
▁online	-2287
ament	-2288
▁immedi	-2289
rel	-2290
▁bud	-2291
▁career	-2292
uk	-2293
tain	-2294
ze	-2295
▁running	-2296
▁match	-2297
▁attempt	-2298
▁involved	-2299
.9	-2300
▁France	-2301
stit	-2302
▁round	-2303
rought	-2304
iff	-2305
▁propert	-2306
▁rev	-2307
▁Jack	-2308
▁single	-2309
▁social	-2310
▁story	-2311
▁comment	-2312
▁investors	-2313
▁Lab	-2314
oti	-2315
▁legal	-2316
▁tit	-2317
▁reven	-2318
▁analyst	-2319
▁parents	-2320
▁wanted	-2321
▁News	-2322
▁neighb	-2323
▁technology	-2324
▁clos	-2325
▁miles	-2326
▁spent	-2327
▁dollars	-2328
▁Mark	-2329
▁rates	-2330
▁stop	-2331
▁development	-2332
▁similar	-2333
▁makes	-2334
▁Rober	-2335
vert	-2336
▁TV	-2337
▁26	-2338
▁tw	-2339
▁squ	-2340
▁critic	-2341
▁ground	-2342
▁ww	-2343
▁heart	-2344
▁rad	-2345
▁deep	-2346
ING	-2347
ift	-2348
▁www	-2349
▁summer	-2350
▁arrested	-2351
uses	-2352
itting	-2353
▁Ham	-2354
▁appeared	-2355
▁Web	-2356
▁Hol	-2357
ym	-2358
▁lab	-2359
▁release	-2360
▁light	-2361
▁shares	-2362
.8	-2363
▁nine	-2364
ask	-2365
▁manager	-2366
icted	-2367
▁2005	-2368
▁performance	-2369
▁saw	-2370
▁scored	-2371
aces	-2372
▁products	-2373
▁newsp	-2374
▁store	-2375
▁Ital	-2376
▁enc	-2377
▁soon	-2378
▁fun	-2379
▁typ	-2380
▁turned	-2381
▁mass	-2382
▁Mo	-2383
▁Mor	-2384
50	-2385
▁mot	-2386
▁prep	-2387
▁imm	-2388
▁independ	-2389
▁Now	-2390
▁position	-2391
▁failed	-2392
▁1,	-2393
▁Tal	-2394
▁William	-2395
▁presidential	-2396
ilt	-2397
pec	-2398
▁28	-2399
ule	-2400
undred	-2401
▁mortg	-2402
aur	-2403
▁Per	-2404
▁estim	-2405
▁India	-2406
▁homes	-2407
▁paid	-2408
▁bit	-2409
▁son	-2410
ote	-2411
▁needs	-2412
ault	-2413
liam	-2414
▁target	-2415
▁cases	-2416
▁although	-2417
▁port	-2418
ruary	-2419
▁environment	-2420
▁31	-2421
▁trade	-2422
▁project	-2423
▁cle	-2424
istrict	-2425
▁pos	-2426
▁strugg	-2427
mark	-2428
▁remain	-2429
avy	-2430
aled	-2431
liament	-2432
▁television	-2433
▁197	-2434
▁February	-2435
uty	-2436
▁hol	-2437
▁agreed	-2438
aughter	-2439
▁celeb	-2440
-0	-2441
▁regul	-2442
▁review	-2443
▁debt	-2444
▁accused	-2445
▁dest	-2446
▁Her	-2447
omm	-2448
ural	-2449
▁trip	-2450
ivid	-2451
▁gun	-2452
▁prim	-2453
▁prosecut	-2454
lymp	-2455
▁Times	-2456
rown	-2457
▁thousands	-2458
ico	-2459
▁Cons	-2460
▁reason	-2461
iting	-2462
▁Fin	-2463
▁efforts	-2464
▁helped	-2465
▁means	-2466
▁member	-2467
▁pressure	-2468
▁improve	-2469
▁County	-2470
▁doct	-2471
▁Park	-2472
▁CN	-2473
▁Olymp	-2474
▁accept	-2475
▁beat	-2476
▁mag	-2477
▁Los	-2478
▁sched	-2479
itch	-2480
▁reach	-2481
vey	-2482
▁Council	-2483
bn	-2484
▁peace	-2485
kn	-2486
▁experience	-2487
lement	-2488
▁friends	-2489
▁investigation	-2490
▁medical	-2491
▁Cap	-2492
wh	-2493
▁track	-2494
▁lawy	-2495
orney	-2496
fact	-2497
▁ended	-2498
▁Sch	-2499
oking	-2500
▁Barack	-2501
▁legisl	-2502
band	-2503
▁potential	-2504
▁yesterday	-2505
▁aud	-2506
wood	-2507
ecess	-2508
▁trial	-2509
▁Rich	-2510
▁popular	-2511
▁themselves	-2512
▁schools	-2513
ray	-2514
enal	-2515
▁slow	-2516
▁production	-2517
the	-2518
bur	-2519
▁docu	-2520
▁orig	-2521
▁vers	-2522
▁negoti	-2523
▁opportun	-2524
▁Mus	-2525
▁Mex	-2526
ada	-2527
-3	-2528
▁bur	-2529
▁base	-2530
orthern	-2531
▁nothing	-2532
▁conc	-2533
▁govern	-2534
▁Sup	-2535
▁officers	-2536
anger	-2537
▁agreement	-2538
▁allowed	-2539
▁Serv	-2540
sy	-2541
change	-2542
▁chance	-2543
▁Pat	-2544
▁BBC	-2545
▁brought	-2546
▁Angeles	-2547
▁personal	-2548
▁By	-2549
▁Islam	-2550
val	-2551
▁George	-2552
▁GM	-2553
▁Cup	-2554
▁weekend	-2555
▁leave	-2556
ago	-2557
▁patients	-2558
▁redu	-2559
▁Not	-2560
▁League	-2561
▁video	-2562
▁network	-2563
▁Phil	-2564
▁tre	-2565
wide	-2566
pect	-2567
ald	-2568
▁Ser	-2569
▁insurance	-2570
▁rise	-2571
▁More	-2572
▁doub	-2573
amb	-2574
▁increasing	-2575
▁sett	-2576
▁murder	-2577
▁alleged	-2578
ruction	-2579
ample	-2580
▁customers	-2581
imb	-2582
▁Ne	-2583
ude	-2584
uit	-2585
eration	-2586
ently	-2587
alled	-2588
ises	-2589
▁Red	-2590
▁cann	-2591
▁worked	-2592
▁shoot	-2593
▁opposition	-2594
rid	-2595
TON	-2596
room	-2597
▁value	-2598
ceed	-2599
▁ill	-2600
▁Compan	-2601
▁remains	-2602
▁carry	-2603
▁wants	-2604
▁couple	-2605
▁shows	-2606
▁published	-2607
▁claims	-2608
▁included	-2609
▁probably	-2610
▁worth	-2611
New	-2612
▁Qu	-2613
▁reform	-2614
▁increased	-2615
▁indic	-2616
▁central	-2617
▁violence	-2618
▁annual	-2619
▁search	-2620
ana	-2621
▁X	-2622
▁super	-2623
irst	-2624
oud	-2625
▁ey	-2626
▁north	-2627
▁surpr	-2628
▁Acc	-2629
▁voters	-2630
▁Last	-2631
▁Center	-2632
▁lives	-2633
▁white	-2634
▁idea	-2635
▁charged	-2636
ilities	-2637
▁seems	-2638
▁longer	-2639
▁CNN	-2640
▁Ear	-2641
▁individ	-2642
▁Ken	-2643
▁poor	-2644
▁surv	-2645
▁tried	-2646
▁charge	-2647
pecially	-2648
erve	-2649
▁James	-2650
▁growing	-2651
aging	-2652
unt	-2653
ows	-2654
uing	-2655
▁forced	-2656
ips	-2657
▁laws	-2658
▁stra	-2659
▁space	-2660
▁Ber	-2661
▁Government	-2662
▁playing	-2663
▁Mic	-2664
▁coach	-2665
▁Two	-2666
▁phone	-2667
▁operations	-2668
▁propos	-2669
▁effort	-2670
outhern	-2671
▁living	-2672
yle	-2673
lined	-2674
▁moment	-2675
iec	-2676
▁cult	-2677
▁hundred	-2678
▁budget	-2679
▁mult	-2680
▁tur	-2681
chers	-2682
ogn	-2683
▁General	-2684
▁either	-2685
▁Thom	-2686
▁circ	-2687
▁extra	-2688
▁management	-2689
▁Tex	-2690
▁Te	-2691
ounded	-2692
ris	-2693
▁29	-2694
▁common	-2695
aded	-2696
▁sat	-2697
ox	-2698
▁Africa	-2699
utions	-2700
▁2004	-2701
▁anything	-2702
▁cell	-2703
onst	-2704
istic	-2705
▁deliver	-2706
mit	-2707
ida	-2708
▁i	-2709
ander	-2710
▁Group	-2711
▁changes	-2712
▁z	-2713
▁wait	-2714
ension	-2715
ograph	-2716
▁Fed	-2717
▁cause	-2718
eed	-2719
▁player	-2720
▁conn	-2721
ify	-2722
▁funds	-2723
mon	-2724
imin	-2725
ster	-2726
fully	-2727
▁chairman	-2728
▁officer	-2729
▁matter	-2730
AR	-2731
▁prevent	-2732
▁fuel	-2733
▁App	-2734
▁conditions	-2735
pro	-2736
using	-2737
haps	-2738
▁especially	-2739
▁ens	-2740
▁figures	-2741
▁heard	-2742
▁bid	-2743
▁Mart	-2744
AT	-2745
▁celebr	-2746
▁boy	-2747
▁recession	-2748
▁Secretary	-2749
▁disapp	-2750
▁moved	-2751
reg	-2752
overed	-2753
▁assist	-2754
▁di	-2755
▁families	-2756
▁protect	-2757
▁Even	-2758
▁council	-2759
ider	-2760
▁education	-2761
▁mer	-2762
▁anti	-2763
▁impact	-2764
ER	-2765
▁trou	-2766
▁avo	-2767
ole	-2768
▁Health	-2769
▁mater	-2770
jects	-2771
▁Wall	-2772
hood	-2773
▁safety	-2774
▁levels	-2775
duced	-2776
ease	-2777
▁vir	-2778
▁friend	-2779
olution	-2780
na	-2781
▁lack	-2782
▁training	-2783
▁Korea	-2784
▁Commission	-2785
▁Scott	-2786
▁someone	-2787
aily	-2788
▁abs	-2789
▁Indian	-2790
▁Germany	-2791
▁raised	-2792
▁scient	-2793
▁green	-2794
▁reve	-2795
▁PR	-2796
▁wrong	-2797
▁These	-2798
▁cancer	-2799
▁understand	-2800
▁south	-2801
raz	-2802
▁Gl	-2803
▁address	-2804
▁Company	-2805
▁refer	-2806
▁Des	-2807
field	-2808
▁hur	-2809
▁Scot	-2810
▁decided	-2811
▁contr	-2812
ufact	-2813
▁mat	-2814
▁huge	-2815
▁newspaper	-2816
cement	-2817
▁cross	-2818
ocked	-2819
▁trading	-2820
▁calls	-2821
swire	-2822
▁Mid	-2823
atory	-2824
ender	-2825
▁Ben	-2826
▁profit	-2827
▁Tre	-2828
▁eu	-2829
▁contribut	-2830
▁pan	-2831
▁park	-2832
▁example	-2833
▁separ	-2834
▁straight	-2835
▁anyone	-2836
▁500	-2837
▁weap	-2838
▁closed	-2839
Newswire	-2840
▁Russian	-2841
▁Union	-2842
▁income	-2843
▁amb	-2844
sp	-2845
▁treatment	-2846
▁acqu	-2847
▁Char	-2848
itness	-2849
▁product	-2850
▁questions	-2851
▁challen	-2852
▁property	-2853
▁rules	-2854
chie	-2855
▁stage	-2856
▁Flor	-2857
▁Mer	-2858
▁sho	-2859
▁concerns	-2860
ires	-2861
▁196	-2862
ota	-2863
oming	-2864
iban	-2865
▁Texas	-2866
▁soldiers	-2867
▁actually	-2868
▁Off	-2869
term	-2870
▁love	-2871
men	-2872
▁amount	-2873
enced	-2874
▁Mil	-2875
▁described	-2876
iant	-2877
▁Many	-2878
▁hon	-2879
-4	-2880
eph	-2881
▁35	-2882
▁center	-2883
ocks	-2884
hol	-2885
▁inside	-2886
itor	-2887
▁terms	-2888
▁Bill	-2889
lines	-2890
▁consider	-2891
▁judge	-2892
▁conduct	-2893
▁climate	-2894
eck	-2895
▁feat	-2896
▁opening	-2897
ellig	-2898
▁rock	-2899
▁cannot	-2900
overy	-2901
▁Mad	-2902
ope	-2903
▁soft	-2904
vest	-2905
▁above	-2906
obile	-2907
▁draw	-2908
iled	-2909
alt	-2910
▁retail	-2911
▁Em	-2912
▁answ	-2913
▁believed	-2914
lying	-2915
▁situation	-2916
merc	-2917
ugh	-2918
▁crow	-2919
estin	-2920
▁particularly	-2921
▁check	-2922
aries	-2923
BS	-2924
▁Prime	-2925
oke	-2926
▁Smith	-2927
▁followed	-2928
▁conserv	-2929
▁Taliban	-2930
▁nomin	-2931
makers	-2932
▁Corp	-2933
▁cal	-2934
arent	-2935
▁hus	-2936
▁fans	-2937
▁Roy	-2938
▁events	-2939
aut	-2940
arp	-2941
▁spot	-2942
▁Florida	-2943
▁stre	-2944
▁hands	-2945
▁entire	-2946
bed	-2947
▁station	-2948
▁ran	-2949
▁mind	-2950
▁giving	-2951
▁rout	-2952
▁offered	-2953
▁runs	-2954
▁recogn	-2955
istry	-2956
▁Black	-2957
▁currently	-2958
onse	-2959
uled	-2960
▁create	-2961
icles	-2962
while	-2963
▁anim	-2964
▁estab	-2965
▁exist	-2966
▁70	-2967
▁associ	-2968
▁Robert	-2969
▁quickly	-2970
▁Op	-2971
▁itself	-2972
▁border	-2973
▁achie	-2974
▁daughter	-2975
▁Republicans	-2976
▁works	-2977
▁aid	-2978
▁vac	-2979
▁continued	-2980
ipp	-2981
▁drive	-2982
▁link	-2983
▁regular	-2984
isions	-2985
▁flo	-2986
▁Vir	-2987
set	-2988
etro	-2989
▁intro	-2990
▁manufact	-2991
▁MP	-2992
▁Tur	-2993
▁NE	-2994
▁Internet	-2995
▁unl	-2996
▁instead	-2997
▁named	-2998
.0	-2999
ials	-3000
▁relationship	-3001
▁cars	-3002
ders	-3003
ston	-3004
▁self	-3005
▁winning	-3006
▁mill	-3007
▁warned	-3008
▁danger	-3009
▁caused	-3010
▁Chic	-3011
▁influ	-3012
▁Press	-3013
▁sector	-3014
▁blood	-3015
▁respond	-3016
▁Don	-3017
▁title	-3018
▁pict	-3019
▁touch	-3020
▁majority	-3021
▁push	-3022
▁purch	-3023
▁term	-3024
▁Green	-3025
ounts	-3026
▁employees	-3027
oo	-3028
▁businesses	-3029
▁candidate	-3030
▁mis	-3031
▁Aut	-3032
▁housing	-3033
rote	-3034
▁Jones	-3035
▁Labour	-3036
aught	-3037
ption	-3038
itz	-3039
▁creat	-3040
INGTON	-3041
▁returned	-3042
▁Party	-3043
▁drop	-3044
▁claimed	-3045
▁includes	-3046
▁repe	-3047
▁mortgage	-3048
▁require	-3049
atural	-3050
▁prime	-3051
ASH	-3052
▁whole	-3053
uter	-3054
▁weak	-3055
▁instit	-3056
▁applic	-3057
▁numbers	-3058
▁reached	-3059
▁School	-3060
▁Other	-3061
▁approach	-3062
▁details	-3063
▁Australia	-3064
▁double	-3065
▁Dan	-3066
unk	-3067
▁80	-3068
▁wear	-3069
▁sense	-3070
ona	-3071
▁charac	-3072
come	-3073
▁Association	-3074
▁husband	-3075
▁elections	-3076
▁planned	-3077
▁resear	-3078
▁killing	-3079
▁phys	-3080
▁card	-3081
▁residents	-3082
▁Chicago	-3083
▁EU	-3084
▁encour	-3085
▁corpor	-3086
▁football	-3087
▁score	-3088
▁2003	-3089
uries	-3090
ociety	-3091
lom	-3092
▁incident	-3093
▁Palestin	-3094
▁Scotland	-3095
▁Net	-3096
▁raise	-3097
▁prem	-3098
▁journal	-3099
▁commerc	-3100
▁dropped	-3101
▁Gold	-3102
lant	-3103
▁flu	-3104
▁range	-3105
▁Iraqi	-3106
oul	-3107
▁response	-3108
▁wrote	-3109
▁People	-3110
▁debate	-3111
▁drugs	-3112
▁opened	-3113
ills	-3114
▁fast	-3115
▁Act	-3116
▁immediately	-3117
▁WASH	-3118
▁teams	-3119
▁fair	-3120
▁cuts	-3121
▁WASHINGTON	-3122
▁pers	-3123
▁webs	-3124
▁grand	-3125
▁Rob	-3126
▁dom	-3127
▁aim	-3128
▁confirmed	-3129
reme	-3130
unch	-3131
asons	-3132
▁engine	-3133
ara	-3134
jected	-3135
icket	-3136
rian	-3137
▁counter	-3138
▁esc	-3139
▁Johnson	-3140
elling	-3141
▁built	-3142
▁survey	-3143
▁focus	-3144
ES	-3145
▁particip	-3146
▁boost	-3147
▁launch	-3148
emb	-3149
iance	-3150
▁profession	-3151
▁High	-3152
▁happened	-3153
▁gold	-3154
▁necess	-3155
▁Mur	-3156
rial	-3157
▁Richard	-3158
▁committee	-3159
▁sel	-3160
illeg	-3161
▁condition	-3162
▁Do	-3163
▁Tom	-3164
▁Arab	-3165
▁Offic	-3166
rief	-3167
▁Although	-3168
▁resc	-3169
▁isn	-3170
▁considered	-3171
▁attorney	-3172
▁vill	-3173
cher	-3174
▁loans	-3175
airs	-3176
▁Fore	-3177
▁shut	-3178
▁plant	-3179
ode	-3180
▁assets	-3181
ading	-3182
▁attract	-3183
estic	-3184
▁Cr	-3185
bon	-3186
ipped	-3187
▁Virgin	-3188
▁Sim	-3189
▁defe	-3190
▁additional	-3191
night	-3192
▁hundreds	-3193
tt	-3194
house	-3195
▁Israeli	-3196
hester	-3197
▁simply	-3198
▁pul	-3199
play	-3200
▁African	-3201
▁speech	-3202
▁capt	-3203
▁Jackson	-3204
▁wasn	-3205
▁lif	-3206
▁Mexico	-3207
▁decl	-3208
ky	-3209
▁everyone	-3210
▁illeg	-3211
berg	-3212
▁sto	-3213
▁King	-3214
▁reduce	-3215
▁enj	-3216
▁cents	-3217
aine	-3218
▁sale	-3219
▁signed	-3220
▁worst	-3221
▁parliament	-3222
▁bott	-3223
▁Dar	-3224
▁norm	-3225
▁Wood	-3226
zz	-3227
ionship	-3228
▁brok	-3229
inks	-3230
▁award	-3231
▁32	-3232
▁teac	-3233
▁Of	-3234
hib	-3235
▁battle	-3236
▁appeal	-3237
cel	-3238
irth	-3239
▁everything	-3240
▁movie	-3241
▁attention	-3242
▁leaving	-3243
▁analysts	-3244
▁progress	-3245
▁doz	-3246
▁demonst	-3247
▁takes	-3248
▁hear	-3249
▁decades	-3250
▁Federal	-3251
▁middle	-3252
▁NEW	-3253
▁refl	-3254
▁bal	-3255
▁seeking	-3256
▁quite	-3257
▁Committee	-3258
body	-3259
▁consumer	-3260
▁dip	-3261
elligence	-3262
▁Most	-3263
▁created	-3264
▁fighting	-3265
▁experts	-3266
iation	-3267
▁Def	-3268
▁brother	-3269
▁prior	-3270
▁scheduled	-3271
▁injured	-3272
▁teen	-3273
▁parties	-3274
▁consumers	-3275
woman	-3276
▁benefits	-3277
▁revenue	-3278
▁La	-3279
▁hopes	-3280
▁looked	-3281
▁rising	-3282
▁Georg	-3283
▁mount	-3284
▁respect	-3285
▁contact	-3286
▁English	-3287
ijing	-3288
itiz	-3289
▁launched	-3290
lands	-3291
▁parts	-3292
▁measures	-3293
▁45	-3294
▁losses	-3295
shire	-3296
▁coal	-3297
▁hearing	-3298
▁advert	-3299
▁gone	-3300
▁feet	-3301
▁save	-3302
▁Beijing	-3303
de	-3304
▁index	-3305
▁sche	-3306
▁filed	-3307
▁relig	-3308
encies	-3309
▁defense	-3310
iter	-3311
yc	-3312
action	-3313
▁ability	-3314
▁programs	-3315
ume	-3316
ams	-3317
▁article	-3318
▁PRNewswire	-3319
▁jail	-3320
▁emergency	-3321
▁According	-3322
anced	-3323
ashed	-3324
▁Sir	-3325
▁Treas	-3326
resh	-3327
▁population	-3328
▁commission	-3329
light	-3330
ancy	-3331
▁toward	-3332
▁Research	-3333
reng	-3334
▁version	-3335
▁box	-3336
▁suffered	-3337
ino	-3338
ogle	-3339
arily	-3340
agh	-3341
▁clean	-3342
ding	-3343
ny	-3344
▁disease	-3345
▁jump	-3346
▁injury	-3347
▁vo	-3348
▁Office	-3349
▁dollar	-3350
▁felt	-3351
▁paper	-3352
BI	-3353
▁Musl	-3354
▁independent	-3355
▁passed	-3356
▁bab	-3357
orks	-3358
▁90	-3359
▁legislation	-3360
▁issued	-3361
▁reporters	-3362
etimes	-3363
▁kept	-3364
issions	-3365
isted	-3366
illed	-3367
isters	-3368
▁starting	-3369
▁train	-3370
ental	-3371
ites	-3372
▁ways	-3373
oted	-3374
▁sil	-3375
oph	-3376
ushed	-3377
▁dism	-3378
right	-3379
▁expand	-3380
▁strike	-3381
▁operating	-3382
▁Kar	-3383
▁Tw	-3384
alls	-3385
▁commercial	-3386
▁victims	-3387
▁estimated	-3388
▁figure	-3389
▁competition	-3390
erry	-3391
▁army	-3392
che	-3393
▁crime	-3394
▁centre	-3395
employ	-3396
▁insp	-3397
▁recomm	-3398
▁Mal	-3399
▁dig	-3400
iminal	-3401
▁piec	-3402
▁contro	-3403
▁Google	-3404
ique	-3405
ki	-3406
▁Carol	-3407
adem	-3408
▁Bur	-3409
▁avoid	-3410
▁message	-3411
▁Som	-3412
▁wid	-3413
▁bail	-3414
acing	-3415
20	-3416
▁apparent	-3417
▁pret	-3418
▁streng	-3419
▁autom	-3420
▁regard	-3421
▁dog	-3422
▁addition	-3423
▁declined	-3424
▁owners	-3425
▁histor	-3426
▁advis	-3427
ems	-3428
ilty	-3429
icians	-3430
ishing	-3431
▁spread	-3432
icide	-3433
▁partners	-3434
▁consult	-3435
run	-3436
▁Bay	-3437
▁Kh	-3438
▁unf	-3439
▁challenge	-3440
▁restaur	-3441
▁hotel	-3442
▁guard	-3443
▁highest	-3444
▁seemed	-3445
urities	-3446
▁supporters	-3447
▁else	-3448
gent	-3449
▁trust	-3450
▁Alex	-3451
▁favor	-3452
hire	-3453
iction	-3454
▁Since	-3455
▁sle	-3456
-6	-3457
▁Security	-3458
▁Prof	-3459
acts	-3460
▁opportunity	-3461
▁immigr	-3462
▁designed	-3463
▁spend	-3464
▁trib	-3465
▁2001	-3466
▁guilty	-3467
▁Val	-3468
▁provided	-3469
imately	-3470
▁easy	-3471
ban	-3472
▁crowd	-3473
▁obs	-3474
vent	-3475
ifth	-3476
▁perhaps	-3477
▁weapons	-3478
▁Port	-3479
▁strik	-3480
▁constit	-3481
▁wat	-3482
▁funding	-3483
▁Rod	-3484
▁sens	-3485
izing	-3486
▁driving	-3487
▁bond	-3488
essor	-3489
▁brief	-3490
▁Treasury	-3491
▁below	-3492
▁diplom	-3493
▁strategy	-3494
▁candidates	-3495
▁crew	-3496
▁statements	-3497
ST	-3498
▁sites	-3499
▁measure	-3500
▁domestic	-3501
▁fix	-3502
yan	-3503
▁missing	-3504
angu	-3505
▁subs	-3506
▁Lou	-3507
iring	-3508
icks	-3509
▁restr	-3510
▁millions	-3511
▁required	-3512
▁sharp	-3513
▁quality	-3514
▁receive	-3515
▁proposed	-3516
stitute	-3517
ordon	-3518
▁Peter	-3519
rey	-3520
▁scene	-3521
▁date	-3522
yond	-3523
▁Me	-3524
▁vehicles	-3525
▁Williams	-3526
▁screen	-3527
▁commit	-3528
▁street	-3529
▁Day	-3530
elled	-3531
▁beyond	-3532
▁Martin	-3533
▁wonder	-3534
▁ep	-3535
▁blo	-3536
▁Franc	-3537
care	-3538
▁goes	-3539
▁Miss	-3540
▁mix	-3541
▁whom	-3542
▁natural	-3543
noon	-3544
▁suggested	-3545
▁Oh	-3546
▁ready	-3547
▁yards	-3548
▁Then	-3549
▁words	-3550
▁Atlant	-3551
▁inn	-3552
▁speed	-3553
▁song	-3554
▁heavy	-3555
mar	-3556
▁damage	-3557
▁Turk	-3558
▁farm	-3559
▁decade	-3560
▁computer	-3561
ugg	-3562
ma	-3563
▁researchers	-3564
olf	-3565
▁penal	-3566
▁Royal	-3567
▁letter	-3568
▁website	-3569
▁36	-3570
▁admitted	-3571
▁student	-3572
aves	-3573
▁complain	-3574
▁Western	-3575
▁overall	-3576
▁birth	-3577
▁bed	-3578
▁Both	-3579
ager	-3580
▁Under	-3581
useum	-3582
iger	-3583
▁operation	-3584
▁carried	-3585
pper	-3586
▁pur	-3587
▁rob	-3588
roy	-3589
▁rival	-3590
▁primary	-3591
▁Sy	-3592
▁lay	-3593
▁var	-3594
ashion	-3595
iously	-3596
500	-3597
▁request	-3598
ecutive	-3599
▁moving	-3600
▁comments	-3601
▁recovery	-3602
0,000	-3603
▁cat	-3604
▁previously	-3605
book	-3606
▁hor	-3607
▁Champ	-3608
▁Army	-3609
▁33	-3610
enders	-3611
▁rare	-3612
▁Su	-3613
ously	-3614
▁storm	-3615
▁finished	-3616
▁Wales	-3617
▁college	-3618
ources	-3619
mas	-3620
▁planning	-3621
▁enjoy	-3622
▁beg	-3623
▁coast	-3624
▁complete	-3625
▁Tod	-3626
fect	-3627
▁300	-3628
▁Post	-3629
▁served	-3630
uth	-3631
ORK	-3632
▁Justice	-3633
▁southern	-3634
▁ten	-3635
▁knew	-3636
▁corn	-3637
ructure	-3638
▁Invest	-3639
▁Mrs	-3640
▁source	-3641
▁UN	-3642
▁joined	-3643
ils	-3644
▁arrived	-3645
▁minor	-3646
▁vehicle	-3647
OS	-3648
▁true	-3649
▁ruling	-3650
oms	-3651
▁exam	-3652
▁offering	-3653
▁department	-3654
▁witness	-3655
▁fresh	-3656
▁block	-3657
▁ful	-3658
▁alone	-3659
▁speak	-3660
icit	-3661
▁inqu	-3662
▁afternoon	-3663
▁citiz	-3664
▁rule	-3665
round	-3666
ordin	-3667
▁Manc	-3668
▁YORK	-3669
▁wel	-3670
▁[	-3671
▁denied	-3672
ression	-3673
▁rap	-3674
▁champion	-3675
▁projects	-3676
▁union	-3677
▁unemploy	-3678
▁fat	-3679
▁flight	-3680
▁greater	-3681
fort	-3682
▁]	-3683
asts	-3684
iling	-3685
▁Pri	-3686
ties	-3687
▁Inter	-3688
iny	-3689
▁Mos	-3690
▁loan	-3691
reland	-3692
▁losing	-3693
▁mobile	-3694
▁Fer	-3695
mail	-3696
▁withd	-3697
▁holding	-3698
▁demonstr	-3699
▁ensure	-3700
▁secretary	-3701
eek	-3702
IA	-3703
▁subject	-3704
▁electric	-3705
▁model	-3706
EL	-3707
▁Cle	-3708
▁Braz	-3709
▁offers	-3710
▁extrem	-3711
owers	-3712
eff	-3713
enses	-3714
▁Ireland	-3715
▁looks	-3716
empor	-3717
▁explos	-3718
arant	-3719
holders	-3720
▁politics	-3721
▁conflic	-3722
▁challeng	-3723
enty	-3724
▁earnings	-3725
▁injuries	-3726
owled	-3727
▁tough	-3728
▁behav	-3729
▁2002	-3730
▁believes	-3731
incip	-3732
▁bought	-3733
sequ	-3734
turn	-3735
▁winner	-3736
▁amid	-3737
▁spokeswoman	-3738
▁Gordon	-3739
▁changed	-3740
▁drink	-3741
isation	-3742
▁Wil	-3743
▁twice	-3744
▁practice	-3745
erem	-3746
het	-3747
▁Law	-3748
▁goals	-3749
▁Bel	-3750
▁throw	-3751
▁Brazil	-3752
▁militants	-3753
▁broke	-3754
▁tourn	-3755
▁agree	-3756
▁Pet	-3757
▁borrow	-3758
▁Sam	-3759
▁throughout	-3760
▁remov	-3761
gen	-3762
ibly	-3763
▁successful	-3764
▁First	-3765
igan	-3766
▁meant	-3767
▁modern	-3768
▁choice	-3769
▁kick	-3770
west	-3771
▁arch	-3772
▁Virginia	-3773
DA	-3774
clus	-3775
▁Del	-3776
▁remained	-3777
antage	-3778
▁intelligence	-3779
▁Jud	-3780
▁selling	-3781
▁safe	-3782
▁Mac	-3783
▁controvers	-3784
▁Rock	-3785
▁mist	-3786
▁mission	-3787
▁et	-3788
▁wild	-3789
iscal	-3790
rick	-3791
van	-3792
isco	-3793
▁systems	-3794
▁kid	-3795
▁decline	-3796
▁Mary	-3797
▁determin	-3798
▁34	-3799
▁prec	-3800
arian	-3801
aed	-3802
▁Ir	-3803
▁bi	-3804
▁positive	-3805
▁posted	-3806
▁cast	-3807
▁lawyer	-3808
▁Olympic	-3809
▁uns	-3810
cing	-3811
que	-3812
▁construction	-3813
▁Mot	-3814
ctions	-3815
▁beginning	-3816
▁fifth	-3817
▁crash	-3818
▁ordered	-3819
▁finally	-3820
▁sym	-3821
▁suppl	-3822
▁grad	-3823
▁occur	-3824
▁Associated	-3825
▁clin	-3826
▁specific	-3827
▁sem	-3828
▁2000	-3829
▁Nor	-3830
▁Jim	-3831
▁Chief	-3832
EN	-3833
▁Japanese	-3834
▁Lord	-3835
▁criminal	-3836
▁doctors	-3837
▁domin	-3838
ipment	-3839
▁Mass	-3840
iles	-3841
ya	-3842
ointed	-3843
uted	-3844
▁governor	-3845
onn	-3846
▁Bost	-3847
IC	-3848
▁firms	-3849
▁Frank	-3850
▁subst	-3851
imul	-3852
astic	-3853
rang	-3854
▁appears	-3855
▁Asia	-3856
▁shooting	-3857
▁Manchester	-3858
▁struck	-3859
▁Service	-3860
▁nations	-3861
▁traditional	-3862
▁Conserv	-3863
▁unit	-3864
▁Mike	-3865
▁finance	-3866
▁flood	-3867
▁written	-3868
▁illegal	-3869
▁Tel	-3870
▁pun	-3871
▁Another	-3872
▁adding	-3873
ha	-3874
▁brand	-3875
▁original	-3876
anch	-3877
▁fem	-3878
▁overse	-3879
▁slight	-3880
orter	-3881
agn	-3882
▁concerned	-3883
▁league	-3884
▁liber	-3885
▁document	-3886
ications	-3887
▁vice	-3888
▁signs	-3889
▁kids	-3890
▁confidence	-3891
▁radio	-3892
▁Matt	-3893
▁users	-3894
▁sometimes	-3895
▁serve	-3896
▁fle	-3897
oz	-3898
▁adop	-3899
▁Christmas	-3900
ux	-3901
▁Ah	-3902
▁partner	-3903
inger	-3904
▁responsible	-3905
-5	-3906
▁attend	-3907
ersey	-3908
▁strateg	-3909
▁Canada	-3910
▁Boston	-3911
▁delay	-3912
▁evening	-3913
▁ang	-3914
▁protest	-3915
aches	-3916
▁character	-3917
▁gets	-3918
▁spoke	-3919
itter	-3920
▁calling	-3921
▁books	-3922
▁weather	-3923
▁ver	-3924
arters	-3925
lywood	-3926
▁scheme	-3927
▁District	-3928
ological	-3929
▁policies	-3930
▁except	-3931
▁corporate	-3932
▁benefit	-3933
▁faces	-3934
icip	-3935
iller	-3936
▁send	-3937
▁exact	-3938
ns	-3939
▁Hillary	-3940
▁Mean	-3941
▁caught	-3942
▁Despite	-3943
▁rat	-3944
▁Paris	-3945
▁approved	-3946
▁refused	-3947
abin	-3948
▁During	-3949
▁leadership	-3950
▁stopped	-3951
▁stimul	-3952
▁Hall	-3953
▁powerful	-3954
▁driver	-3955
▁exchange	-3956
▁qualif	-3957
▁Big	-3958
▁cop	-3959
▁joint	-3960
▁sport	-3961
▁sound	-3962
▁suicide	-3963
mad	-3964
▁experi	-3965
▁Thomas	-3966
▁individual	-3967
▁Micro	-3968
▁Well	-3969
▁tight	-3970
▁princip	-3971
ortion	-3972
▁Italy	-3973
add	-3974
▁owner	-3975
▁37	-3976
▁altern	-3977
▁complex	-3978
▁remark	-3979
▁church	-3980
ification	-3981
ented	-3982
▁Those	-3983
▁lose	-3984
▁born	-3985
▁sports	-3986
ado	-3987
▁banking	-3988
▁limited	-3989
asion	-3990
sych	-3991
▁Gar	-3992
▁activity	-3993
▁door	-3994
▁mach	-3995
AL	-3996
aza	-3997
▁wide	-3998
▁talking	-3999
▁Bu	-4000
▁certainly	-4001
▁Ari	-4002
▁industrial	-4003
▁plane	-4004
osure	-4005
▁row	-4006
▁Che	-4007
▁aw	-4008
▁Over	-4009
▁fiscal	-4010
▁sources	-4011
▁facing	-4012
▁transport	-4013
▁helping	-4014
▁Georgia	-4015
▁camer	-4016
▁unp	-4017
▁bird	-4018
▁AN	-4019
riage	-4020
▁package	-4021
▁sav	-4022
illing	-4023
▁Cub	-4024
▁towards	-4025
▁Cont	-4026
▁related	-4027
▁ir	-4028
SE	-4029
fri	-4030
▁estate	-4031
win	-4032
▁neighbor	-4033
idge	-4034
knowled	-4035
ein	-4036
▁deaths	-4037
▁ship	-4038
iar	-4039
▁Meanwhile	-4040
▁largely	-4041
▁Ma	-4042
▁fine	-4043
erc	-4044
▁collect	-4045
▁daily	-4046
▁contributed	-4047
imum	-4048
ewhere	-4049
▁lines	-4050
eal	-4051
▁acknowled	-4052
▁revealed	-4053
▁places	-4054
▁records	-4055
▁inflation	-4056
▁taxes	-4057
ining	-4058
▁Our	-4059
▁size	-4060
olic	-4061
craft	-4062
point	-4063
▁Author	-4064
▁Tim	-4065
▁resign	-4066
▁island	-4067
▁fraud	-4068
▁district	-4069
▁software	-4070
▁secret	-4071
▁Den	-4072
▁Commun	-4073
▁protection	-4074
▁lic	-4075
▁san	-4076
▁nar	-4077
▁argu	-4078
ica	-4079
▁critical	-4080
sea	-4081
▁veter	-4082
bre	-4083
oor	-4084
▁seconds	-4085
▁programme	-4086
▁ult	-4087
▁purs	-4088
▁showing	-4089
▁band	-4090
▁proposal	-4091
▁willing	-4092
▁Stan	-4093
▁Yet	-4094
▁38	-4095
▁ones	-4096
▁Open	-4097
▁accident	-4098
▁Sal	-4099
▁increasingly	-4100
▁sides	-4101
▁developing	-4102
oper	-4103
apers	-4104
▁alleg	-4105
▁developed	-4106
▁Lee	-4107
apt	-4108
▁votes	-4109
entially	-4110
▁1,000	-4111
rec	-4112
▁supply	-4113
▁pil	-4114
een	-4115
rip	-4116
▁afford	-4117
▁equipment	-4118
▁Ec	-4119
▁Jew	-4120
pay	-4121
▁missed	-4122
▁langu	-4123
▁northern	-4124
▁Louis	-4125
▁airport	-4126
ville	-4127
ria	-4128
▁bag	-4129
atively	-4130
▁traffic	-4131
asc	-4132
▁holiday	-4133
▁learn	-4134
▁Rec	-4135
▁tournament	-4136
▁Spain	-4137
▁pled	-4138
ears	-4139
▁Lo	-4140
▁Road	-4141
tr	-4142
▁happy	-4143
ours	-4144
▁Chris	-4145
▁Penn	-4146
iest	-4147
soft	-4148
▁eventually	-4149
▁shown	-4150
▁produced	-4151
▁basis	-4152
pool	-4153
gery	-4154
▁remember	-4155
▁assault	-4156
▁From	-4157
▁Ac	-4158
▁happen	-4159
▁highly	-4160
▁failure	-4161
▁arm	-4162
rom	-4163
▁repeated	-4164
▁movement	-4165
agement	-4166
▁emissions	-4167
▁cities	-4168
▁perfect	-4169
▁Every	-4170
▁Northern	-4171
▁standards	-4172
▁_	-4173
▁province	-4174
▁Ag	-4175
▁usually	-4176
ero	-4177
▁mostly	-4178
▁Span	-4179
▁pretty	-4180
▁Carolina	-4181
▁necessary	-4182
▁answer	-4183
burgh	-4184
▁deg	-4185
▁adj	-4186
▁century	-4187
▁becoming	-4188
▁tack	-4189
▁Joe	-4190
ground	-4191
▁giant	-4192
▁scientists	-4193
▁+	-4194
▁iP	-4195
▁ess	-4196
ustr	-4197
▁Italian	-4198
▁falling	-4199
▁streets	-4200
▁advantage	-4201
▁barrel	-4202
born	-4203
▁guarant	-4204
EC	-4205
▁Tor	-4206
▁Institute	-4207
▁assess	-4208
▁prompt	-4209
oses	-4210
▁Camp	-4211
▁aware	-4212
▁1990	-4213
▁agencies	-4214
▁word	-4215
month	-4216
▁dark	-4217
adium	-4218
▁risks	-4219
▁Jon	-4220
▁magaz	-4221
▁massive	-4222
▁floor	-4223
▁Hollywood	-4224
▁produce	-4225
▁upd	-4226
▁Andrew	-4227
▁remaining	-4228
idel	-4229
▁transfer	-4230
agon	-4231
▁sust	-4232
▁tests	-4233
mine	-4234
▁sort	-4235
nel	-4236
▁Bus	-4237
▁Palestinian	-4238
▁Microsoft	-4239
▁convicted	-4240
like	-4241
▁identified	-4242
▁2,	-4243
IS	-4244
▁Prem	-4245
aeda	-4246
▁bod	-4247
▁contest	-4248
▁Australian	-4249
▁achieve	-4250
oked	-4251
inson	-4252
▁retire	-4253
▁ign	-4254
▁Bagh	-4255
▁names	-4256
▁crack	-4257
prof	-4258
IT	-4259
▁unemployment	-4260
▁coverage	-4261
▁curren	-4262
▁Reg	-4263
dad	-4264
▁discovered	-4265
▁snow	-4266
▁Inst	-4267
uals	-4268
▁bon	-4269
▁spir	-4270
▁Chel	-4271
▁har	-4272
▁accom	-4273
▁rain	-4274
▁completed	-4275
▁Tra	-4276
▁Jos	-4277
▁audience	-4278
30	-4279
andon	-4280
▁initi	-4281
▁fired	-4282
▁Hum	-4283
▁doubt	-4284
▁various	-4285
▁committed	-4286
▁Islamic	-4287
▁Financ	-4288
▁euro	-4289
▁opin	-4290
▁organization	-4291
▁lawmakers	-4292
▁paying	-4293
▁Camer	-4294
▁option	-4295
▁environmental	-4296
engers	-4297
▁enfor	-4298
▁Bern	-4299
▁Mont	-4300
ictions	-4301
iment	-4302
▁earth	-4303
▁prepared	-4304
▁separate	-4305
▁negotiations	-4306
▁Their	-4307
▁freed	-4308
lor	-4309
racy	-4310
▁providing	-4311
anks	-4312
▁Why	-4313
▁pair	-4314
inn	-4315
▁marg	-4316
▁worse	-4317
TV	-4318
▁wealth	-4319
▁tren	-4320
▁putting	-4321
▁stores	-4322
▁rescue	-4323
▁About	-4324
▁forecast	-4325
▁baby	-4326
▁smaller	-4327
▁Central	-4328
▁nearby	-4329
going	-4330
▁provides	-4331
da	-4332
▁resources	-4333
▁activities	-4334
▁dismiss	-4335
ruption	-4336
▁Today	-4337
▁couldn	-4338
uct	-4339
▁Great	-4340
▁urged	-4341
▁suit	-4342
▁dram	-4343
▁appl	-4344
▁Ol	-4345
▁announcement	-4346
▁44	-4347
▁buying	-4348
▁rank	-4349
▁pulled	-4350
▁Wal	-4351
▁content	-4352
ighters	-4353
onents	-4354
▁Three	-4355
▁carbon	-4356
ables	-4357
▁managed	-4358
▁motor	-4359
▁ruled	-4360
rawn	-4361
▁sun	-4362
friend	-4363
▁warning	-4364
▁42	-4365
▁older	-4366
▁Hen	-4367
▁Baghdad	-4368
hens	-4369
US	-4370
▁stake	-4371
▁Colle	-4372
▁Foreign	-4373
ronic	-4374
▁weight	-4375
▁tim	-4376
-7	-4377
▁documents	-4378
▁Its	-4379
▁spl	-4380
▁panel	-4381
▁fashion	-4382
▁Financial	-4383
omes	-4384
▁culture	-4385
▁sought	-4386
▁Scottish	-4387
▁pit	-4388
▁fears	-4389
▁professional	-4390
▁noted	-4391
▁Iranian	-4392
▁Super	-4393
▁Sant	-4394
▁grant	-4395
▁lawyers	-4396
iced	-4397
▁Bob	-4398
▁directly	-4399
▁governments	-4400
▁society	-4401
▁allowing	-4402
▁balance	-4403
▁limit	-4404
▁organiz	-4405
▁Nov	-4406
▁material	-4407
▁equity	-4408
yard	-4409
EO	-4410
▁pet	-4411
ropri	-4412
▁Muslim	-4413
▁fellow	-4414
▁surf	-4415
bit	-4416
▁regional	-4417
▁politicians	-4418
▁continues	-4419
▁Ver	-4420
▁sexual	-4421
▁conservative	-4422
▁summit	-4423
▁und	-4424
▁subsid	-4425
▁Good	-4426
ateg	-4427
▁display	-4428
▁Cor	-4429
▁aircraft	-4430
▁gain	-4431
▁Cal	-4432
▁brain	-4433
iven	-4434
▁Ford	-4435
arden	-4436
BA	-4437
▁48	-4438
▁Medic	-4439
▁profits	-4440
▁Nations	-4441
annel	-4442
▁Que	-4443
estival	-4444
▁Ariz	-4445
board	-4446
▁Step	-4447
▁surgery	-4448
▁abuse	-4449
▁10-	-4450
iders	-4451
▁Liber	-4452
▁payments	-4453
▁deficit	-4454
ili	-4455
▁dangerous	-4456
▁scr	-4457
▁fully	-4458
ulated	-4459
rog	-4460
works	-4461
▁discl	-4462
▁waiting	-4463
▁responsibility	-4464
▁Abd	-4465
▁39	-4466
▁Il	-4467
▁executives	-4468
▁enter	-4469
▁spring	-4470
▁400	-4471
lig	-4472
▁Supreme	-4473
agues	-4474
▁citizens	-4475
▁Mag	-4476
▁affected	-4477
▁voted	-4478
▁Agency	-4479
▁reserv	-4480
▁75	-4481
▁Trans	-4482
▁defeat	-4483
owl	-4484
▁effective	-4485
▁psych	-4486
▁Energy	-4487
▁religious	-4488
▁carrying	-4489
outs	-4490
▁status	-4491
gn	-4492
▁normal	-4493
▁ut	-4494
▁mention	-4495
▁marriage	-4496
▁troub	-4497
▁Sar	-4498
ancing	-4499
▁Toy	-4500
▁Kn	-4501
well	-4502
▁expert	-4503
▁gall	-4504
▁cas	-4505
▁Kenned	-4506
▁eye	-4507
ho	-4508
yl	-4509
▁hy	-4510
▁rally	-4511
▁victim	-4512
▁Rad	-4513
▁register	-4514
▁seat	-4515
ribution	-4516
▁41	-4517
▁Lat	-4518
▁obv	-4519
▁Church	-4520
▁clearly	-4521
ici	-4522
▁standard	-4523
owed	-4524
▁Gre	-4525
▁reasons	-4526
▁Os	-4527
▁existing	-4528
▁suspected	-4529
▁Rom	-4530
▁treated	-4531
▁God	-4532
AC	-4533
▁log	-4534
▁der	-4535
▁Apple	-4536
▁passengers	-4537
▁university	-4538
▁Steve	-4539
uan	-4540
▁Ohio	-4541
▁Hospital	-4542
ula	-4543
bum	-4544
▁II	-4545
cohol	-4546
▁ministers	-4547
ikely	-4548
fl	-4549
▁accounts	-4550
▁minute	-4551
▁authority	-4552
foot	-4553
aling	-4554
▁labor	-4555
▁sleep	-4556
▁inquir	-4557
▁Kennedy	-4558
▁items	-4559
▁Palin	-4560
▁reality	-4561
▁table	-4562
▁wouldn	-4563
▁aimed	-4564
▁favour	-4565
ios	-4566
▁pounds	-4567
▁reduced	-4568
ena	-4569
▁trouble	-4570
yal	-4571
▁Dub	-4572
▁promot	-4573
▁ice	-4574
▁Att	-4575
etroit	-4576
▁doctor	-4577
▁lived	-4578
▁stret	-4579
▁medic	-4580
▁Jeff	-4581
▁worldwide	-4582
▁imag	-4583
▁rich	-4584
▁rejected	-4585
▁Liver	-4586
▁194	-4587
ano	-4588
▁Sing	-4589
▁virt	-4590
resp	-4591
▁Detroit	-4592
acity	-4593
▁MPs	-4594
emporary	-4595
▁picture	-4596
▁exerc	-4597
▁establish	-4598
▁blue	-4599
▁science	-4600
▁east	-4601
long	-4602
▁unlikely	-4603
aked	-4604
▁hits	-4605
▁conflict	-4606
▁Middle	-4607
▁command	-4608
▁Art	-4609
hered	-4610
bert	-4611
ador	-4612
▁defend	-4613
▁cerem	-4614
▁depart	-4615
OP	-4616
▁vari	-4617
▁sea	-4618
▁earned	-4619
usted	-4620
▁prefer	-4621
▁decisions	-4622
itors	-4623
▁GMT	-4624
▁asking	-4625
▁wall	-4626
▁Still	-4627
▁girls	-4628
▁Sur	-4629
▁knows	-4630
rig	-4631
▁Carl	-4632
▁advertising	-4633
▁Instead	-4634
abil	-4635
▁apparently	-4636
▁Cameron	-4637
vention	-4638
-8	-4639
▁renew	-4640
▁55	-4641
▁faced	-4642
kins	-4643
▁Canad	-4644
▁rac	-4645
road	-4646
aith	-4647
▁lob	-4648
▁decide	-4649
▁thinking	-4650
▁expressed	-4651
▁affect	-4652
▁*	-4653
▁emot	-4654
▁expectations	-4655
▁wearing	-4656
▁female	-4657
▁struggling	-4658
▁voice	-4659
▁threatened	-4660
▁65	-4661
▁bull	-4662
roll	-4663
▁owned	-4664
▁meth	-4665
▁NH	-4666
egr	-4667
apse	-4668
▁effects	-4669
▁Asian	-4670
▁43	-4671
▁protests	-4672
▁difference	-4673
▁College	-4674
▁Cath	-4675
▁album	-4676
ibr	-4677
▁perm	-4678
▁Services	-4679
▁widely	-4680
▁vacc	-4681
▁destroy	-4682
▁gra	-4683
astern	-4684
▁shots	-4685
▁linked	-4686
▁Chelsea	-4687
▁Hel	-4688
▁simple	-4689
▁advoc	-4690
▁comfort	-4691
▁larger	-4692
evin	-4693
▁chem	-4694
▁Home	-4695
▁bodies	-4696
ato	-4697
▁flat	-4698
▁deals	-4699
▁justice	-4700
▁presence	-4701
▁AI	-4702
▁rough	-4703
▁Liverpool	-4704
▁secure	-4705
ucks	-4706
ni	-4707
ections	-4708
ysis	-4709
▁expensive	-4710
▁allegations	-4711
▁polls	-4712
itals	-4713
▁suspect	-4714
▁slightly	-4715
▁elected	-4716
▁purp	-4717
▁uncertain	-4718
isher	-4719
▁involve	-4720
▁deleg	-4721
▁hurt	-4722
▁penalty	-4723
▁criticism	-4724
▁stimulus	-4725
▁Pakistani	-4726
▁page	-4727
uction	-4728
▁upon	-4729
▁finding	-4730
ois	-4731
exp	-4732
▁armed	-4733
▁seats	-4734
▁ton	-4735
▁married	-4736
emen	-4737
▁sentence	-4738
▁Capital	-4739
▁Korean	-4740
▁broken	-4741
▁compens	-4742
▁gives	-4743
AA	-4744
▁Admin	-4745
▁coalition	-4746
▁Pac	-4747
angers	-4748
▁tens	-4749
▁heav	-4750
▁confident	-4751
▁institutions	-4752
pson	-4753
▁bankrupt	-4754
standing	-4755
▁fees	-4756
gypt	-4757
war	-4758
▁rail	-4759
part	-4760
▁Ron	-4761
▁convers	-4762
▁actions	-4763
▁championship	-4764
▁placed	-4765
▁frequ	-4766
▁integr	-4767
▁Im	-4768
▁Jersey	-4769
▁influence	-4770
▁note	-4771
itude	-4772
▁expenses	-4773
▁keeping	-4774
enger	-4775
▁CBS	-4776
▁steps	-4777
▁Exchange	-4778
quarter	-4779
emper	-4780
za	-4781
▁Ann	-4782
▁exactly	-4783
▁jury	-4784
▁Also	-4785
▁din	-4786
▁Pre	-4787
▁origin	-4788
▁Child	-4789
▁image	-4790
ps	-4791
▁Premier	-4792
▁shel	-4793
▁path	-4794
▁neighborhood	-4795
▁marketing	-4796
▁arms	-4797
▁stocks	-4798
▁plat	-4799
▁Spe	-4800
ivals	-4801
▁resol	-4802
ols	-4803
aped	-4804
▁houses	-4805
▁Egypt	-4806
▁Gaza	-4807
▁Vill	-4808
▁exhib	-4809
ka	-4810
▁Board	-4811
▁territ	-4812
▁haven	-4813
▁grew	-4814
mes	-4815
ickets	-4816
▁focused	-4817
▁hero	-4818
▁proceed	-4819
abinet	-4820
▁sup	-4821
▁magazine	-4822
▁buildings	-4823
▁Ryan	-4824
▁1.5	-4825
ulf	-4826
▁proper	-4827
ducing	-4828
▁Ev	-4829
▁dire	-4830
SA	-4831
▁options	-4832
▁Card	-4833
▁suspic	-4834
asters	-4835
▁session	-4836
▁promised	-4837
▁shop	-4838
emocracy	-4839
omen	-4840
ucky	-4841
eless	-4842
▁conclud	-4843
▁Irish	-4844
▁division	-4845
▁piece	-4846
▁advice	-4847
▁wounded	-4848
▁village	-4849
▁setting	-4850
licop	-4851
▁meaning	-4852
▁Four	-4853
▁Christian	-4854
▁Fox	-4855
▁initial	-4856
▁Among	-4857
▁helicop	-4858
▁Sil	-4859
▁swe	-4860
▁features	-4861
▁Tony	-4862
ican	-4863
▁county	-4864
▁Any	-4865
▁Olympics	-4866
udd	-4867
▁finish	-4868
▁generation	-4869
▁stars	-4870
▁terrorist	-4871
adel	-4872
utch	-4873
▁Direct	-4874
▁text	-4875
▁language	-4876
▁Ministry	-4877
▁continuing	-4878
▁onto	-4879
▁hoping	-4880
▁fort	-4881
▁considering	-4882
▁facility	-4883
▁Ter	-4884
▁prosecutors	-4885
▁recru	-4886
▁patient	-4887
▁catch	-4888
awn	-4889
▁taxpay	-4890
▁Grand	-4891
▁professor	-4892
▁withdraw	-4893
▁write	-4894
▁Face	-4895
▁Cur	-4896
▁plants	-4897
▁cutting	-4898
iot	-4899
▁Comp	-4900
hand	-4901
▁west	-4902
▁Hait	-4903
▁49	-4904
▁allegedly	-4905
▁multip	-4906
ini	-4907
▁47	-4908
onym	-4909
cri	-4910
▁Fre	-4911
▁Spanish	-4912
rect	-4913
ansas	-4914
▁eyes	-4915
▁Let	-4916
▁views	-4917
▁serving	-4918
▁aren	-4919
▁internet	-4920
anda	-4921
▁seeing	-4922
▁Arizona	-4923
hi	-4924
▁savings	-4925
▁46	-4926
iat	-4927
raf	-4928
▁congress	-4929
▁reading	-4930
▁famous	-4931
▁Ram	-4932
▁plays	-4933
▁Francisco	-4934
▁Met	-4935
▁attacked	-4936
▁approval	-4937
▁suggests	-4938
▁2011	-4939
igg	-4940
▁watching	-4941
▁introduced	-4942
state	-4943
▁colleagues	-4944
▁youth	-4945
▁Kim	-4946
bury	-4947
▁clients	-4948
eban	-4949
▁fly	-4950
han	-4951
▁alcohol	-4952
▁3-	-4953
▁NAT	-4954
▁digital	-4955
itation	-4956
order	-4957
umn	-4958
ront	-4959
looking	-4960
▁emerged	-4961
eds	-4962
▁unable	-4963
▁Michigan	-4964
tained	-4965
anging	-4966
▁declared	-4967
venue	-4968
met	-4969
▁flag	-4970
▁studies	-4971
▁winter	-4972
ko	-4973
▁Charles	-4974
.-	-4975
▁novel	-4976
hy	-4977
▁tom	-4978
▁fallen	-4979
▁apart	-4980
aks	-4981
otten	-4982
▁aggress	-4983
▁TH	-4984
▁Win	-4985
▁Steven	-4986
▁improved	-4987
▁Av	-4988
▁Moham	-4989
▁Econom	-4990
▁195	-4991
▁Star	-4992
cow	-4993
▁restaurant	-4994
osen	-4995
▁vent	-4996
▁facilities	-4997
▁temper	-4998
▁teleph	-4999
▁estimates	-5000
wise	-5001
hlet	-5002
urning	-5003
▁defin	-5004
▁feeling	-5005
▁shareholders	-5006
irt	-5007
▁pull	-5008
▁Lew	-5009
▁Ten	-5010
▁od	-5011
known	-5012
▁hair	-5013
▁Bec	-5014
▁Tour	-5015
▁scen	-5016
▁critics	-5017
▁sixth	-5018
▁Senator	-5019
▁collapse	-5020
▁section	-5021
▁pitch	-5022
gl	-5023
▁raising	-5024
▁Mem	-5025
abor	-5026
▁Island	-5027
▁corner	-5028
▁easily	-5029
▁broadcast	-5030
▁bottom	-5031
aska	-5032
▁deploy	-5033
▁purchase	-5034
▁Tay	-5035
put	-5036
▁relatively	-5037
▁crimes	-5038
▁expects	-5039
▁Dis	-5040
▁solution	-5041
gu	-5042
▁1980	-5043
▁proposals	-5044
▁deputy	-5045
▁occup	-5046
▁nature	-5047
▁suffering	-5048
▁supposed	-5049
ength	-5050
▁severe	-5051
▁appearance	-5052
unte	-5053
▁Stephen	-5054
▁Guard	-5055
antly	-5056
▁visitors	-5057
▁immediate	-5058
▁Sud	-5059
▁draft	-5060
▁Business	-5061
▁type	-5062
ias	-5063
▁determined	-5064
elson	-5065
▁involving	-5066
▁dozen	-5067
▁academ	-5068
▁interests	-5069
▁backed	-5070
▁Mah	-5071
▁surprise	-5072
▁rein	-5073
▁AT	-5074
pir	-5075
▁individuals	-5076
▁cold	-5077
▁underst	-5078
fol	-5079
▁bringing	-5080
▁communities	-5081
related	-5082
▁standing	-5083
eman	-5084
rich	-5085
▁bench	-5086
▁diss	-5087
▁Kent	-5088
▁completely	-5089
▁Ash	-5090
▁athlet	-5091
▁strength	-5092
▁pregn	-5093
▁fewer	-5094
▁wood	-5095
▁Sa	-5096
▁Gov	-5097
▁worry	-5098
esters	-5099
▁52	-5100
dden	-5101
▁voting	-5102
gar	-5103
iable	-5104
aint	-5105
▁Woods	-5106
▁burn	-5107
▁opinion	-5108
▁River	-5109
▁climb	-5110
▁collection	-5111
▁BST	-5112
atever	-5113
▁speaking	-5114
▁photograph	-5115
▁singer	-5116
▁alternative	-5117
▁Toyota	-5118
▁Stock	-5119
▁turning	-5120
▁Journal	-5121
erate	-5122
▁tend	-5123
▁proced	-5124
▁bigger	-5125
rier	-5126
▁surge	-5127
▁stories	-5128
▁percentage	-5129
▁Administration	-5130
▁htt	-5131
▁films	-5132
NA	-5133
▁picked	-5134
▁Conn	-5135
▁suspended	-5136
▁prove	-5137
▁spons	-5138
▁Murray	-5139
burg	-5140
▁vast	-5141
▁Far	-5142
ivery	-5143
▁flights	-5144
▁capacity	-5145
iful	-5146
▁meetings	-5147
ani	-5148
▁via	-5149
▁closing	-5150
▁spect	-5151
under	-5152
▁Swed	-5153
▁Cit	-5154
▁Daniel	-5155
▁cruc	-5156
▁Canadian	-5157
▁blow	-5158
▁dream	-5159
▁http	-5160
▁pushed	-5161
istics	-5162
▁150	-5163
▁Sol	-5164
quarters	-5165
ipping	-5166
▁Organ	-5167
▁Lu	-5168
▁intended	-5169
▁euros	-5170
▁rapid	-5171
▁tie	-5172
▁Corpor	-5173
▁relief	-5174
▁dress	-5175
▁defence	-5176
▁offices	-5177
▁conducted	-5178
embly	-5179
▁captain	-5180
▁combined	-5181
▁substant	-5182
▁creating	-5183
▁possibility	-5184
▁stress	-5185
▁liqu	-5186
▁Haw	-5187
dom	-5188
uate	-5189
▁hoped	-5190
▁spark	-5191
sewhere	-5192
▁insisted	-5193
▁sudden	-5194
mond	-5195
▁healthcare	-5196
▁pace	-5197
▁Defense	-5198
▁starts	-5199
org	-5200
▁Moscow	-5201
▁entered	-5202
▁physical	-5203
▁boss	-5204
▁gather	-5205
▁Reserve	-5206
▁recover	-5207
▁Facebook	-5208
usion	-5209
▁argued	-5210
aming	-5211
▁writing	-5212
aching	-5213
▁style	-5214
▁unless	-5215
▁react	-5216
▁learned	-5217
where	-5218
▁Found	-5219
▁object	-5220
▁Morgan	-5221
▁abandon	-5222
▁tied	-5223
andal	-5224
▁convention	-5225
ansion	-5226
▁factors	-5227
▁Only	-5228
▁gang	-5229
▁Vict	-5230
▁actor	-5231
▁Like	-5232
▁Fort	-5233
edy	-5234
▁headed	-5235
▁arrang	-5236
▁investigators	-5237
▁Are	-5238
▁harm	-5239
▁NATO	-5240
▁civilians	-5241
▁agents	-5242
▁Stud	-5243
▁agent	-5244
▁drivers	-5245
▁closer	-5246
ores	-5247
▁recommend	-5248
▁currency	-5249
ilton	-5250
▁established	-5251
iami	-5252
▁squad	-5253
▁CEO	-5254
ola	-5255
ivity	-5256
phia	-5257
▁removed	-5258
▁western	-5259
owa	-5260
ennis	-5261
▁Public	-5262
ounger	-5263
▁walked	-5264
▁connection	-5265
eing	-5266
▁van	-5267
▁Columb	-5268
▁innings	-5269
▁Nick	-5270
ua	-5271
▁Mel	-5272
wan	-5273
adelphia	-5274
▁ties	-5275
▁presented	-5276
▁Rog	-5277
▁seriously	-5278
ledge	-5279
▁Fund	-5280
▁implement	-5281
▁Miami	-5282
▁Kevin	-5283
▁constitution	-5284
▁pool	-5285
▁circum	-5286
▁increases	-5287
▁Philadelphia	-5288
▁stuff	-5289
fficient	-5290
▁goods	-5291
▁gay	-5292
ingly	-5293
▁pension	-5294
▁Earlier	-5295
▁images	-5296
▁animals	-5297
ibet	-5298
con	-5299
▁consist	-5300
▁Ali	-5301
▁unus	-5302
▁generally	-5303
rie	-5304
▁faith	-5305
▁compar	-5306
▁advance	-5307
▁familiar	-5308
▁commitment	-5309
▁challenges	-5310
ighter	-5311
▁Stand	-5312
▁plus	-5313
▁airline	-5314
▁bills	-5315
▁nor	-5316
▁teachers	-5317
▁combat	-5318
ipe	-5319
▁51	-5320
▁Because	-5321
▁ded	-5322
▁allows	-5323
▁terrorism	-5324
rist	-5325
rill	-5326
▁optim	-5327
coming	-5328
▁Saud	-5329
LA	-5330
ocal	-5331
▁recorded	-5332
sex	-5333
▁Rel	-5334
▁batter	-5335
▁resident	-5336
▁task	-5337
▁innov	-5338
▁extended	-5339
▁Hamas	-5340
DS	-5341
▁supplies	-5342
▁rivals	-5343
▁NAS	-5344
▁Prince	-5345
▁manufactur	-5346
▁supported	-5347
▁worried	-5348
▁heavily	-5349
▁Charl	-5350
-9	-5351
▁determine	-5352
▁lending	-5353
oles	-5354
▁delivery	-5355
▁touchdown	-5356
rep	-5357
▁mayor	-5358
▁downturn	-5359
▁healthy	-5360
acked	-5361
din	-5362
▁maybe	-5363
▁entertain	-5364
▁batt	-5365
▁editor	-5366
▁interested	-5367
▁occurred	-5368
▁sentenced	-5369
▁Anal	-5370
▁debut	-5371
urd	-5372
▁museum	-5373
▁stood	-5374
▁ceremony	-5375
▁fit	-5376
▁fal	-5377
itzer	-5378
▁platform	-5379
▁prospect	-5380
▁fan	-5381
▁ast	-5382
▁Broad	-5383
▁Parliament	-5384
abb	-5385
▁aged	-5386
▁inquiry	-5387
▁crude	-5388
▁Young	-5389
kin	-5390
▁Jul	-5391
chen	-5392
▁offensive	-5393
▁corruption	-5394
▁covered	-5395
▁Games	-5396
▁absol	-5397
▁eat	-5398
▁reflect	-5399
▁revenues	-5400
▁wa	-5401
▁testing	-5402
▁waste	-5403
irates	-5404
▁heads	-5405
▁sending	-5406
▁Medical	-5407
▁gar	-5408
▁Turkey	-5409
▁telling	-5410
▁feed	-5411
▁Old	-5412
▁possibly	-5413
▁younger	-5414
▁violent	-5415
▁charity	-5416
▁glass	-5417
▁Life	-5418
▁Nas	-5419
tar	-5420
▁shr	-5421
▁applications	-5422
▁approx	-5423
▁Coll	-5424
pe	-5425
▁Iowa	-5426
▁gains	-5427
ician	-5428
▁Tibet	-5429
▁cool	-5430
▁ho	-5431
▁Long	-5432
▁contracts	-5433
▁stick	-5434
▁assum	-5435
▁Brian	-5436
▁custody	-5437
▁lands	-5438
▁telephone	-5439
▁pra	-5440
▁Taylor	-5441
town	-5442
▁1999	-5443
▁Hot	-5444
▁Yank	-5445
▁active	-5446
▁Hamp	-5447
▁Brad	-5448
▁opportunities	-5449
TA	-5450
▁stations	-5451
▁Daily	-5452
▁bankruptcy	-5453
▁web	-5454
▁delivered	-5455
▁boys	-5456
urb	-5457
▁truth	-5458
▁reporting	-5459
▁volunte	-5460
▁retired	-5461
hew	-5462
ader	-5463
▁herself	-5464
▁Who	-5465
▁yield	-5466
▁targets	-5467
▁Prot	-5468
▁playoff	-5469
ospitals	-5470
called	-5471
azz	-5472
▁replace	-5473
▁Judge	-5474
orial	-5475
▁securities	-5476
▁Hou	-5477
orrow	-5478
▁method	-5479
▁bul	-5480
pects	-5481
▁acquis	-5482
▁complic	-5483
▁controversial	-5484
▁Dow	-5485
▁household	-5486
▁device	-5487
▁Fred	-5488
▁powers	-5489
▁Roman	-5490
mates	-5491
▁shortly	-5492
cean	-5493
ologies	-5494
▁blamed	-5495
▁sister	-5496
life	-5497
▁initially	-5498
▁Hong	-5499
▁confirm	-5500
▁orders	-5501
▁gained	-5502
▁units	-5503
▁Bet	-5504
▁Somal	-5505
▁Sher	-5506
place	-5507
ridge	-5508
▁regime	-5509
▁wire	-5510
▁suspects	-5511
▁dispute	-5512
▁negative	-5513
▁Conference	-5514
▁findings	-5515
▁Ars	-5516
usal	-5517
▁Brook	-5518
▁judges	-5519
OU	-5520
▁adults	-5521
▁settlement	-5522
▁electricity	-5523
enez	-5524
maker	-5525
▁returning	-5526
▁Club	-5527
▁feature	-5528
▁cards	-5529
▁positions	-5530
▁auction	-5531
▁Davis	-5532
▁diagn	-5533
▁54	-5534
▁basic	-5535
tle	-5536
amin	-5537
oured	-5538
▁anticip	-5539
▁none	-5540
▁quiet	-5541
▁frustr	-5542
▁analysis	-5543
▁suc	-5544
heast	-5545
▁McG	-5546
▁closely	-5547
▁partnership	-5548
▁knowledge	-5549
▁AF	-5550
▁Earth	-5551
▁ideas	-5552
▁bat	-5553
▁reput	-5554
hour	-5555
▁cru	-5556
▁vul	-5557
▁narrow	-5558
▁Lewis	-5559
▁Cast	-5560
▁GOP	-5561
▁shopping	-5562
▁Kong	-5563
▁customer	-5564
rative	-5565
▁Atlanta	-5566
▁Before	-5567
rast	-5568
▁plot	-5569
▁Here	-5570
▁Officials	-5571
▁Southern	-5572
▁Food	-5573
▁decre	-5574
CC	-5575
OL	-5576
▁Jer	-5577
▁NY	-5578
▁Dun	-5579
ube	-5580
▁dozens	-5581
lvan	-5582
▁categ	-5583
▁Colomb	-5584
▁Up	-5585
▁maintain	-5586
▁hal	-5587
▁Int	-5588
▁anonym	-5589
lick	-5590
▁contain	-5591
▁NF	-5592
▁chances	-5593
▁bask	-5594
▁failing	-5595
oma	-5596
▁Mount	-5597
ropriate	-5598
▁sanctions	-5599
▁matches	-5600
eline	-5601
▁Clark	-5602
▁protesters	-5603
mo	-5604
▁watched	-5605
▁opposed	-5606
▁Work	-5607
▁advanced	-5608
▁Gates	-5609
olit	-5610
ighth	-5611
▁Dou	-5612
▁buyers	-5613
▁Saf	-5614
▁causing	-5615
▁Blair	-5616
▁appoint	-5617
▁emph	-5618
▁Foundation	-5619
▁Illin	-5620
▁scale	-5621
bl	-5622
▁surround	-5623
writ	-5624
empts	-5625
sylvan	-5626
▁max	-5627
any	-5628
RA	-5629
▁accepted	-5630
▁investigating	-5631
▁sitting	-5632
▁devices	-5633
▁Teh	-5634
▁ABC	-5635
▁extremely	-5636
▁53	-5637
▁senator	-5638
atically	-5639
▁Coast	-5640
▁choose	-5641
rys	-5642
▁Die	-5643
▁collaps	-5644
▁compensation	-5645
▁ending	-5646
ien	-5647
▁shift	-5648
▁commander	-5649
▁Catholic	-5650
▁Pennsylvan	-5651
stitution	-5652
▁approximately	-5653
▁crucial	-5654
▁liter	-5655
▁reportedly	-5656
▁zone	-5657
▁length	-5658
▁fish	-5659
▁Argent	-5660
▁perman	-5661
inals	-5662
▁cart	-5663
▁multiple	-5664
▁Bol	-5665
▁Rev	-5666
▁hasn	-5667
▁proved	-5668
▁Sudan	-5669
▁edge	-5670
gment	-5671
hatt	-5672
hone	-5673
▁Techn	-5674
▁driven	-5675
▁Ahmad	-5676
▁apartment	-5677
▁blog	-5678
▁roads	-5679
▁tort	-5680
▁Fire	-5681
▁Illinois	-5682
yr	-5683
▁succeed	-5684
▁lawsuit	-5685
look	-5686
▁Develop	-5687
▁oblig	-5688
allas	-5689
▁ethn	-5690
abe	-5691
rain	-5692
▁rebels	-5693
▁Boy	-5694
ograp	-5695
▁replaced	-5696
▁associated	-5697
sey	-5698
apping	-5699
AG	-5700
▁publicly	-5701
▁Saudi	-5702
LE	-5703
▁Dev	-5704
rif	-5705
stein	-5706
▁Bas	-5707
▁Put	-5708
osite	-5709
game	-5710
▁missile	-5711
▁ble	-5712
▁depend	-5713
▁degree	-5714
▁investments	-5715
▁announce	-5716
amil	-5717
▁visited	-5718
▁guy	-5719
ius	-5720
▁Du	-5721
▁shared	-5722
▁consecutive	-5723
▁hun	-5724
▁ticket	-5725
▁heat	-5726
gers	-5727
▁banned	-5728
▁Pennsylvania	-5729
▁Shi	-5730
era	-5731
▁acting	-5732
▁enforcement	-5733
▁depos	-5734
▁male	-5735
market	-5736
▁breat	-5737
iants	-5738
▁manufacturing	-5739
▁represents	-5740
▁cells	-5741
▁Tehran	-5742
▁Houston	-5743
▁attended	-5744
▁Color	-5745
etic	-5746
▁master	-5747
▁Sever	-5748
,500	-5749
▁solutions	-5750
▁assistant	-5751
▁Six	-5752
▁plenty	-5753
▁elimin	-5754
▁eastern	-5755
rate	-5756
▁truck	-5757
▁potentially	-5758
▁Once	-5759
ogue	-5760
▁warming	-5761
▁teacher	-5762
▁Pit	-5763
▁solid	-5764
load	-5765
respond	-5766
minute	-5767
▁virus	-5768
arr	-5769
▁warm	-5770
▁flow	-5771
▁Gra	-5772
etary	-5773
loom	-5774
▁cyc	-5775
▁grown	-5776
owned	-5777
▁blame	-5778
expected	-5779
▁shock	-5780
▁Trust	-5781
▁die	-5782
oe	-5783
▁organizations	-5784
▁moves	-5785
▁writer	-5786
▁Spec	-5787
▁Swiss	-5788
▁species	-5789
▁knee	-5790
▁bare	-5791
▁Kel	-5792
▁Exp	-5793
▁Jac	-5794
▁entry	-5795
▁vulner	-5796
▁models	-5797
icated	-5798
▁chain	-5799
pet	-5800
▁coff	-5801
▁trav	-5802
▁Jewish	-5803
▁skills	-5804
▁tradition	-5805
▁animal	-5806
▁Securities	-5807
othing	-5808
airman	-5809
▁univers	-5810
▁walking	-5811
▁pictures	-5812
▁blast	-5813
▁begun	-5814
▁Eric	-5815
▁FBI	-5816
▁civilian	-5817
▁drove	-5818
▁route	-5819
agers	-5820
▁territory	-5821
▁circumst	-5822
▁syn	-5823
▁100,000	-5824
▁Down	-5825
▁Social	-5826
nam	-5827
▁resist	-5828
▁sick	-5829
▁receiving	-5830
▁retirement	-5831
▁unve	-5832
▁Play	-5833
ette	-5834
▁thr	-5835
fire	-5836
▁2012	-5837
▁spirit	-5838
▁exercise	-5839
▁Out	-5840
▁Osc	-5841
rant	-5842
▁easier	-5843
▁uses	-5844
rastructure	-5845
hattan	-5846
verse	-5847
▁direction	-5848
▁historic	-5849
▁producer	-5850
▁Der	-5851
▁significantly	-5852
▁Lib	-5853
▁lux	-5854
▁thanks	-5855
▁Beck	-5856
ounced	-5857
▁consequ	-5858
▁Pros	-5859
▁Phill	-5860
▁trend	-5861
▁Lyn	-5862
▁attempts	-5863
▁highlight	-5864
▁Former	-5865
▁sevent	-5866
▁Lt	-5867
ulate	-5868
▁Force	-5869
▁rub	-5870
▁smart	-5871
▁freedom	-5872
▁disaster	-5873
▁maker	-5874
▁€	-5875
▁Manhattan	-5876
▁headquarters	-5877
▁notes	-5878
▁experienced	-5879
▁tow	-5880
ullah	-5881
MA	-5882
▁immigration	-5883
erous	-5884
ancell	-5885
▁Ke	-5886
irk	-5887
▁predict	-5888
ae	-5889
▁hospitals	-5890
▁allies	-5891
▁Human	-5892
▁lowest	-5893
season	-5894
▁Kat	-5895
▁rent	-5896
▁Real	-5897
athan	-5898
▁Sark	-5899
▁Valley	-5900
▁repeatedly	-5901
▁10,000	-5902
ication	-5903
▁Pacific	-5904
▁Leban	-5905
▁Jr	-5906
▁belong	-5907
▁persu	-5908
▁square	-5909
▁acknowledged	-5910
vis	-5911
▁Test	-5912
▁explain	-5913
▁liberal	-5914
▁changing	-5915
▁overseas	-5916
▁questioned	-5917
▁movies	-5918
rison	-5919
operation	-5920
othes	-5921
uster	-5922
▁pointed	-5923
▁gat	-5924
▁indicated	-5925
▁democracy	-5926
etts	-5927
▁journalists	-5928
▁desper	-5929
▁skin	-5930
▁managers	-5931
▁satis	-5932
▁liquid	-5933
▁Sus	-5934
▁Miller	-5935
idency	-5936
▁targeted	-5937
iana	-5938
▁auto	-5939
orough	-5940
Americ	-5941
▁mand	-5942
ozy	-5943
▁Show	-5944
▁Gulf	-5945
▁excess	-5946
quare	-5947
▁Henry	-5948
▁nomination	-5949
▁Di	-5950
autiful	-5951
▁Colorado	-5952
▁pleaded	-5953
▁mortgages	-5954
▁Dubai	-5955
▁ethnic	-5956
▁seized	-5957
▁wins	-5958
▁reputation	-5959
enda	-5960
▁rid	-5961
▁Ins	-5962
▁fee	-5963
▁emerging	-5964
orders	-5965
▁Zeal	-5966
▁visiting	-5967
▁Victor	-5968
▁epis	-5969
▁Society	-5970
▁Championship	-5971
oviet	-5972
class	-5973
▁Bell	-5974
▁marked	-5975
dog	-5976
▁NBC	-5977
▁internal	-5978
▁earthqu	-5979
▁drawn	-5980
▁stands	-5981
power	-5982
▁Management	-5983
▁elsewhere	-5984
▁Es	-5985
▁artist	-5986
▁courts	-5987
inent	-5988
ossible	-5989
formation	-5990
▁exclus	-5991
▁roll	-5992
▁scoring	-5993
▁symb	-5994
▁holds	-5995
▁57	-5996
▁Nob	-5997
▁Pan	-5998
▁800	-5999
▁settle	-6000
▁Abb	-6001
▁Oper	-6002
cks	-6003
▁56	-6004
▁rebounds	-6005
ahoo	-6006
argo	-6007
▁Howard	-6008
more	-6009
▁1.2	-6010
▁otherwise	-6011
▁golf	-6012
▁install	-6013
hab	-6014
▁concent	-6015
▁Bang	-6016
▁Andy	-6017
▁struggle	-6018
▁58	-6019
essions	-6020
▁mainly	-6021
▁Attorney	-6022
uated	-6023
ashes	-6024
▁split	-6025
mouth	-6026
eded	-6027
▁cheap	-6028
aval	-6029
▁therap	-6030
▁Edwards	-6031
▁Several	-6032
▁illness	-6033
▁wed	-6034
enh	-6035
▁application	-6036
▁scandal	-6037
iversary	-6038
▁correct	-6039
rysler	-6040
▁detect	-6041
equ	-6042
▁myself	-6043
▁seventh	-6044
illy	-6045
▁networks	-6046
▁welcome	-6047
▁Harry	-6048
pc	-6049
▁contrast	-6050
onent	-6051
achus	-6052
▁messages	-6053
ca	-6054
▁wine	-6055
▁Niger	-6056
▁Ell	-6057
▁supporting	-6058
▁mic	-6059
▁toll	-6060
amm	-6061
icing	-6062
urance	-6063
▁appointed	-6064
▁greatest	-6065
▁please	-6066
ED	-6067
▁1970	-6068
ellow	-6069
▁core	-6070
▁satell	-6071
▁hall	-6072
▁Year	-6073
▁tast	-6074
▁phones	-6075
▁ven	-6076
▁eth	-6077
▁Sarah	-6078
▁opponents	-6079
▁600	-6080
▁predicted	-6081
▁mental	-6082
▁competitive	-6083
▁print	-6084
inth	-6085
ulture	-6086
▁Though	-6087
hem	-6088
oen	-6089
▁threw	-6090
▁farmers	-6091
▁handed	-6092
▁tickets	-6093
▁happens	-6094
uild	-6095
▁tact	-6096
▁viewers	-6097
▁chemical	-6098
▁unique	-6099
▁express	-6100
▁complaints	-6101
auc	-6102
achusetts	-6103
▁alongside	-6104
▁parent	-6105
▁argument	-6106
assy	-6107
▁Us	-6108
▁Det	-6109
▁Next	-6110
▁location	-6111
▁emphas	-6112
▁notice	-6113
va	-6114
▁Ok	-6115
▁Zealand	-6116
▁Chrysler	-6117
▁passing	-6118
▁bonds	-6119
▁dial	-6120
▁Zimb	-6121
▁Serb	-6122
hus	-6123
rehens	-6124
▁quoted	-6125
▁infrastructure	-6126
▁Analyst	-6127
▁ongoing	-6128
▁returns	-6129
yo	-6130
acle	-6131
ensus	-6132
▁Er	-6133
▁Massachusetts	-6134
▁outs	-6135
ourney	-6136
▁camera	-6137
▁circumstances	-6138
▁overs	-6139
▁tiny	-6140
water	-6141
▁stretch	-6142
▁window	-6143
▁dismissed	-6144
DP	-6145
▁destroyed	-6146
▁1997	-6147
▁rural	-6148
▁1998	-6149
abwe	-6150
▁archit	-6151
▁resort	-6152
▁leads	-6153
IV	-6154
▁pushing	-6155
aire	-6156
▁writers	-6157
ifying	-6158
▁clubs	-6159
▁veteran	-6160
▁casual	-6161
▁ministry	-6162
iences	-6163
▁Sarkozy	-6164
▁Zimbabwe	-6165
▁kit	-6166
▁Yahoo	-6167
ancellor	-6168
▁magn	-6169
zai	-6170
▁Wat	-6171
igned	-6172
▁basket	-6173
▁abroad	-6174
do	-6175
utely	-6176
▁Ray	-6177
worth	-6178
▁fol	-6179
▁Minnes	-6180
▁Hur	-6181
▁Diego	-6182
▁sy	-6183
▁tackle	-6184
▁leaves	-6185
▁Qaeda	-6186
▁identify	-6187
▁USA	-6188
▁attempted	-6189
▁Venez	-6190
▁claiming	-6191
▁jumped	-6192
▁Enter	-6193
▁anniversary	-6194
▁behavi	-6195
▁actress	-6196
▁flying	-6197
ship	-6198
stone	-6199
▁earn	-6200
▁00	-6201
▁activists	-6202
▁Radio	-6203
▁pal	-6204
▁Feder	-6205
▁duty	-6206
▁Dallas	-6207
encing	-6208
▁Such	-6209
▁ped	-6210
▁Dal	-6211
▁Mu	-6212
▁condem	-6213
▁Shar	-6214
▁drinking	-6215
▁impress	-6216
▁Pent	-6217
▁Venezuel	-6218
▁variety	-6219
▁encourage	-6220
abul	-6221
▁becomes	-6222
▁independence	-6223
▁Minnesota	-6224
▁drama	-6225
▁hed	-6226
▁Blue	-6227
▁behavior	-6228
▁Arsenal	-6229
▁heading	-6230
▁belief	-6231
▁Gib	-6232
▁calc	-6233
▁actual	-6234
▁entertainment	-6235
▁values	-6236
▁pump	-6237
▁affairs	-6238
▁59	-6239
▁64	-6240
▁Yankees	-6241
▁Nic	-6242
▁owns	-6243
▁Las	-6244
▁properties	-6245
▁NHS	-6246
ologist	-6247
▁damaged	-6248
ais	-6249
▁Queen	-6250
▁sets	-6251
▁Dod	-6252
▁surprising	-6253
-10	-6254
erved	-6255
▁Alan	-6256
▁Simon	-6257
▁festival	-6258
▁impossible	-6259
▁1.4	-6260
▁ring	-6261
▁payment	-6262
▁beautiful	-6263
▁matters	-6264
fall	-6265
▁expansion	-6266
▁Env	-6267
ords	-6268
▁Mush	-6269
▁Van	-6270
▁Corn	-6271
▁devast	-6272
▁2,000	-6273
chang	-6274
▁Global	-6275
▁filled	-6276
▁Corporation	-6277
abled	-6278
▁nurs	-6279
key	-6280
mate	-6281
▁Leg	-6282
imp	-6283
▁demands	-6284
▁Haiti	-6285
aven	-6286
▁agenda	-6287
▁assistance	-6288
▁endors	-6289
▁mut	-6290
▁whatever	-6291
▁premium	-6292
▁Maryland	-6293
ala	-6294
▁NFL	-6295
▁Sl	-6296
▁700	-6297
▁Allen	-6298
▁machine	-6299
▁dinner	-6300
ih	-6301
abbed	-6302
acks	-6303
▁Robinson	-6304
▁Chairman	-6305
▁reduction	-6306
▁migr	-6307
▁margin	-6308
▁billions	-6309
▁apply	-6310
▁photos	-6311
▁manage	-6312
bro	-6313
▁reducing	-6314
atures	-6315
▁Indones	-6316
▁usual	-6317
▁rol	-6318
▁introdu	-6319
▁fill	-6320
▁Major	-6321
acement	-6322
▁argue	-6323
▁•	-6324
▁eighth	-6325
▁interesting	-6326
▁Dutch	-6327
▁yen	-6328
▁Academ	-6329
▁favorite	-6330
▁kil	-6331
▁wake	-6332
▁Sum	-6333
itely	-6334
ao	-6335
otic	-6336
▁Tai	-6337
▁Palestinians	-6338
▁Time	-6339
▁2.5	-6340
▁Str	-6341
itable	-6342
omet	-6343
resent	-6344
▁fixed	-6345
▁theat	-6346
▁seasons	-6347
▁equal	-6348
▁Report	-6349
star	-6350
▁Ky	-6351
▁neither	-6352
▁client	-6353
▁technical	-6354
▁gap	-6355
▁surve	-6356
▁System	-6357
▁Top	-6358
▁gathered	-6359
▁adviser	-6360
egas	-6361
▁practices	-6362
▁Soviet	-6363
▁McD	-6364
▁66	-6365
▁pilot	-6366
cont	-6367
overty	-6368
11	-6369
SP	-6370
▁awarded	-6371
▁Hay	-6372
▁Children	-6373
▁Chen	-6374
▁sect	-6375
▁requires	-6376
jad	-6377
▁sand	-6378
▁67	-6379
▁bright	-6380
▁registered	-6381
pread	-6382
▁identity	-6383
▁empt	-6384
▁Sand	-6385
▁correspond	-6386
▁Hug	-6387
eeper	-6388
▁administ	-6389
▁fled	-6390
▁Id	-6391
agen	-6392
▁aside	-6393
▁distribut	-6394
arraf	-6395
▁false	-6396
▁performed	-6397
▁roughly	-6398
▁alive	-6399
▁62	-6400
▁wides	-6401
▁Wilson	-6402
nd	-6403
▁Sea	-6404
▁threats	-6405
▁unusual	-6406
▁Analysts	-6407
▁strategic	-6408
▁personnel	-6409
▁Conservative	-6410
▁remove	-6411
▁Ox	-6412
▁cable	-6413
adow	-6414
▁boat	-6415
▁trees	-6416
raig	-6417
▁Jose	-6418
▁hole	-6419
hman	-6420
izes	-6421
▁turns	-6422
▁dance	-6423
▁cultural	-6424
▁excell	-6425
▁Eastern	-6426
▁located	-6427
▁Museum	-6428
▁monthly	-6429
▁Executive	-6430
away	-6431
▁Viet	-6432
▁Anth	-6433
IL	-6434
▁Bowl	-6435
tered	-6436
▁surrounding	-6437
▁learning	-6438
▁era	-6439
oral	-6440
▁newly	-6441
▁stro	-6442
icon	-6443
▁tested	-6444
▁estimate	-6445
▁materials	-6446
▁memory	-6447
▁listed	-6448
▁gross	-6449
▁Vol	-6450
▁bom	-6451
half	-6452
▁effectively	-6453
▁sharply	-6454
▁sustain	-6455
▁function	-6456
▁Wind	-6457
▁mountain	-6458
ece	-6459
▁garden	-6460
▁elder	-6461
▁prompted	-6462
▁u	-6463
▁troubled	-6464
▁CD	-6465
▁wish	-6466
▁stronger	-6467
apped	-6468
▁portfol	-6469
▁Bh	-6470
▁Uk	-6471
▁monit	-6472
▁accompan	-6473
▁Gall	-6474
▁vital	-6475
▁swim	-6476
▁artists	-6477
▁Musharraf	-6478
▁songs	-6479
▁temporary	-6480
▁68	-6481
▁Add	-6482
▁enh	-6483
▁thinks	-6484
▁Way	-6485
▁Marc	-6486
▁surprised	-6487
▁widespread	-6488
gus	-6489
▁tun	-6490
▁promise	-6491
veland	-6492
fur	-6493
▁concert	-6494
▁witnesses	-6495
ricane	-6496
▁bound	-6497
OT	-6498
▁earthquake	-6499
▁beating	-6500
whel	-6501
▁Your	-6502
▁forecl	-6503
▁Land	-6504
▁begins	-6505
▁iPhone	-6506
▁slump	-6507
▁dramatic	-6508
▁employee	-6509
▁pen	-6510
ET	-6511
▁stem	-6512
▁Pitts	-6513
ails	-6514
▁factor	-6515
ishes	-6516
▁captured	-6517
▁discussion	-6518
agged	-6519
▁trillion	-6520
etime	-6521
▁sad	-6522
▁entirely	-6523
▁dogs	-6524
▁promote	-6525
▁minority	-6526
▁Camb	-6527
▁semi	-6528
▁formal	-6529
▁incent	-6530
▁pray	-6531
▁originally	-6532
▁explained	-6533
ked	-6534
▁rush	-6535
10	-6536
▁72	-6537
▁restaurants	-6538
▁responded	-6539
▁sch	-6540
echan	-6541
▁invent	-6542
▁nice	-6543
▁soldier	-6544
▁journey	-6545
cle	-6546
▁1.3	-6547
▁minimum	-6548
▁nationwide	-6549
▁drew	-6550
▁lit	-6551
▁tomorrow	-6552
▁Development	-6553
▁Ross	-6554
▁regulators	-6555
▁Twitter	-6556
reek	-6557
▁comprom	-6558
▁Fair	-6559
▁Environment	-6560
▁hitting	-6561
die	-6562
uts	-6563
eland	-6564
▁prisoners	-6565
▁evac	-6566
▁pledged	-6567
▁helps	-6568
▁Cro	-6569
▁rooms	-6570
▁Alaska	-6571
▁compete	-6572
▁remarks	-6573
▁Sk	-6574
▁Care	-6575
merce	-6576
▁Labor	-6577
▁Cuba	-6578
▁proud	-6579
idelines	-6580
▁anger	-6581
lyn	-6582
ureau	-6583
▁forest	-6584
▁Cleveland	-6585
▁angry	-6586
▁Vegas	-6587
▁mixed	-6588
▁ge	-6589
▁lenders	-6590
▁Goldman	-6591
itage	-6592
▁financing	-6593
▁preparing	-6594
▁tank	-6595
▁parliamentary	-6596
aze	-6597
▁patrol	-6598
election	-6599
▁swine	-6600
▁breaking	-6601
▁Latin	-6602
▁spr	-6603
▁Karzai	-6604
▁anc	-6605
▁Gi	-6606
▁switch	-6607
▁bear	-6608
▁beach	-6609
▁remind	-6610
ordan	-6611
▁adopt	-6612
▁Yemen	-6613
▁dealing	-6614
▁plun	-6615
rees	-6616
ography	-6617
▁equival	-6618
▁stream	-6619
iner	-6620
iate	-6621
▁Consum	-6622
▁Kansas	-6623
▁collapsed	-6624
▁Bry	-6625
▁deeply	-6626
abilities	-6627
eeping	-6628
▁reaction	-6629
▁85	-6630
▁ham	-6631
▁electronic	-6632
▁recovered	-6633
inct	-6634
▁speculation	-6635
ups	-6636
▁extend	-6637
▁prize	-6638
▁Atlantic	-6639
▁limits	-6640
▁Hampshire	-6641
boy	-6642
▁Pentagon	-6643
vant	-6644
can	-6645
▁Tok	-6646
▁structure	-6647
week	-6648
▁occasion	-6649
▁vulnerable	-6650
▁Bru	-6651
▁employment	-6652
essed	-6653
▁detained	-6654
▁conver	-6655
olis	-6656
▁pip	-6657
riers	-6658
▁insist	-6659
oster	-6660
inejad	-6661
▁dil	-6662
▁recall	-6663
la	-6664
ivision	-6665
arch	-6666
▁arts	-6667
ocol	-6668
▁diplomatic	-6669
▁surface	-6670
▁photo	-6671
▁fundament	-6672
ports	-6673
▁enem	-6674
anes	-6675
▁baseball	-6676
style	-6677
▁wave	-6678
haul	-6679
▁Nev	-6680
▁Anthony	-6681
ribute	-6682
▁detain	-6683
sters	-6684
lets	-6685
organ	-6686
▁ends	-6687
▁cy	-6688
▁regulation	-6689
▁restrictions	-6690
▁stun	-6691
▁presidency	-6692
▁Elect	-6693
▁understanding	-6694
inder	-6695
▁discussions	-6696
▁regulatory	-6697
▁Authorities	-6698
▁Mexican	-6699
▁luxury	-6700
▁venture	-6701
▁laid	-6702
▁trail	-6703
▁Anderson	-6704
▁priority	-6705
ello	-6706
▁schedule	-6707
▁Brother	-6708
▁193	-6709
▁termin	-6710
▁Michel	-6711
▁Taiwan	-6712
▁THE	-6713
icial	-6714
▁Beach	-6715
▁prin	-6716
▁asset	-6717
ova	-6718
▁NASA	-6719
▁clothes	-6720
▁Navy	-6721
▁discussed	-6722
▁quarterback	-6723
olas	-6724
▁worker	-6725
grade	-6726
▁Wright	-6727
gents	-6728
▁superv	-6729
▁Pittsburgh	-6730
▁counts	-6731
assador	-6732
▁cited	-6733
▁Barb	-6734
▁scientific	-6735
▁relatives	-6736
▁accel	-6737
▁sweet	-6738
ovic	-6739
▁Indust	-6740
isan	-6741
▁Ty	-6742
▁61	-6743
▁suffer	-6744
rim	-6745
▁Ut	-6746
ita	-6747
▁diver	-6748
EA	-6749
▁streak	-6750
▁Authority	-6751
▁fant	-6752
▁Seattle	-6753
▁Profile	-6754
▁Transport	-6755
rad	-6756
▁subm	-6757
▁cry	-6758
▁permanent	-6759
▁vess	-6760
▁overnight	-6761
▁congressional	-6762
▁stepped	-6763
▁concluded	-6764
▁Academy	-6765
,2	-6766
▁typically	-6767
owners	-6768
▁Ian	-6769
▁managing	-6770
profit	-6771
eller	-6772
▁overwhel	-6773
▁franch	-6774
▁plastic	-6775
igation	-6776
▁struggled	-6777
▁feels	-6778
▁communications	-6779
▁Lind	-6780
poin	-6781
▁paint	-6782
▁Hu	-6783
▁partly	-6784
olen	-6785
▁Prosecut	-6786
cription	-6787
▁musical	-6788
▁Whe	-6789
▁gro	-6790
▁DNA	-6791
▁understood	-6792
▁obvious	-6793
▁Cop	-6794
▁ultimately	-6795
▁canc	-6796
rav	-6797
▁fought	-6798
▁rum	-6799
▁rocket	-6800
▁Stanley	-6801
▁river	-6802
▁vision	-6803
▁Wild	-6804
▁sees	-6805
▁talent	-6806
wing	-6807
▁Ahmadinejad	-6808
▁Gal	-6809
▁improvement	-6810
uous	-6811
amber	-6812
▁divor	-6813
▁instance	-6814
▁poverty	-6815
rell	-6816
▁strongly	-6817
▁unclear	-6818
Call	-6819
iden	-6820
▁backing	-6821
itarian	-6822
▁breast	-6823
▁tells	-6824
▁myst	-6825
▁Bir	-6826
▁regulations	-6827
▁upset	-6828
▁lie	-6829
▁Mir	-6830
▁shif	-6831
▁Jason	-6832
▁Oil	-6833
ram	-6834
▁Ever	-6835
rators	-6836
pass	-6837
▁Second	-6838
▁survived	-6839
▁pieces	-6840
ppers	-6841
amples	-6842
▁militant	-6843
casts	-6844
▁behaviour	-6845
aken	-6846
▁coin	-6847
oline	-6848
▁Luc	-6849
mosp	-6850
▁250	-6851
oration	-6852
CO	-6853
▁awards	-6854
▁pup	-6855
▁63	-6856
▁78	-6857
▁badly	-6858
▁ride	-6859
▁granted	-6860
▁chosen	-6861
▁modest	-6862
agan	-6863
▁pattern	-6864
▁Media	-6865
▁Abu	-6866
▁stadium	-6867
▁organis	-6868
▁improving	-6869
▁Crown	-6870
▁vaccine	-6871
ek	-6872
▁honor	-6873
▁Balt	-6874
earing	-6875
▁citing	-6876
ella	-6877
▁unn	-6878
▁Champions	-6879
▁PC	-6880
▁Roberts	-6881
▁bailout	-6882
▁Director	-6883
▁edition	-6884
▁Columbia	-6885
▁outcome	-6886
▁resolution	-6887
▁accur	-6888
itary	-6889
▁Fil	-6890
▁Quote	-6891
oned	-6892
▁Ros	-6893
First	-6894
▁bonuses	-6895
daq	-6896
▁20-	-6897
▁combination	-6898
break	-6899
dy	-6900
ga	-6901
▁causes	-6902
▁Joseph	-6903
▁shape	-6904
▁forg	-6905
▁immigrants	-6906
▁helicopter	-6907
▁links	-6908
▁Romney	-6909
▁institution	-6910
▁bombing	-6911
▁radical	-6912
▁Patrick	-6913
▁economies	-6914
ielder	-6915
fe	-6916
▁Yes	-6917
▁initiative	-6918
▁Nasdaq	-6919
iano	-6920
▁file	-6921
▁Anton	-6922
▁Rangers	-6923
rated	-6924
▁apolog	-6925
▁passenger	-6926
weight	-6927
▁computers	-6928
▁Tokyo	-6929
▁harder	-6930
▁regarding	-6931
GEL	-6932
▁eating	-6933
▁adult	-6934
enny	-6935
▁fighters	-6936
lers	-6937
irts	-6938
force	-6939
▁directors	-6940
▁mine	-6941
▁Jordan	-6942
▁Jay	-6943
uez	-6944
▁reaching	-6945
▁letters	-6946
▁apprec	-6947
heim	-6948
▁Craig	-6949
arsh	-6950
▁listen	-6951
owell	-6952
▁aggressive	-6953
▁subsequ	-6954
▁Cross	-6955
▁pin	-6956
▁papers	-6957
▁LOS	-6958
▁sympt	-6959
unction	-6960
▁5,000	-6961
▁effic	-6962
▁involvement	-6963
▁Lake	-6964
▁dry	-6965
▁maximum	-6966
▁Greece	-6967
▁alert	-6968
▁Perhaps	-6969
▁1960	-6970
▁Stadium	-6971
▁requirements	-6972
▁regularly	-6973
▁Thompson	-6974
▁insurgents	-6975
▁numerous	-6976
▁producers	-6977
▁directed	-6978
▁founder	-6979
▁Hamilton	-6980
▁talked	-6981
▁ANGEL	-6982
▁yourself	-6983
▁Oscar	-6984
▁grounds	-6985
▁absolutely	-6986
▁multi	-6987
law	-6988
▁satellite	-6989
free	-6990
▁follows	-6991
▁formed	-6992
backed	-6993
aret	-6994
▁Each	-6995
▁studio	-6996
▁seed	-6997
PA	-6998
▁Dam	-6999
▁code	-7000
▁busy	-7001
▁outstanding	-7002
▁explosion	-7003
▁Jean	-7004
▁Turn	-7005
FirstCall	-7006
▁Hond	-7007
▁stayed	-7008
▁discip	-7009
▁dealers	-7010
▁commod	-7011
▁Professor	-7012
▁roof	-7013
▁lunch	-7014
▁Santa	-7015
▁solar	-7016
▁factory	-7017
▁Vice	-7018
▁distribution	-7019
▁faster	-7020
▁Orle	-7021
▁Fergus	-7022
▁Dem	-7023
▁passes	-7024
▁enthus	-7025
asy	-7026
▁Motor	-7027
▁Form	-7028
▁appropriate	-7029
olds	-7030
,7	-7031
▁CH	-7032
▁intent	-7033
▁Jam	-7034
▁saved	-7035
uits	-7036
▁remote	-7037
osis	-7038
▁copy	-7039
,4	-7040
▁CIA	-7041
▁boom	-7042
▁escape	-7043
▁Ant	-7044
▁architect	-7045
▁loved	-7046
arrass	-7047
▁revolution	-7048
▁tree	-7049
▁invited	-7050
third	-7051
opher	-7052
ashing	-7053
orry	-7054
▁ANGELES	-7055
▁extraordin	-7056
▁Educ	-7057
▁ads	-7058
▁shops	-7059
▁scores	-7060
aya	-7061
▁ratings	-7062
▁Mand	-7063
amo	-7064
▁keen	-7065
▁Orleans	-7066
▁guarantee	-7067
▁trick	-7068
▁anx	-7069
▁71	-7070
▁isol	-7071
▁Independ	-7072
▁founded	-7073
▁FT	-7074
▁Ronald	-7075
▁behalf	-7076
aida	-7077
▁rating	-7078
▁Centre	-7079
ikh	-7080
▁Standard	-7081
▁stability	-7082
▁Mug	-7083
▁empty	-7084
▁importance	-7085
▁Glas	-7086
oes	-7087
▁comedy	-7088
▁waters	-7089
▁criticized	-7090
▁ordin	-7091
▁recon	-7092
▁unions	-7093
▁conclus	-7094
▁lots	-7095
aden	-7096
▁regions	-7097
▁counsel	-7098
▁welcom	-7099
▁futures	-7100
▁indeed	-7101
▁acquisition	-7102
lus	-7103
▁cha	-7104
▁Kelly	-7105
▁nominee	-7106
▁outlook	-7107
▁stolen	-7108
▁Sn	-7109
▁truly	-7110
▁ninth	-7111
▁hired	-7112
ortunately	-7113
▁Staff	-7114
▁Mayor	-7115
▁reserves	-7116
▁democrat	-7117
▁Rio	-7118
▁Channel	-7119
,6	-7120
bell	-7121
iro	-7122
▁complained	-7123
ugby	-7124
▁hardly	-7125
▁Stew	-7126
▁tourists	-7127
▁moments	-7128
▁cert	-7129
▁controlled	-7130
▁equivalent	-7131
▁embarrass	-7132
▁coordin	-7133
▁Ren	-7134
▁abortion	-7135
▁transform	-7136
rehensive	-7137
ses	-7138
▁intens	-7139
▁toug	-7140
▁meat	-7141
stream	-7142
▁ease	-7143
▁exports	-7144
▁Pot	-7145
▁economists	-7146
▁operate	-7147
▁reforms	-7148
▁instruct	-7149
level	-7150
OND	-7151
▁substantial	-7152
▁Lloy	-7153
▁exclud	-7154
▁Water	-7155
▁ment	-7156
▁steel	-7157
onz	-7158
▁differences	-7159
▁peak	-7160
▁69	-7161
▁spin	-7162
LC	-7163
▁string	-7164
▁fro	-7165
beat	-7166
▁atmosp	-7167
odes	-7168
▁tab	-7169
▁sight	-7170
▁15-	-7171
▁tall	-7172
▁Rice	-7173
▁emotional	-7174
ounding	-7175
▁innoc	-7176
▁Foot	-7177
▁output	-7178
▁Avenue	-7179
▁medal	-7180
▁enjoyed	-7181
▁defensive	-7182
▁mel	-7183
izon	-7184
▁height	-7185
▁Where	-7186
ernand	-7187
▁retailers	-7188
▁association	-7189
gow	-7190
▁delegates	-7191
▁silver	-7192
▁divid	-7193
▁Series	-7194
▁interviews	-7195
▁guys	-7196
▁Berlin	-7197
▁struct	-7198
▁label	-7199
▁honest	-7200
▁Matthew	-7201
GA	-7202
ration	-7203
▁IT	-7204
▁deadline	-7205
▁trop	-7206
▁1995	-7207
▁detailed	-7208
▁prominent	-7209
▁Edin	-7210
▁punish	-7211
▁newspapers	-7212
ati	-7213
▁egg	-7214
▁Get	-7215
▁delayed	-7216
▁fier	-7217
American	-7218
▁essential	-7219
▁beaten	-7220
▁rig	-7221
sen	-7222
▁selection	-7223
▁collabor	-7224
▁Ts	-7225
▁eval	-7226
▁ballot	-7227
▁shoulder	-7228
,3	-7229
▁Ferguson	-7230
▁adopted	-7231
▁Putin	-7232
▁expense	-7233
▁Lar	-7234
icken	-7235
▁guardian	-7236
pm	-7237
▁Hus	-7238
▁prosecution	-7239
izz	-7240
▁amounts	-7241
kel	-7242
▁embr	-7243
▁hyp	-7244
aug	-7245
▁loyal	-7246
▁Federer	-7247
▁creation	-7248
▁handle	-7249
▁Square	-7250
▁native	-7251
▁Rights	-7252
▁joining	-7253
▁mir	-7254
▁characters	-7255
▁Hotel	-7256
▁urban	-7257
abet	-7258
▁Program	-7259
▁mistake	-7260
▁crop	-7261
▁types	-7262
vard	-7263
▁bath	-7264
▁DV	-7265
▁displ	-7266
▁tor	-7267
rage	-7268
▁exhibition	-7269
▁bin	-7270
▁cancel	-7271
eren	-7272
▁publ	-7273
▁Edinburgh	-7274
▁3,000	-7275
ba	-7276
▁Tory	-7277
▁unw	-7278
▁airlines	-7279
▁testim	-7280
▁pharm	-7281
▁Denver	-7282
▁Celt	-7283
▁Shan	-7284
▁updated	-7285
▁76	-7286
▁bridge	-7287
igroup	-7288
▁adjust	-7289
▁conspir	-7290
▁complaint	-7291
▁meanwhile	-7292
▁sac	-7293
rence	-7294
▁instru	-7295
▁Hart	-7296
▁hang	-7297
hat	-7298
▁primarily	-7299
▁transl	-7300
▁purpose	-7301
▁contained	-7302
▁Sony	-7303
▁Ball	-7304
▁investor	-7305
▁employers	-7306
▁coffee	-7307
▁desire	-7308
▁mail	-7309
▁consequences	-7310
▁Has	-7311
▁Mugabe	-7312
▁Sri	-7313
▁cabinet	-7314
emic	-7315
▁smoke	-7316
▁teenager	-7317
▁jailed	-7318
▁metal	-7319
▁bol	-7320
▁hedge	-7321
iser	-7322
▁rom	-7323
▁salary	-7324
rett	-7325
rapped	-7326
▁Women	-7327
▁terrorists	-7328
▁Cole	-7329
ouch	-7330
UR	-7331
▁Did	-7332
▁AFP	-7333
▁Mit	-7334
ensions	-7335
ouri	-7336
▁IP	-7337
▁hat	-7338
▁acts	-7339
▁cameras	-7340
making	-7341
▁representing	-7342
▁Muslims	-7343
▁surviv	-7344
▁73	-7345
▁mechan	-7346
▁lobby	-7347
▁Best	-7348
▁coc	-7349
▁portfolio	-7350
ads	-7351
icate	-7352
▁Sub	-7353
▁represented	-7354
▁Class	-7355
▁sky	-7356
real	-7357
▁taxpayers	-7358
▁intense	-7359
▁brands	-7360
▁reward	-7361
▁nerv	-7362
▁Citigroup	-7363
▁crashed	-7364
▁Space	-7365
▁suggesting	-7366
▁Adam	-7367
▁Rick	-7368
iamond	-7369
▁yes	-7370
▁Airlines	-7371
▁Arm	-7372
vy	-7373
▁Ku	-7374
▁rall	-7375
▁stable	-7376
▁pregnant	-7377
active	-7378
▁bombs	-7379
amily	-7380
orage	-7381
uations	-7382
▁firef	-7383
▁readers	-7384
▁Biden	-7385
ishop	-7386
▁Linc	-7387
umes	-7388
▁anonymity	-7389
▁Polit	-7390
▁Aff	-7391
ective	-7392
▁Glasgow	-7393
▁lift	-7394
▁Disney	-7395
AM	-7396
▁neck	-7397
▁jur	-7398
▁Bull	-7399
iki	-7400
▁strikes	-7401
▁overhaul	-7402
▁deadly	-7403
▁Hy	-7404
▁Walk	-7405
▁doors	-7406
▁Lank	-7407
▁IS	-7408
▁winners	-7409
▁brings	-7410
▁12-	-7411
5,000	-7412
▁Five	-7413
▁Game	-7414
▁Hun	-7415
▁74	-7416
chest	-7417
▁elig	-7418
▁Portug	-7419
▁encoun	-7420
▁Stewart	-7421
▁....	-7422
▁30-	-7423
ums	-7424
inking	-7425
uls	-7426
bery	-7427
▁color	-7428
▁Market	-7429
▁provider	-7430
▁ing	-7431
▁disag	-7432
▁tribal	-7433
ollar	-7434
▁phil	-7435
▁Shiite	-7436
▁blocked	-7437
▁Back	-7438
▁Poland	-7439
▁Reid	-7440
lining	-7441
▁Maybe	-7442
▁excellent	-7443
▁1.6	-7444
▁titles	-7445
▁deliber	-7446
▁greenhouse	-7447
▁1996	-7448
▁motiv	-7449
▁frag	-7450
mingham	-7451
▁mal	-7452
▁Switzer	-7453
▁Mill	-7454
▁locations	-7455
kes	-7456
▁Airport	-7457
▁Nad	-7458
iveness	-7459
ibb	-7460
icy	-7461
icking	-7462
▁takeover	-7463
▁horse	-7464
▁controls	-7465
▁agric	-7466
▁achieved	-7467
▁cler	-7468
▁lock	-7469
▁Bud	-7470
▁manufacturers	-7471
ibrary	-7472
cious	-7473
▁Mun	-7474
▁Fla	-7475
▁Belg	-7476
▁celebrity	-7477
▁distance	-7478
▁survive	-7479
▁Ho	-7480
▁Indiana	-7481
▁classic	-7482
ptions	-7483
▁Switzerland	-7484
▁export	-7485
▁weren	-7486
rible	-7487
awa	-7488
▁Lehman	-7489
▁obtained	-7490
▁comfortable	-7491
▁reass	-7492
uma	-7493
▁tap	-7494
▁recommended	-7495
▁winds	-7496
▁reluct	-7497
▁weapon	-7498
▁Prop	-7499
▁guests	-7500
▁prepare	-7501
▁selected	-7502
▁lies	-7503
onto	-7504
▁Roger	-7505
iciency	-7506
▁Carter	-7507
▁Giants	-7508
ulations	-7509
▁assessment	-7510
▁Doc	-7511
▁iron	-7512
▁risen	-7513
oenix	-7514
▁Medicare	-7515
▁pleas	-7516
▁Ret	-7517
▁suddenly	-7518
▁1994	-7519
▁demanded	-7520
▁Barcl	-7521
▁Argentina	-7522
▁wing	-7523
▁therefore	-7524
aders	-7525
apolis	-7526
▁signing	-7527
ception	-7528
▁forms	-7529
▁efficient	-7530
▁Men	-7531
▁barely	-7532
▁inning	-7533
idden	-7534
▁Rodrig	-7535
▁Pel	-7536
▁cleared	-7537
▁hotels	-7538
▁Raf	-7539
▁recalled	-7540
▁prosecutor	-7541
,8	-7542
▁Li	-7543
▁intention	-7544
▁wider	-7545
apore	-7546
abeth	-7547
wen	-7548
▁chose	-7549
▁AM	-7550
oln	-7551
iques	-7552
▁affair	-7553
▁technologies	-7554
▁threatening	-7555
▁symptoms	-7556
▁Christopher	-7557
▁specialist	-7558
▁gasoline	-7559
▁exposed	-7560
bar	-7561
rah	-7562
Qaida	-7563
aki	-7564
▁fed	-7565
ateral	-7566
▁Turkish	-7567
olitan	-7568
▁McL	-7569
▁designer	-7570
▁Gh	-7571
▁passion	-7572
▁birthday	-7573
▁Represent	-7574
▁AC	-7575
▁Arch	-7576
▁volume	-7577
ded	-7578
▁Greg	-7579
▁Prov	-7580
▁Gary	-7581
▁economist	-7582
▁incidents	-7583
▁Motors	-7584
▁af	-7585
▁Warner	-7586
▁handling	-7587
▁Jonathan	-7588
▁77	-7589
iece	-7590
▁background	-7591
▁Kenya	-7592
▁laugh	-7593
ooth	-7594
▁thrown	-7595
▁sear	-7596
▁imposed	-7597
▁trials	-7598
▁Rand	-7599
▁Singapore	-7600
▁Phoenix	-7601
▁fields	-7602
▁welcomed	-7603
▁unveiled	-7604
▁kidn	-7605
▁exceed	-7606
how	-7607
▁forcing	-7608
▁Burn	-7609
▁exposure	-7610
▁verd	-7611
▁unexpected	-7612
▁defending	-7613
▁conce	-7614
▁sounds	-7615
▁encouraged	-7616
▁extent	-7617
▁Power	-7618
prise	-7619
▁enorm	-7620
▁testimony	-7621
▁guns	-7622
log	-7623
▁calm	-7624
ailand	-7625
▁restruct	-7626
▁controversy	-7627
▁Deb	-7628
▁acquired	-7629
▁1.1	-7630
ollah	-7631
▁photograp	-7632
▁flex	-7633
▁Guant	-7634
PS	-7635
▁demanding	-7636
▁impressive	-7637
▁subsidi	-7638
▁jet	-7639
▁elderly	-7640
usalem	-7641
▁representatives	-7642
▁occas	-7643
▁sensitive	-7644
▁suspicion	-7645
▁Lis	-7646
▁treaty	-7647
▁medicine	-7648
▁striker	-7649
car	-7650
▁consumption	-7651
ache	-7652
▁abandoned	-7653
▁50,000	-7654
▁Madrid	-7655
▁Jerusalem	-7656
▁Gil	-7657
▁Tenness	-7658
▁bac	-7659
▁telec	-7660
▁Vietnam	-7661
▁Thailand	-7662
▁IM	-7663
▁Milan	-7664
▁Toronto	-7665
▁Ban	-7666
▁Syria	-7667
▁glob	-7668
▁mood	-7669
▁assass	-7670
▁industries	-7671
▁column	-7672
▁properly	-7673
▁NBA	-7674
ronics	-7675
imal	-7676
ommod	-7677
▁inspired	-7678
▁trained	-7679
▁milk	-7680
▁conversation	-7681
▁Moore	-7682
▁accompl	-7683
▁challenging	-7684
▁publish	-7685
▁participants	-7686
▁classes	-7687
▁Birmingham	-7688
castle	-7689
▁LOND	-7690
▁dedicated	-7691
azing	-7692
▁obst	-7693
▁Fel	-7694
▁AIG	-7695
▁principal	-7696
▁LONDON	-7697
▁Bloom	-7698
▁forget	-7699
▁Harris	-7700
rd	-7701
▁parking	-7702
▁Division	-7703
▁accus	-7704
▁Cz	-7705
▁officially	-7706
▁clinical	-7707
▁marks	-7708
▁opposite	-7709
▁guess	-7710
▁Network	-7711
rete	-7712
▁mob	-7713
burn	-7714
▁aver	-7715
ectic	-7716
▁id	-7717
▁interp	-7718
▁comprehensive	-7719
▁Euro	-7720
▁dominated	-7721
▁accounting	-7722
▁diet	-7723
▁stuck	-7724
Qaeda	-7725
▁extreme	-7726
▁extraordinary	-7727
▁offset	-7728
▁Naz	-7729
▁absence	-7730
ching	-7731
▁Max	-7732
▁teaching	-7733
▁Kos	-7734
uties	-7735
istol	-7736
▁kitchen	-7737
ID	-7738
▁Hold	-7739
▁invasion	-7740
▁legit	-7741
egraph	-7742
▁resulted	-7743
▁Education	-7744
▁likes	-7745
▁investigate	-7746
▁campaigns	-7747
▁friendly	-7748
▁conspiracy	-7749
▁pock	-7750
▁Lincoln	-7751
▁channel	-7752
▁Az	-7753
lah	-7754
ultural	-7755
▁Bab	-7756
▁Edward	-7757
▁veget	-7758
▁moderate	-7759
▁Trade	-7760
OM	-7761
▁Supp	-7762
br	-7763
▁caution	-7764
▁BA	-7765
umber	-7766
▁tools	-7767
▁IN	-7768
▁walls	-7769
▁Conservatives	-7770
▁Nik	-7771
iture	-7772
▁accommod	-7773
▁traded	-7774
▁successfully	-7775
ura	-7776
▁conven	-7777
chell	-7778
vin	-7779
▁planet	-7780
▁normally	-7781
▁planes	-7782
▁neighbour	-7783
▁Tennessee	-7784
▁shed	-7785
▁Wels	-7786
▁downtown	-7787
▁prospects	-7788
ema	-7789
▁rapidly	-7790
▁inspect	-7791
▁imagine	-7792
rene	-7793
▁Buff	-7794
iform	-7795
▁expanded	-7796
▁Mod	-7797
▁Music	-7798
▁Terry	-7799
▁Sunni	-7800
itar	-7801
▁franchise	-7802
▁Campbell	-7803
▁entit	-7804
▁fu	-7805
▁satisf	-7806
▁Khan	-7807
▁applied	-7808
▁tum	-7809
▁alliance	-7810
▁ST	-7811
▁Rome	-7812
▁detention	-7813
▁Little	-7814
▁cul	-7815
▁referring	-7816
▁1992	-7817
cott	-7818
ancer	-7819
▁delight	-7820
▁maint	-7821
▁Sox	-7822
▁scrut	-7823
▁drawing	-7824
▁cooperation	-7825
▁SEC	-7826
▁Oxford	-7827
▁error	-7828
▁knock	-7829
▁Town	-7830
▁reporter	-7831
ether	-7832
▁king	-7833
▁capable	-7834
▁frequently	-7835
▁dump	-7836
▁99	-7837
▁engineering	-7838
▁rarely	-7839
▁warrant	-7840
▁virtually	-7841
▁bow	-7842
rolled	-7843
▁pages	-7844
imore	-7845
otal	-7846
▁atmosphere	-7847
fast	-7848
sein	-7849
▁campus	-7850
alling	-7851
▁organisation	-7852
▁Plan	-7853
ez	-7854
▁crunch	-7855
▁theory	-7856
▁entering	-7857
▁tent	-7858
▁Ha	-7859
▁confront	-7860
strong	-7861
▁quarterly	-7862
▁Bhut	-7863
AP	-7864
▁fatal	-7865
auty	-7866
▁Commons	-7867
▁cricket	-7868
▁informed	-7869
reced	-7870
▁broader	-7871
▁happening	-7872
▁tox	-7873
▁smoking	-7874
▁providers	-7875
▁Darling	-7876
▁featured	-7877
▁Alexander	-7878
▁implic	-7879
▁possession	-7880
▁mouth	-7881
bul	-7882
▁religion	-7883
recedented	-7884
▁Information	-7885
▁cook	-7886
▁fault	-7887
upp	-7888
▁Book	-7889
▁Barclays	-7890
▁Near	-7891
▁vet	-7892
▁landsc	-7893
▁tracks	-7894
▁weekly	-7895
▁wheel	-7896
▁guards	-7897
▁Newcastle	-7898
▁centers	-7899
▁ordinary	-7900
▁dict	-7901
▁relative	-7902
▁Tories	-7903
▁engaged	-7904
▁discount	-7905
abetes	-7906
▁obviously	-7907
uable	-7908
irty	-7909
raine	-7910
prime	-7911
▁Rodriguez	-7912
▁Indonesia	-7913
▁Arabia	-7914
▁pleased	-7915
utical	-7916
▁inev	-7917
▁Bond	-7918
▁basketball	-7919
▁ships	-7920
▁videos	-7921
▁repair	-7922
▁Week	-7923
unior	-7924
▁Brazilian	-7925
▁UC	-7926
▁refuge	-7927
▁unprecedented	-7928
▁disappointed	-7929
▁amend	-7930
▁Bal	-7931
agu	-7932
high	-7933
▁Science	-7934
▁filing	-7935
▁monitoring	-7936
▁jack	-7937
▁rebel	-7938
▁GDP	-7939
▁gathering	-7940
▁prepar	-7941
pat	-7942
orous	-7943
▁Rh	-7944
▁Ast	-7945
asp	-7946
▁soph	-7947
,9	-7948
eared	-7949
▁brothers	-7950
▁Others	-7951
▁Indeed	-7952
▁DVD	-7953
▁towns	-7954
▁sustained	-7955
▁wireless	-7956
▁Tiger	-7957
▁transp	-7958
igers	-7959
itol	-7960
aceutical	-7961
mann	-7962
▁holes	-7963
▁3.5	-7964
▁bars	-7965
▁gift	-7966
▁provision	-7967
▁restore	-7968
▁homeowners	-7969
rooms	-7970
▁rape	-7971
▁producing	-7972
zen	-7973
▁Guardian	-7974
▁120	-7975
oded	-7976
▁Dick	-7977
▁tennis	-7978
▁Sad	-7979
▁episode	-7980
ele	-7981
-19	-7982
antic	-7983
▁anywhere	-7984
▁95	-7985
▁pending	-7986
▁guide	-7987
▁resolve	-7988
ource	-7989
▁symp	-7990
▁staying	-7991
▁arrival	-7992
▁Cost	-7993
25	-7994
▁academic	-7995
▁Telegraph	-7996
▁replacement	-7997
▁hate	-7998
▁arrive	-7999
erb	-8000
▁birds	-8001
▁concept	-8002
Tube	-8003
▁forth	-8004
▁puts	-8005
▁promises	-8006
▁quit	-8007
▁88	-8008
holder	-8009
▁pupils	-8010
▁tensions	-8011
▁connected	-8012
▁Marsh	-8013
▁Czech	-8014
olph	-8015
▁McK	-8016
itious	-8017
▁athletes	-8018
▁constitu	-8019
▁la	-8020
▁Eth	-8021
▁soc	-8022
▁Baltimore	-8023
▁beer	-8024
▁Bor	-8025
anny	-8026
▁Officer	-8027
▁Whit	-8028
▁grass	-8029
▁races	-8030
▁Bre	-8031
▁visits	-8032
▁Cook	-8033
▁operator	-8034
▁Gill	-8035
▁rot	-8036
wich	-8037
▁Mitchell	-8038
▁pound	-8039
▁procedures	-8040
ami	-8041
▁sparked	-8042
avez	-8043
▁performances	-8044
don	-8045
▁thin	-8046
door	-8047
greg	-8048
▁appointment	-8049
▁Gri	-8050
▁veterans	-8051
▁permission	-8052
ker	-8053
olid	-8054
▁mos	-8055
elect	-8056
▁Lebanon	-8057
▁settled	-8058
▁Assembly	-8059
▁TM	-8060
▁schol	-8061
▁aides	-8062
net	-8063
okes	-8064
▁falls	-8065
▁YouTube	-8066
▁tries	-8067
lan	-8068
▁finds	-8069
▁Bos	-8070
▁thus	-8071
▁1.8	-8072
▁journalist	-8073
▁Awards	-8074
ovo	-8075
erald	-8076
▁feared	-8077
▁reveal	-8078
rors	-8079
▁swing	-8080
▁1.7	-8081
▁Sports	-8082
▁Sweden	-8083
▁champions	-8084
▁camps	-8085
▁departure	-8086
▁participate	-8087
▁20,000	-8088
▁bags	-8089
▁Andre	-8090
iani	-8091
▁interrog	-8092
▁sufficient	-8093
redit	-8094
▁convin	-8095
anium	-8096
oub	-8097
▁couples	-8098
▁bonus	-8099
▁racing	-8100
rows	-8101
▁Mahm	-8102
▁Golden	-8103
ropolitan	-8104
▁wedding	-8105
dr	-8106
▁Dur	-8107
▁tonight	-8108
actions	-8109
arks	-8110
hill	-8111
▁volat	-8112
▁repay	-8113
di	-8114
▁Myan	-8115
▁Sach	-8116
▁Somalia	-8117
▁encouraging	-8118
▁Chavez	-8119
▁adds	-8120
▁Marine	-8121
backs	-8122
▁Welsh	-8123
▁Local	-8124
obs	-8125
▁Govern	-8126
▁signal	-8127
anche	-8128
▁definitely	-8129
▁18-	-8130
mile	-8131
winning	-8132
dro	-8133
▁1991	-8134
▁Rose	-8135
▁clothing	-8136
rical	-8137
▁weigh	-8138
▁Country	-8139
▁Ark	-8140
▁lights	-8141
▁windows	-8142
▁bitter	-8143
▁Myanmar	-8144
eding	-8145
▁slowly	-8146
▁makers	-8147
▁thank	-8148
▁upper	-8149
▁Spring	-8150
▁kilomet	-8151
▁ju	-8152
▁je	-8153
▁30,000	-8154
OC	-8155
▁Ven	-8156
▁uniform	-8157
▁extensive	-8158
▁Writ	-8159
century	-8160
▁resigned	-8161
▁historical	-8162
▁strict	-8163
▁detainees	-8164
▁profile	-8165
▁typical	-8166
▁halt	-8167
▁Darfur	-8168
▁torture	-8169
▁generate	-8170
▁Michelle	-8171
▁landed	-8172
▁Barry	-8173
▁blind	-8174
iminary	-8175
▁Carlos	-8176
▁symbol	-8177
▁Huck	-8178
▁defeated	-8179
▁category	-8180
▁inches	-8181
▁Patri	-8182
▁secured	-8183
▁delays	-8184
▁explo	-8185
▁divided	-8186
▁subur	-8187
▁restructuring	-8188
▁Bridge	-8189
stal	-8190
▁collected	-8191
▁Ko	-8192
▁vowed	-8193
▁bes	-8194
▁Eliz	-8195
▁respectively	-8196
▁unknown	-8197
larg	-8198
▁Having	-8199
▁Was	-8200
▁Philipp	-8201
▁Venezuela	-8202
▁representative	-8203
▁Liberal	-8204
▁criticised	-8205
EI	-8206
alo	-8207
▁trucks	-8208
▁stabil	-8209
▁convinced	-8210
attered	-8211
▁Colombia	-8212
cons	-8213
▁FA	-8214
rank	-8215
▁referred	-8216
▁Cabinet	-8217
▁cig	-8218
▁foundation	-8219
▁Fur	-8220
▁broker	-8221
uce	-8222
▁elements	-8223
child	-8224
▁mentioned	-8225
▁serves	-8226
▁appeals	-8227
▁NYSE	-8228
▁Capitol	-8229
▁connect	-8230
▁sequ	-8231
▁handful	-8232
▁Bon	-8233
athy	-8234
▁Mohammed	-8235
▁Abbas	-8236
anke	-8237
▁HIV	-8238
illance	-8239
uting	-8240
▁bankers	-8241
owing	-8242
▁nut	-8243
umbled	-8244
▁flew	-8245
elfare	-8246
agger	-8247
▁fate	-8248
rob	-8249
▁aims	-8250
ta	-8251
▁Oak	-8252
orted	-8253
▁burst	-8254
▁relationships	-8255
▁advisers	-8256
▁conviction	-8257
▁saving	-8258
▁unfair	-8259
▁tail	-8260
▁Greek	-8261
▁moral	-8262
unes	-8263
▁Leon	-8264
held	-8265
million	-8266
profile	-8267
▁Technology	-8268
▁Nich	-8269
▁WH	-8270
▁assists	-8271
▁elite	-8272
▁select	-8273
ologists	-8274
▁wealthy	-8275
▁Brothers	-8276
▁brill	-8277
▁striking	-8278
▁opponent	-8279
▁Scient	-8280
▁temperatures	-8281
▁zero	-8282
▁Ay	-8283
▁Graham	-8284
▁MS	-8285
▁Thanks	-8286
▁Speaking	-8287
▁Shares	-8288
▁relax	-8289
▁ages	-8290
▁eager	-8291
▁efficiency	-8292
▁teenage	-8293
▁Economic	-8294
rance	-8295
▁actors	-8296
▁volunt	-8297
▁Ukraine	-8298
▁Love	-8299
inations	-8300
▁JP	-8301
ewhat	-8302
▁brut	-8303
▁Finance	-8304
▁Given	-8305
▁Special	-8306
▁Cow	-8307
▁Kentucky	-8308
▁sharing	-8309
▁obser	-8310
▁Utah	-8311
▁capture	-8312
▁useful	-8313
▁transportation	-8314
▁mile	-8315
acking	-8316
estyle	-8317
▁footage	-8318
▁conced	-8319
▁privacy	-8320
▁Stat	-8321
col	-8322
sec	-8323
pective	-8324
▁eligible	-8325
▁promising	-8326
▁carefully	-8327
western	-8328
▁politically	-8329
▁motion	-8330
▁ambassador	-8331
▁hung	-8332
▁scenes	-8333
▁Award	-8334
▁benchmark	-8335
▁degrees	-8336
▁crackdown	-8337
▁lifted	-8338
▁furn	-8339
▁preferred	-8340
▁theme	-8341
▁discover	-8342
▁fruit	-8343
▁Mail	-8344
▁statistics	-8345
▁yellow	-8346
▁Kurd	-8347
ora	-8348
▁prel	-8349
outheast	-8350
▁cooper	-8351
▁shadow	-8352
▁incred	-8353
illa	-8354
▁distr	-8355
tery	-8356
▁worries	-8357
▁featuring	-8358
shore	-8359
▁doubled	-8360
azon	-8361
▁approached	-8362
▁resulting	-8363
ione	-8364
▁prohib	-8365
▁checks	-8366
▁du	-8367
▁Bureau	-8368
▁scar	-8369
mand	-8370
▁Abdul	-8371
▁guidelines	-8372
▁Py	-8373
▁enormous	-8374
▁referend	-8375
no	-8376
▁Sean	-8377
,1	-8378
plus	-8379
▁Norm	-8380
▁merger	-8381
▁ownership	-8382
▁Football	-8383
ras	-8384
▁Drug	-8385
▁universities	-8386
igger	-8387
▁facts	-8388
▁Est	-8389
▁Bhutto	-8390
▁Rem	-8391
▁disorder	-8392
gger	-8393
RC	-8394
▁pursue	-8395
bal	-8396
▁keeps	-8397
▁steady	-8398
▁sons	-8399
▁license	-8400
offs	-8401
▁qual	-8402
▁element	-8403
▁Vis	-8404
idance	-8405
bus	-8406
▁AL	-8407
▁compromise	-8408
▁desperate	-8409
fielder	-8410
ockey	-8411
zed	-8412
ulous	-8413
▁somewhat	-8414
▁borrowers	-8415
▁Partners	-8416
▁republic	-8417
emble	-8418
ampton	-8419
▁photographs	-8420
▁professionals	-8421
▁momentum	-8422
yt	-8423
▁verdict	-8424
▁taxpayer	-8425
▁Bernanke	-8426
▁everybody	-8427
hua	-8428
▁BM	-8429
▁raid	-8430
orkshire	-8431
▁SAN	-8432
phy	-8433
▁1993	-8434
eted	-8435
ahu	-8436
▁creative	-8437
▁Key	-8438
▁colon	-8439
▁revers	-8440
ointing	-8441
▁legs	-8442
▁Lev	-8443
esty	-8444
anamo	-8445
▁Ker	-8446
▁covering	-8447
▁Ul	-8448
▁protected	-8449
▁volunteers	-8450
tering	-8451
▁merely	-8452
▁ancient	-8453
▁Field	-8454
▁Elizabeth	-8455
ghai	-8456
▁uncertainty	-8457
▁Hughes	-8458
▁lying	-8459
▁Hom	-8460
▁Ferr	-8461
reprene	-8462
ellect	-8463
▁buried	-8464
▁Family	-8465
▁transition	-8466
▁teenagers	-8467
▁bases	-8468
▁Guantanamo	-8469
▁forecasts	-8470
▁Investors	-8471
eign	-8472
▁86	-8473
▁Hear	-8474
▁Oklah	-8475
▁Marg	-8476
▁82	-8477
acre	-8478
▁expanding	-8479
UL	-8480
▁08	-8481
▁habit	-8482
▁ranked	-8483
rive	-8484
▁observ	-8485
▁Stanford	-8486
▁concrete	-8487
▁Trib	-8488
▁refin	-8489
▁machines	-8490
urt	-8491
▁weakness	-8492
aughters	-8493
ecticut	-8494
▁agreements	-8495
▁advent	-8496
▁Cat	-8497
▁ranks	-8498
▁Sab	-8499
▁rebuild	-8500
▁landing	-8501
▁barg	-8502
▁phase	-8503
▁trigg	-8504
▁assembly	-8505
▁FDA	-8506
inding	-8507
▁Nelson	-8508
▁tea	-8509
▁Shanghai	-8510
▁Consumer	-8511
▁2-1	-8512
▁deployed	-8513
▁choices	-8514
▁Lock	-8515
▁borrowing	-8516
oir	-8517
▁Const	-8518
▁Chancellor	-8519
▁funded	-8520
▁spoken	-8521
▁Commerce	-8522
▁praised	-8523
oner	-8524
▁Huckab	-8525
ito	-8526
▁Festival	-8527
▁dyn	-8528
ductions	-8529
abad	-8530
▁Never	-8531
▁deterior	-8532
▁quake	-8533
▁fundra	-8534
▁recruit	-8535
range	-8536
▁Evans	-8537
▁manner	-8538
▁Heath	-8539
▁fundamental	-8540
▁investigations	-8541
▁fishing	-8542
▁Circ	-8543
▁exit	-8544
▁cycle	-8545
▁default	-8546
▁supports	-8547
▁ramp	-8548
▁Connecticut	-8549
▁humans	-8550
▁Jess	-8551
▁Barcel	-8552
▁uranium	-8553
▁Nevada	-8554
▁slipped	-8555
▁24-	-8556
▁expecting	-8557
▁Boeing	-8558
▁Ltd	-8559
scale	-8560
▁overwhelming	-8561
oard	-8562
▁Ocean	-8563
▁routine	-8564
▁complicated	-8565
▁improvements	-8566
▁Cru	-8567
▁popularity	-8568
rum	-8569
▁emp	-8570
▁packed	-8571
▁discovery	-8572
▁Independent	-8573
▁@	-8574
final	-8575
▁Bear	-8576
▁predecess	-8577
▁guest	-8578
▁reserve	-8579
▁Cam	-8580
oca	-8581
▁gallon	-8582
▁Giul	-8583
▁trips	-8584
▁Oklahoma	-8585
▁diabetes	-8586
▁Mat	-8587
▁funeral	-8588
▁monitor	-8589
▁Hard	-8590
▁Fernand	-8591
▁defended	-8592
▁specifically	-8593
▁map	-8594
▁shuttle	-8595
▁Prosecutors	-8596
▁disappear	-8597
iatric	-8598
oric	-8599
▁Equ	-8600
RO	-8601
▁trains	-8602
▁contributions	-8603
▁Yorkshire	-8604
cut	-8605
▁tone	-8606
▁genu	-8607
▁odd	-8608
▁Antonio	-8609
▁Poor	-8610
▁Free	-8611
▁performing	-8612
oren	-8613
▁plea	-8614
osi	-8615
idd	-8616
▁membership	-8617
▁Live	-8618
▁competing	-8619
oto	-8620
▁stressed	-8621
▁advised	-8622
▁throwing	-8623
omp	-8624
▁Barcelona	-8625
▁NC	-8626
▁84	-8627
▁roles	-8628
▁cheaper	-8629
umph	-8630
ampa	-8631
▁Buck	-8632
▁79	-8633
▁Without	-8634
▁ski	-8635
▁referendum	-8636
▁childhood	-8637
▁tool	-8638
▁viewed	-8639
▁Brooklyn	-8640
▁quarters	-8641
▁Xin	-8642
▁traveling	-8643
moil	-8644
▁depression	-8645
▁attractive	-8646
▁Lie	-8647
ayed	-8648
acco	-8649
▁chest	-8650
▁Pres	-8651
▁totally	-8652
▁ank	-8653
▁Take	-8654
▁escaped	-8655
▁extension	-8656
EM	-8657
▁assert	-8658
▁favourite	-8659
mers	-8660
▁outbreak	-8661
▁jew	-8662
▁carrier	-8663
▁heritage	-8664
▁Safety	-8665
▁erup	-8666
▁Bul	-8667
▁insists	-8668
wick	-8669
▁rely	-8670
▁preliminary	-8671
▁celebrate	-8672
▁stamp	-8673
uana	-8674
▁beauty	-8675
▁babies	-8676
eries	-8677
ira	-8678
▁infection	-8679
▁difficulties	-8680
iac	-8681
▁anyway	-8682
enhagen	-8683
iox	-8684
▁pig	-8685
▁Nether	-8686
▁bomber	-8687
zone	-8688
▁Which	-8689
▁maintained	-8690
▁crews	-8691
▁legend	-8692
▁Cardiff	-8693
▁vig	-8694
front	-8695
▁governing	-8696
▁gre	-8697
▁relie	-8698
▁attending	-8699
▁turmoil	-8700
▁toxic	-8701
▁desert	-8702
borne	-8703
▁pirates	-8704
acher	-8705
▁writes	-8706
▁arguing	-8707
▁Hist	-8708
ibilities	-8709
▁16-	-8710
isp	-8711
▁Amazon	-8712
avi	-8713
▁Dave	-8714
oting	-8715
▁steep	-8716
▁Domin	-8717
▁chap	-8718
aro	-8719
▁fairly	-8720
ifer	-8721
▁medium	-8722
▁quant	-8723
▁Harvard	-8724
▁guidance	-8725
▁anticipated	-8726
▁shouldn	-8727
▁reasonable	-8728
▁disappeared	-8729
▁surr	-8730
inter	-8731
▁Copenhagen	-8732
▁Bruce	-8733
hetic	-8734
ogether	-8735
▁1950	-8736
▁Organization	-8737
▁attracted	-8738
▁survivors	-8739
▁user	-8740
USNewswire	-8741
▁defender	-8742
▁retailer	-8743
▁barrels	-8744
▁Lions	-8745
gets	-8746
▁therapy	-8747
ext	-8748
▁necessarily	-8749
▁ally	-8750
hors	-8751
▁McN	-8752
bu	-8753
▁Through	-8754
than	-8755
▁stated	-8756
▁documentary	-8757
▁Sky	-8758
▁Follow	-8759
▁icon	-8760
▁premier	-8761
▁Crit	-8762
▁storage	-8763
▁Pier	-8764
▁affili	-8765
list	-8766
▁update	-8767
▁Fab	-8768
▁longtime	-8769
▁reference	-8770
▁Stra	-8771
▁lady	-8772
▁generated	-8773
ules	-8774
▁etc	-8775
▁briefly	-8776
▁wonderful	-8777
alks	-8778
▁bub	-8779
▁Mets	-8780
▁touc	-8781
▁upcoming	-8782
▁rugby	-8783
▁offense	-8784
▁girlfriend	-8785
▁breaks	-8786
▁nights	-8787
NP	-8788
▁sugar	-8789
▁Civil	-8790
ela	-8791
▁urging	-8792
changed	-8793
eases	-8794
ctic	-8795
aware	-8796
ambling	-8797
▁recip	-8798
▁recognized	-8799
oping	-8800
regon	-8801
▁shoes	-8802
▁democratic	-8803
▁operators	-8804
200	-8805
eld	-8806
▁affordable	-8807
tenance	-8808
▁Huckabee	-8809
▁taste	-8810
▁Until	-8811
▁0.1	-8812
case	-8813
▁recording	-8814
▁Gonz	-8815
▁shout	-8816
▁Watch	-8817
▁Bow	-8818
▁surveillance	-8819
▁Hawai	-8820
▁disputed	-8821
▁politician	-8822
▁Kabul	-8823
-20	-8824
▁indict	-8825
▁Project	-8826
▁constitutional	-8827
anded	-8828
ework	-8829
▁residential	-8830
olly	-8831
▁memor	-8832
olved	-8833
▁Ba	-8834
▁divorce	-8835
▁attempting	-8836
▁flaw	-8837
ila	-8838
▁mining	-8839
▁theater	-8840
IM	-8841
▁dialogue	-8842
▁casualties	-8843
▁Lakers	-8844
ussels	-8845
IP	-8846
▁wre	-8847
▁searching	-8848
▁reck	-8849
▁87	-8850
▁portray	-8851
▁6-4	-8852
▁watchdog	-8853
▁knowing	-8854
▁carries	-8855
▁dust	-8856
TS	-8857
then	-8858
▁unders	-8859
▁hip	-8860
▁operates	-8861
ronaut	-8862
▁construct	-8863
▁ambitious	-8864
▁deny	-8865
aved	-8866
akh	-8867
▁daughters	-8868
▁resume	-8869
▁Sachs	-8870
▁81	-8871
umin	-8872
▁download	-8873
▁Adv	-8874
▁Tigers	-8875
▁branch	-8876
▁relevant	-8877
▁Bloomberg	-8878
▁stroke	-8879
▁6-3	-8880
▁cin	-8881
▁ru	-8882
▁lucky	-8883
▁Oregon	-8884
▁0.2	-8885
▁arrests	-8886
▁contains	-8887
▁Netherlands	-8888
ijuana	-8889
▁wars	-8890
incial	-8891
▁odds	-8892
bing	-8893
▁greet	-8894
anted	-8895
▁tourist	-8896
▁diagnosed	-8897
▁Again	-8898
▁stages	-8899
▁recommendations	-8900
▁Russell	-8901
ss	-8902
▁Nation	-8903
▁Community	-8904
mans	-8905
▁Tro	-8906
icts	-8907
▁Wayne	-8908
▁Fri	-8909
▁graduate	-8910
iated	-8911
armed	-8912
▁hide	-8913
▁fleet	-8914
▁exclusive	-8915
80	-8916
▁ideal	-8917
▁gif	-8918
aser	-8919
▁intellect	-8920
▁Congressional	-8921
▁Rub	-8922
angel	-8923
onna	-8924
▁cocaine	-8925
▁End	-8926
▁judgment	-8927
idays	-8928
dale	-8929
bor	-8930
▁TO	-8931
▁Merrill	-8932
▁Abdullah	-8933
▁finger	-8934
▁trigger	-8935
▁finances	-8936
▁arguments	-8937
onnell	-8938
▁Nadal	-8939
▁IC	-8940
▁dropping	-8941
▁posts	-8942
▁fastest	-8943
▁RBI	-8944
isers	-8945
▁knocked	-8946
▁1989	-8947
▁methods	-8948
▁humanitarian	-8949
wall	-8950
▁renewed	-8951
▁brilliant	-8952
▁neighbors	-8953
mun	-8954
abama	-8955
▁200,000	-8956
▁locked	-8957
▁Exper	-8958
▁reverse	-8959
▁Jenn	-8960
nation	-8961
▁Head	-8962
▁Kosovo	-8963
▁Light	-8964
▁targeting	-8965
xy	-8966
▁describe	-8967
▁tons	-8968
▁missiles	-8969
isons	-8970
▁Mick	-8971
orious	-8972
▁Tampa	-8973
▁donations	-8974
▁welfare	-8975
icious	-8976
▁Mahmoud	-8977
iability	-8978
▁uncom	-8979
▁london	-8980
▁0.5	-8981
▁requests	-8982
▁valuable	-8983
▁Alliance	-8984
▁climbed	-8985
ques	-8986
▁hopeful	-8987
▁Villa	-8988
▁nobody	-8989
▁Murphy	-8990
▁survival	-8991
▁Lynch	-8992
▁foul	-8993
RAN	-8994
▁tip	-8995
▁Orange	-8996
▁peaceful	-8997
▁dressed	-8998
▁outrage	-8999
▁organized	-9000
vez	-9001
eback	-9002
▁strip	-9003
▁squee	-9004
▁advocates	-9005
▁aboard	-9006
zing	-9007
▁Forest	-9008
▁Giuliani	-9009
▁networking	-9010
▁Hispan	-9011
bank	-9012
acular	-9013
▁drunk	-9014
▁legislative	-9015
vereign	-9016
▁Medved	-9017
▁opens	-9018
40	-9019
uj	-9020
▁Ly	-9021
▁Duke	-9022
▁correspondent	-9023
▁Chap	-9024
▁lessons	-9025
ario	-9026
▁regarded	-9027
▁recognition	-9028
▁bra	-9029
▁equally	-9030
hips	-9031
▁bombings	-9032
▁qualified	-9033
▁helicopters	-9034
▁essentially	-9035
▁triumph	-9036
▁hadn	-9037
overs	-9038
▁diseases	-9039
▁ric	-9040
▁Alabama	-9041
▁consultant	-9042
emed	-9043
▁Sales	-9044
▁kicked	-9045
▁formally	-9046
box	-9047
▁homeless	-9048
▁homer	-9049
▁commissioner	-9050
▁Priv	-9051
▁Does	-9052
▁Medvedev	-9053
▁Gas	-9054
▁dat	-9055
mont	-9056
▁Nancy	-9057
▁Pa	-9058
▁studied	-9059
▁Kirk	-9060
▁tourism	-9061
▁enemy	-9062
▁mistakes	-9063
▁attorneys	-9064
▁sovereign	-9065
▁entreprene	-9066
▁Officers	-9067
▁Les	-9068
hr	-9069
ags	-9070
▁acres	-9071
▁postp	-9072
▁accord	-9073
rowing	-9074
▁explan	-9075
ook	-9076
▁Right	-9077
▁withdrawal	-9078
▁Rey	-9079
▁airports	-9080
azir	-9081
▁appearances	-9082
asey	-9083
▁initiatives	-9084
▁portion	-9085
▁500,000	-9086
▁flooding	-9087
ulating	-9088
▁electoral	-9089
▁timing	-9090
▁reop	-9091
▁hidden	-9092
▁submitted	-9093
isk	-9094
▁temp	-9095
▁350	-9096
▁sponsors	-9097
▁slam	-9098
▁2.2	-9099
▁virtual	-9100
▁contribution	-9101
lessly	-9102
▁tactics	-9103
▁Laure	-9104
▁answers	-9105
uro	-9106
▁Senior	-9107
appy	-9108
▁harsh	-9109
ounce	-9110
▁overcome	-9111
▁strain	-9112
▁traff	-9113
▁remarkable	-9114
zy	-9115
▁thick	-9116
lando	-9117
▁longest	-9118
▁noticed	-9119
▁Univers	-9120
▁obtain	-9121
▁optimistic	-9122
aux	-9123
▁lobb	-9124
St	-9125
government	-9126
▁destruction	-9127
▁interim	-9128
▁Systems	-9129
gun	-9130
▁firefighters	-9131
▁intervention	-9132
▁diplomats	-9133
▁genetic	-9134
aints	-9135
ixon	-9136
▁fasc	-9137
▁firing	-9138
▁consensus	-9139
▁knife	-9140
▁households	-9141
acc	-9142
▁unlike	-9143
▁innocent	-9144
▁communication	-9145
▁dramatically	-9146
▁conservatives	-9147
▁screening	-9148
▁orchest	-9149
▁trapped	-9150
ardo	-9151
▁dates	-9152
▁Lady	-9153
brid	-9154
▁appealed	-9155
▁accusations	-9156
▁Affairs	-9157
▁recyc	-9158
raid	-9159
▁Hills	-9160
okie	-9161
▁Malays	-9162
▁Phillips	-9163
▁Revolution	-9164
▁AIDS	-9165
▁cease	-9166
▁pure	-9167
▁requested	-9168
▁Aud	-9169
▁resignation	-9170
ailed	-9171
▁unh	-9172
▁killings	-9173
▁elev	-9174
▁83	-9175
▁experiences	-9176
yang	-9177
▁Louisiana	-9178
▁ocean	-9179
▁taught	-9180
▁warnings	-9181
▁pollution	-9182
▁resistance	-9183
▁Opp	-9184
▁Emer	-9185
through	-9186
▁clashes	-9187
▁lapt	-9188
def	-9189
▁transm	-9190
▁Aber	-9191
▁decrease	-9192
▁indicate	-9193
▁17-	-9194
made	-9195
▁Masters	-9196
▁1.9	-9197
▁smugg	-9198
▁acted	-9199
anyahu	-9200
▁approve	-9201
▁unrest	-9202
▁soil	-9203
▁revel	-9204
▁Team	-9205
▁clar	-9206
▁probe	-9207
▁bowl	-9208
▁escal	-9209
▁dividend	-9210
▁Nigeria	-9211
▁Speaker	-9212
▁Nap	-9213
▁dub	-9214
▁Netanyahu	-9215
lights	-9216
▁Investig	-9217
▁Insurance	-9218
▁Merc	-9219
▁Jane	-9220
▁solo	-9221
▁Mort	-9222
▁crown	-9223
▁covers	-9224
▁Morris	-9225
▁disabled	-9226
▁toler	-9227
▁blocks	-9228
▁echo	-9229
▁maintenance	-9230
osa	-9231
▁Pope	-9232
▁Sav	-9233
▁explosives	-9234
RE	-9235
▁Pop	-9236
▁wore	-9237
▁qualify	-9238
▁ankle	-9239
▁spell	-9240
thirds	-9241
iffs	-9242
▁junior	-9243
▁proportion	-9244
▁Build	-9245
▁Pelosi	-9246
▁2-	-9247
▁dating	-9248
lu	-9249
▁sed	-9250
▁protecting	-9251
,5	-9252
▁Brussels	-9253
shot	-9254
▁2-0	-9255
stan	-9256
onic	-9257
▁alt	-9258
▁developments	-9259
▁moon	-9260
▁questioning	-9261
▁Chile	-9262
seeded	-9263
▁traged	-9264
atar	-9265
▁Islamist	-9266
▁Pay	-9267
▁Defence	-9268
▁4,000	-9269
▁spotted	-9270
▁projected	-9271
ippi	-9272
▁recognize	-9273
▁Jen	-9274
ibbean	-9275
▁invested	-9276
▁envoy	-9277
▁installed	-9278
▁realize	-9279
▁observers	-9280
▁await	-9281
▁Cy	-9282
▁Bristol	-9283
▁=	-9284
▁hosts	-9285
▁aer	-9286
▁Griff	-9287
▁triggered	-9288
▁Orlando	-9289
▁swept	-9290
▁techniques	-9291
▁celebrated	-9292
omed	-9293
▁Larry	-9294
iration	-9295
▁repeat	-9296
▁nort	-9297
▁transaction	-9298
▁enable	-9299
▁Freddie	-9300
▁disclosed	-9301
▁royal	-9302
▁pulling	-9303
▁mothers	-9304
▁tougher	-9305
▁CO	-9306
▁coinc	-9307
▁transferred	-9308
▁proof	-9309
▁spots	-9310
▁plate	-9311
▁rushed	-9312
anna	-9313
▁comeback	-9314
phone	-9315
ingu	-9316
▁Silver	-9317
▁entitled	-9318
▁Express	-9319
leading	-9320
ikes	-9321
▁awareness	-9322
▁traders	-9323
▁aide	-9324
▁memorial	-9325
kh	-9326
▁slowdown	-9327
ricts	-9328
▁cock	-9329
▁robbery	-9330
▁innovative	-9331
▁Eight	-9332
tic	-9333
inely	-9334
▁cauc	-9335
▁broadc	-9336
▁Verizon	-9337
▁interviewed	-9338
coni	-9339
▁troop	-9340
▁Kate	-9341
▁contribute	-9342
15	-9343
▁desk	-9344
erg	-9345
▁exception	-9346
▁suspension	-9347
▁Holl	-9348
▁retain	-9349
▁trends	-9350
▁constant	-9351
▁Simpson	-9352
▁purchased	-9353
▁Much	-9354
▁Dougl	-9355
▁embassy	-9356
▁rounds	-9357
▁sheet	-9358
▁lender	-9359
▁surely	-9360
oying	-9361
▁Wells	-9362
▁pipeline	-9363
ourne	-9364
▁philos	-9365
onald	-9366
▁consistent	-9367
▁landscape	-9368
▁provincial	-9369
tha	-9370
bel	-9371
▁ow	-9372
FA	-9373
▁theft	-9374
▁caut	-9375
▁Sheriff	-9376
rac	-9377
▁Hud	-9378
▁Charlie	-9379
iti	-9380
▁Dean	-9381
▁introduce	-9382
▁Chase	-9383
▁oldest	-9384
▁IMF	-9385
▁Nearly	-9386
▁legacy	-9387
▁Night	-9388
ture	-9389
finals	-9390
▁Syd	-9391
▁contacted	-9392
▁folks	-9393
▁Susan	-9394
▁nonprofit	-9395
▁undert	-9396
▁loud	-9397
▁admit	-9398
▁autumn	-9399
▁mo	-9400
▁astronaut	-9401
iang	-9402
▁impl	-9403
ye	-9404
▁Caribbean	-9405
person	-9406
iety	-9407
▁impose	-9408
▁exciting	-9409
▁privately	-9410
rific	-9411
▁Philip	-9412
▁Doct	-9413
▁chann	-9414
▁consolid	-9415
▁Neil	-9416
▁finals	-9417
▁192	-9418
▁intercept	-9419
▁Missouri	-9420
▁Leader	-9421
▁Len	-9422
▁UBS	-9423
▁thousand	-9424
▁purchases	-9425
▁comparison	-9426
▁pledge	-9427
▁freeze	-9428
▁tape	-9429
12	-9430
▁Protection	-9431
lad	-9432
▁Icel	-9433
▁surrounded	-9434
▁ignored	-9435
▁villages	-9436
▁involves	-9437
▁ourselves	-9438
▁Pen	-9439
elta	-9440
▁dies	-9441
▁Spr	-9442
▁treas	-9443
▁scrutiny	-9444
▁Arn	-9445
ardens	-9446
ima	-9447
▁addressed	-9448
▁Later	-9449
▁Iceland	-9450
▁annually	-9451
▁travelling	-9452
▁Wi	-9453
page	-9454
▁Nicolas	-9455
▁Victoria	-9456
▁Whether	-9457
▁14-	-9458
Ch	-9459
▁datab	-9460
▁persuade	-9461
eway	-9462
▁Girl	-9463
▁1-0	-9464
▁flash	-9465
▁hire	-9466
▁vacation	-9467
,0	-9468
▁containing	-9469
▁strengthen	-9470
▁nervous	-9471
▁teach	-9472
▁Roll	-9473
▁competitors	-9474
▁sophistic	-9475
▁chef	-9476
▁developers	-9477
▁raw	-9478
▁condemned	-9479
▁Leices	-9480
▁scre	-9481
▁Nobel	-9482
▁Control	-9483
▁presum	-9484
▁burned	-9485
▁Credit	-9486
▁proven	-9487
▁Maria	-9488
▁Should	-9489
osures	-9490
▁proceedings	-9491
▁breath	-9492
▁chat	-9493
▁Assist	-9494
▁Jews	-9495
▁Lanc	-9496
isive	-9497
ript	-9498
▁Laur	-9499
▁Fe	-9500
agg	-9501
▁fare	-9502
▁attitude	-9503
▁procedure	-9504
▁Arts	-9505
▁copies	-9506
▁Lanka	-9507
▁reconcil	-9508
▁attacking	-9509
▁Iraqis	-9510
▁Mumb	-9511
▁Governor	-9512
▁merch	-9513
▁penalties	-9514
▁reflected	-9515
▁1,500	-9516
▁Inf	-9517
▁Ted	-9518
▁subprime	-9519
▁burden	-9520
90	-9521
▁rand	-9522
▁Delta	-9523
ackers	-9524
▁swimming	-9525
▁killer	-9526
▁Thous	-9527
▁adequ	-9528
haw	-9529
esc	-9530
▁phen	-9531
▁HB	-9532
▁Nash	-9533
▁Sydney	-9534
rimination	-9535
▁terrible	-9536
▁Donald	-9537
▁Broadway	-9538
▁depth	-9539
▁Hous	-9540
▁ranging	-9541
▁Ple	-9542
mind	-9543
▁reject	-9544
minster	-9545
largest	-9546
issippi	-9547
aver	-9548
▁finishing	-9549
▁stone	-9550
▁funny	-9551
▁bip	-9552
▁chronic	-9553
▁Had	-9554
▁Madoff	-9555
▁Raj	-9556
▁balls	-9557
▁engage	-9558
▁Hussein	-9559
▁crimin	-9560
▁incentives	-9561
▁somewhere	-9562
▁Grant	-9563
▁beef	-9564
ument	-9565
▁senators	-9566
▁spac	-9567
▁Nat	-9568
▁adapt	-9569
▁singing	-9570
▁mountains	-9571
OX	-9572
▁racial	-9573
▁Fle	-9574
▁cos	-9575
▁thoughts	-9576
▁craft	-9577
▁subsidiary	-9578
▁caps	-9579
▁promoting	-9580
▁Ahmed	-9581
▁citizen	-9582
aron	-9583
▁utility	-9584
▁amazing	-9585
liest	-9586
▁employed	-9587
▁investigated	-9588
party	-9589
omic	-9590
▁ty	-9591
▁dying	-9592
▁periods	-9593
▁Click	-9594
lusconi	-9595
▁revised	-9596
▁successor	-9597
▁nav	-9598
▁shocked	-9599
▁soul	-9600
▁cope	-9601
▁Rodham	-9602
hall	-9603
▁Price	-9604
▁Meh	-9605
rator	-9606
▁landmark	-9607
▁Hurricane	-9608
▁brown	-9609
▁Berlusconi	-9610
▁personally	-9611
terror	-9612
▁Ap	-9613
▁tear	-9614
▁ce	-9615
▁debts	-9616
pace	-9617
▁intim	-9618
▁acceler	-9619
selling	-9620
▁hiring	-9621
cill	-9622
▁latter	-9623
dollar	-9624
▁0.3	-9625
▁Ju	-9626
▁blank	-9627
istent	-9628
▁ambul	-9629
gate	-9630
aults	-9631
▁treatments	-9632
▁lung	-9633
onsin	-9634
▁Brun	-9635
▁liquidity	-9636
▁Emb	-9637
▁scrap	-9638
▁accompanied	-9639
▁focusing	-9640
▁Bernard	-9641
▁Common	-9642
▁conventional	-9643
▁seeks	-9644
▁CC	-9645
aping	-9646
▁afraid	-9647
▁distinct	-9648
▁Tech	-9649
▁Pass	-9650
▁Unlike	-9651
aning	-9652
▁Horn	-9653
▁reflects	-9654
▁Wisc	-9655
▁devastating	-9656
MI	-9657
▁Cust	-9658
▁2.3	-9659
▁Mumbai	-9660
iy	-9661
▁burning	-9662
▁Sot	-9663
▁Call	-9664
▁crowds	-9665
▁carriers	-9666
▁shore	-9667
▁disappointing	-9668
ivan	-9669
▁Eag	-9670
gged	-9671
▁6-2	-9672
▁reluctant	-9673
▁Bryant	-9674
▁vs	-9675
▁Following	-9676
▁Swedish	-9677
▁hosted	-9678
▁Hundred	-9679
▁operated	-9680
▁influential	-9681
▁Insp	-9682
oning	-9683
▁stance	-9684
▁Kaz	-9685
▁1988	-9686
irm	-9687
▁negotiating	-9688
▁Douglas	-9689
45	-9690
▁painting	-9691
bec	-9692
▁Airways	-9693
▁Serbia	-9694
▁Mississippi	-9695
▁sectors	-9696
▁tribute	-9697
▁sustainable	-9698
▁Beat	-9699
father	-9700
▁assume	-9701
▁closure	-9702
▁email	-9703
▁Lloyds	-9704
▁cup	-9705
ifications	-9706
▁25-	-9707
▁minds	-9708
▁valid	-9709
▁borders	-9710
Mart	-9711
▁Windows	-9712
▁challenged	-9713
lif	-9714
▁rescued	-9715
▁Bart	-9716
▁Albert	-9717
▁educational	-9718
▁foreclosure	-9719
empl	-9720
▁Lam	-9721
▁testified	-9722
▁Wisconsin	-9723
▁Wolf	-9724
▁donors	-9725
▁Commissioner	-9726
▁LA	-9727
▁Peace	-9728
▁conclusion	-9729
▁Deputy	-9730
▁Slo	-9731
▁experiment	-9732
▁excited	-9733
▁Cooper	-9734
▁Base	-9735
▁licens	-9736
▁earning	-9737
▁luck	-9738
▁frequent	-9739
▁deposits	-9740
▁Lane	-9741
▁fert	-9742
▁Reagan	-9743
▁hors	-9744
▁divers	-9745
▁everywhere	-9746
▁pill	-9747
▁enrich	-9748
▁gotten	-9749
▁stup	-9750
▁Environmental	-9751
▁depending	-9752
▁trem	-9753
▁tradem	-9754
▁sentiment	-9755
ested	-9756
jection	-9757
▁contractors	-9758
▁smooth	-9759
perform	-9760
▁sessions	-9761
▁delivering	-9762
▁Poll	-9763
▁ingred	-9764
▁polling	-9765
aimed	-9766
▁spectacular	-9767
▁subsequent	-9768
▁victories	-9769
▁temperature	-9770
▁denies	-9771
▁Cond	-9772
▁meters	-9773
▁convert	-9774
▁Zel	-9775
▁drinks	-9776
▁offshore	-9777
AF	-9778
▁Jamie	-9779
▁Walker	-9780
wear	-9781
▁imports	-9782
ken	-9783
▁coaches	-9784
▁Unf	-9785
▁authors	-9786
▁Tan	-9787
▁versus	-9788
▁mainstream	-9789
▁Hend	-9790
serv	-9791
▁Twenty	-9792
▁Petro	-9793
▁cargo	-9794
▁Ports	-9795
▁Entertain	-9796
▁stir	-9797
▁overtime	-9798
▁Warren	-9799
▁authorized	-9800
▁EC	-9801
▁pir	-9802
▁bullet	-9803
▁Vick	-9804
▁rises	-9805
▁wreck	-9806
▁defendants	-9807
▁fires	-9808
▁Cheney	-9809
▁cloud	-9810
▁loose	-9811
▁Prize	-9812
▁Ra	-9813
▁principles	-9814
▁clock	-9815
▁overd	-9816
lett	-9817
▁Barbara	-9818
▁FTSE	-9819
▁solve	-9820
▁Transportation	-9821
▁Turner	-9822
▁11-	-9823
▁pron	-9824
▁publication	-9825
▁Parker	-9826
▁Hor	-9827
▁Revenue	-9828
zb	-9829
rets	-9830
▁fake	-9831
▁phr	-9832
icked	-9833
▁Benn	-9834
▁contemporary	-9835
elli	-9836
▁somehow	-9837
▁tragedy	-9838
▁Thousands	-9839
▁insurgency	-9840
AD	-9841
▁channels	-9842
▁Baker	-9843
▁defl	-9844
▁hanging	-9845
▁explains	-9846
▁Wimb	-9847
▁plunged	-9848
▁thorough	-9849
▁2.4	-9850
▁torn	-9851
addam	-9852
▁4.5	-9853
▁Celtic	-9854
oa	-9855
▁playoffs	-9856
intend	-9857
▁suppliers	-9858
▁Low	-9859
▁boyfriend	-9860
▁13-	-9861
▁89	-9862
▁library	-9863
▁compound	-9864
▁considerable	-9865
▁shareholder	-9866
▁Farm	-9867
▁memories	-9868
rystal	-9869
▁midfielder	-9870
▁neighboring	-9871
ledon	-9872
▁Hundreds	-9873
▁defined	-9874
▁Jimmy	-9875
▁renewable	-9876
▁pand	-9877
▁Clem	-9878
▁Bron	-9879
▁Laden	-9880
aly	-9881
▁Fisher	-9882
eva	-9883
▁rhet	-9884
▁indictment	-9885
▁negotiate	-9886
▁courses	-9887
▁Robin	-9888
▁pilots	-9889
▁Hawaii	-9890
▁Perry	-9891
▁clash	-9892
▁highway	-9893
arted	-9894
▁emerge	-9895
▁interior	-9896
eting	-9897
▁diox	-9898
▁districts	-9899
▁conservation	-9900
▁schemes	-9901
ayor	-9902
ilder	-9903
km	-9904
▁fract	-9905
▁Ur	-9906
▁underlying	-9907
▁riding	-9908
▁fulf	-9909
▁decent	-9910
▁studying	-9911
▁Collins	-9912
▁crossing	-9913
▁lifestyle	-9914
▁attached	-9915
▁skept	-9916
▁Jerry	-9917
▁poison	-9918
▁suspicious	-9919
▁boxes	-9920
gage	-9921
▁northwest	-9922
▁punishment	-9923
▁attribut	-9924
▁Jerem	-9925
▁sorry	-9926
▁Egyptian	-9927
▁Singh	-9928
▁shoppers	-9929
60	-9930
▁picking	-9931
cia	-9932
▁automaker	-9933
▁requiring	-9934
▁Stu	-9935
▁Medicine	-9936
▁activist	-9937
inge	-9938
▁LLC	-9939
▁converted	-9940
▁analy	-9941
▁Han	-9942
▁Garden	-9943
▁painful	-9944
VER	-9945
▁strange	-9946
▁noting	-9947
▁deeper	-9948
ocolate	-9949
▁rolled	-9950
atican	-9951
▁foods	-9952
▁recovering	-9953
▁Bah	-9954
itched	-9955
▁argues	-9956
▁doubts	-9957
oice	-9958
▁communist	-9959
▁bust	-9960
render	-9961
▁practical	-9962
▁Wimbledon	-9963
▁context	-9964
▁qualifying	-9965
▁SP	-9966
▁vessel	-9967
RI	-9968
roc	-9969
▁frozen	-9970
▁Change	-9971
▁announcing	-9972
▁manufacturer	-9973
▁Va	-9974
▁Anne	-9975
▁routes	-9976
▁gym	-9977
▁pricing	-9978
▁Pers	-9979
▁Constitution	-9980
eria	-9981
▁annum	-9982
▁preced	-9983
ographic	-9984
ilateral	-9985
orate	-9986
▁audiences	-9987
▁random	-9988
▁drag	-9989
ithner	-9990
▁careful	-9991
▁Film	-9992
▁demonstrated	-9993
▁purposes	-9994
iere	-9995
▁Vatican	-9996
▁programmes	-9997
▁enthusi	-9998
▁Coach	-9999
▁Sport	-10000
▁clinic	-10001
▁Arkansas	-10002
▁accurate	-10003
▁Interior	-10004
▁Row	-10005
▁OK	-10006
▁Maj	-10007
▁Further	-10008
heastern	-10009
▁lists	-10010
▁battery	-10011
▁collision	-10012
▁21-	-10013
ongyang	-10014
▁marijuana	-10015
▁250,000	-10016
▁Budget	-10017
estone	-10018
▁associate	-10019
▁Geithner	-10020
▁Keith	-10021
▁Entertainment	-10022
▁midnight	-10023
▁misc	-10024
-11	-10025
▁Juan	-10026
▁Seven	-10027
▁mad	-10028
income	-10029
▁bone	-10030
▁insurers	-10031
▁Glob	-10032
▁underground	-10033
▁demonstrations	-10034
▁Belf	-10035
▁melt	-10036
▁declining	-10037
rous	-10038
▁dynam	-10039
ints	-10040
▁Chad	-10041
▁destination	-10042
onia	-10043
rupted	-10044
▁UA	-10045
▁19-	-10046
▁illustr	-10047
ourse	-10048
▁credits	-10049
rities	-10050
▁sexually	-10051
ongh	-10052
▁Pyongyang	-10053
lock	-10054
▁launching	-10055
ulpt	-10056
▁Bes	-10057
▁experim	-10058
▁Cad	-10059
arms	-10060
▁mun	-10061
inch	-10062
▁Saddam	-10063
▁Schwar	-10064
▁realized	-10065
▁campaigning	-10066
▁Station	-10067
▁Westminster	-10068
▁bottle	-10069
oser	-10070
▁Adams	-10071
▁somebody	-10072
▁Hezb	-10073
▁Tax	-10074
thur	-10075
▁exha	-10076
▁overturn	-10077
▁troubles	-10078
▁SU	-10079
king	-10080
▁Austria	-10081
▁riot	-10082
▁Bened	-10083
▁transactions	-10084
▁bread	-10085
▁40,000	-10086
bound	-10087
▁expertise	-10088
▁Metro	-10089
▁Travel	-10090
mother	-10091
▁Lawrence	-10092
▁Stevens	-10093
iors	-10094
▁Jes	-10095
▁perfectly	-10096
▁Mous	-10097
▁Current	-10098
▁absor	-10099
EP	-10100
iop	-10101
umbling	-10102
razy	-10103
▁inmates	-10104
▁refugees	-10105
▁samples	-10106
cies	-10107
▁Mountain	-10108
▁breakfast	-10109
▁Freed	-10110
▁Rail	-10111
▁Gab	-10112
▁indication	-10113
▁ID	-10114
esity	-10115
▁IR	-10116
▁gest	-10117
▁guaranteed	-10118
▁Rac	-10119
▁Jennifer	-10120
▁Representatives	-10121
▁venue	-10122
▁declar	-10123
▁offenders	-10124
▁BP	-10125
▁Beckham	-10126
▁bike	-10127
▁2020	-10128
▁illegally	-10129
▁robust	-10130
▁highlighted	-10131
▁tempor	-10132
▁pione	-10133
▁inaug	-10134
▁Neither	-10135
▁unt	-10136
▁Front	-10137
▁Patriots	-10138
70	-10139
▁goalk	-10140
▁salt	-10141
▁monetary	-10142
▁segment	-10143
▁Gay	-10144
▁See	-10145
▁parks	-10146
▁wage	-10147
▁rice	-10148
▁oppose	-10149
ienn	-10150
▁Vik	-10151
▁letting	-10152
athon	-10153
▁shelter	-10154
▁GP	-10155
▁Early	-10156
▁coastal	-10157
▁Portsmouth	-10158
▁scholars	-10159
▁0.4	-10160
▁commanders	-10161
lington	-10162
▁breach	-10163
▁Fal	-10164
▁nose	-10165
▁liked	-10166
mert	-10167
▁consulting	-10168
▁organic	-10169
aka	-10170
▁Gun	-10171
▁Schwarz	-10172
▁Hans	-10173
▁kinds	-10174
▁headlines	-10175
▁Fav	-10176
▁labour	-10177
▁innovation	-10178
▁Davies	-10179
▁Vanc	-10180
▁notion	-10181
▁Workers	-10182
acted	-10183
otte	-10184
▁Jets	-10185
▁stabbed	-10186
ocation	-10187
▁disappoint	-10188
dles	-10189
▁rebound	-10190
uccess	-10191
▁stupid	-10192
▁passage	-10193
▁hunt	-10194
arents	-10195
▁raises	-10196
▁reun	-10197
▁feelings	-10198
iciary	-10199
face	-10200
▁Imp	-10201
▁wages	-10202
▁traveled	-10203
▁perspective	-10204
▁fitness	-10205
▁chicken	-10206
▁Hal	-10207
▁listening	-10208
▁cow	-10209
▁fierce	-10210
ighting	-10211
▁soaring	-10212
▁stunning	-10213
▁celebration	-10214
▁2.7	-10215
ouver	-10216
▁Helmand	-10217
▁Watson	-10218
▁Cas	-10219
▁mild	-10220
▁grade	-10221
▁bure	-10222
▁boards	-10223
feld	-10224
▁outf	-10225
▁principle	-10226
▁holidays	-10227
▁imprison	-10228
▁Unfortunately	-10229
atri	-10230
▁subsidies	-10231
▁rang	-10232
▁perce	-10233
▁Metropolitan	-10234
▁blaze	-10235
▁stead	-10236
▁deemed	-10237
▁saves	-10238
▁consideration	-10239
▁prevented	-10240
▁achievement	-10241
mir	-10242
EG	-10243
▁gent	-10244
▁staged	-10245
▁tired	-10246
▁sweeping	-10247
astrop	-10248
unal	-10249
▁buyer	-10250
▁pregnancy	-10251
▁nominated	-10252
▁wound	-10253
▁scientist	-10254
▁RBS	-10255
▁reviews	-10256
▁Portugal	-10257
▁visible	-10258
▁difficulty	-10259
orer	-10260
▁enhance	-10261
▁Hezbollah	-10262
▁substance	-10263
asty	-10264
▁distributed	-10265
.99	-10266
▁describes	-10267
gom	-10268
▁throws	-10269
▁dioxide	-10270
▁generations	-10271
ION	-10272
▁Tam	-10273
▁shipping	-10274
▁ridic	-10275
abs	-10276
othy	-10277
▁rallied	-10278
▁noise	-10279
▁6-	-10280
▁Zh	-10281
▁appealing	-10282
▁Belfast	-10283
▁Kurdish	-10284
low	-10285
▁meals	-10286
▁oversight	-10287
▁guitar	-10288
▁economics	-10289
▁Communications	-10290
atched	-10291
▁nom	-10292
▁predecessor	-10293
▁aspects	-10294
▁Stone	-10295
▁92	-10296
▁buck	-10297
▁nic	-10298
▁eggs	-10299
▁Georgian	-10300
kee	-10301
▁eliminate	-10302
▁Paulson	-10303
▁employer	-10304
▁Islamabad	-10305
▁dealt	-10306
▁swift	-10307
▁broadband	-10308
ja	-10309
▁prescription	-10310
aying	-10311
▁gunmen	-10312
▁petition	-10313
▁crossed	-10314
annie	-10315
Gen	-10316
▁Lut	-10317
▁Move	-10318
anches	-10319
▁Queens	-10320
▁provisions	-10321
▁neut	-10322
ete	-10323
▁Pear	-10324
▁ultimate	-10325
▁Universal	-10326
▁drilling	-10327
▁canceled	-10328
orld	-10329
▁surrender	-10330
▁silence	-10331
▁speaker	-10332
▁Vancouver	-10333
▁chip	-10334
cot	-10335
▁impression	-10336
▁travelers	-10337
▁electronics	-10338
▁buzz	-10339
rition	-10340
essing	-10341
▁cream	-10342
igious	-10343
▁adjusted	-10344
▁Ped	-10345
▁triple	-10346
▁anybody	-10347
▁Rud	-10348
▁waves	-10349
▁Bra	-10350
▁1979	-10351
▁stops	-10352
▁93	-10353
▁Hope	-10354
▁Wy	-10355
▁Benedict	-10356
▁criminals	-10357
▁investing	-10358
▁sophisticated	-10359
▁hybrid	-10360
▁Cuban	-10361
▁900	-10362
▁sells	-10363
▁toil	-10364
▁pointing	-10365
▁Inn	-10366
▁execution	-10367
▁sail	-10368
mith	-10369
▁JPM	-10370
▁cooking	-10371
▁versions	-10372
ocated	-10373
▁Lama	-10374
▁posed	-10375
▁Run	-10376
▁explanation	-10377
▁CIT	-10378
▁Look	-10379
▁lineup	-10380
gt	-10381
▁traditionally	-10382
▁Yang	-10383
bourne	-10384
▁Non	-10385
▁Polish	-10386
▁gri	-10387
▁shirt	-10388
▁Notting	-10389
▁shall	-10390
▁tension	-10391
▁voter	-10392
▁fool	-10393
usive	-10394
eling	-10395
▁Tit	-10396
▁Hung	-10397
▁wounds	-10398
▁disturb	-10399
▁Investment	-10400
adesh	-10401
member	-10402
▁duties	-10403
▁Communist	-10404
dd	-10405
▁96	-10406
▁regardless	-10407
urse	-10408
▁Po	-10409
▁130	-10410
▁2.1	-10411
▁Ward	-10412
▁damages	-10413
▁arriving	-10414
▁fest	-10415
▁temporarily	-10416
▁margins	-10417
▁checked	-10418
rics	-10419
▁mph	-10420
▁damaging	-10421
▁existence	-10422
fers	-10423
▁intends	-10424
▁discrimination	-10425
▁prosper	-10426
▁pressing	-10427
▁resum	-10428
▁mini	-10429
▁sued	-10430
▁legally	-10431
▁grants	-10432
▁strengthe	-10433
▁lifetime	-10434
▁slip	-10435
▁packages	-10436
▁interven	-10437
asks	-10438
▁Thai	-10439
des	-10440
▁Wol	-10441
▁140	-10442
ype	-10443
▁files	-10444
▁rif	-10445
▁lect	-10446
▁islands	-10447
▁Nort	-10448
▁plain	-10449
▁slide	-10450
▁exploded	-10451
▁mud	-10452
▁arrangements	-10453
fund	-10454
▁operational	-10455
▁Thomson	-10456
jan	-10457
▁inher	-10458
▁deciding	-10459
▁asks	-10460
▁risky	-10461
heimer	-10462
▁violations	-10463
▁tar	-10464
▁websites	-10465
pts	-10466
duction	-10467
▁costly	-10468
▁Olmert	-10469
▁brutal	-10470
▁signals	-10471
▁confron	-10472
found	-10473
▁strategies	-10474
▁regulator	-10475
OW	-10476
inces	-10477
▁Kings	-10478
charg	-10479
▁Montgom	-10480
▁sculpt	-10481
▁subjects	-10482
▁dish	-10483
▁grip	-10484
▁philosoph	-10485
eli	-10486
handed	-10487
▁presentation	-10488
▁participation	-10489
▁Crist	-10490
▁avoided	-10491
▁tob	-10492
▁charter	-10493
▁decor	-10494
rina	-10495
uzz	-10496
▁Critics	-10497
▁pose	-10498
▁rolling	-10499
▁offences	-10500
▁legitimate	-10501
▁smile	-10502
▁ED	-10503
▁22-	-10504
▁desc	-10505
▁script	-10506
▁personality	-10507
hop	-10508
▁5-	-10509
▁Seoul	-10510
evision	-10511
Mal	-10512
▁Dalai	-10513
▁immun	-10514
luding	-10515
▁Totten	-10516
▁rookie	-10517
▁Members	-10518
▁grabbed	-10519
▁spur	-10520
store	-10521
▁sher	-10522
▁sweep	-10523
▁Intelligence	-10524
angir	-10525
▁Steel	-10526
▁Fannie	-10527
▁prompting	-10528
▁Federation	-10529
▁horses	-10530
▁Index	-10531
▁sentences	-10532
▁reliable	-10533
▁colleague	-10534
▁voluntary	-10535
▁tonnes	-10536
▁McDonald	-10537
▁hub	-10538
▁dimin	-10539
▁Rafael	-10540
▁celebrities	-10541
▁charging	-10542
▁battles	-10543
▁engineer	-10544
▁toss	-10545
▁Bren	-10546
▁wholes	-10547
▁factories	-10548
-12	-10549
▁engines	-10550
▁190	-10551
▁sporting	-10552
▁porn	-10553
ouses	-10554
▁secondary	-10555
▁sole	-10556
▁Ill	-10557
▁isolated	-10558
▁march	-10559
▁appearing	-10560
HA	-10561
▁Mas	-10562
▁math	-10563
▁graph	-10564
▁urgent	-10565
▁Strip	-10566
▁bedroom	-10567
▁Sgt	-10568
▁chaos	-10569
▁roots	-10570
▁sacrif	-10571
▁frustration	-10572
but	-10573
▁Private	-10574
▁businessman	-10575
vation	-10576
▁lad	-10577
▁Reds	-10578
▁butter	-10579
▁joy	-10580
▁Policy	-10581
▁imper	-10582
piece	-10583
▁luc	-10584
▁Cancer	-10585
▁explosive	-10586
▁boats	-10587
▁establishment	-10588
▁chart	-10589
▁hill	-10590
▁Palace	-10591
▁manip	-10592
▁haz	-10593
imited	-10594
▁Sometimes	-10595
▁Mae	-10596
▁Aaron	-10597
▁bell	-10598
▁preserve	-10599
udes	-10600
▁introduction	-10601
▁Sat	-10602
▁reception	-10603
▁Stuart	-10604
▁organisations	-10605
▁Mars	-10606
▁catastrop	-10607
nan	-10608
▁Everyone	-10609
▁Merkel	-10610
▁accusing	-10611
▁catal	-10612
▁97	-10613
▁Convention	-10614
▁veto	-10615
▁infected	-10616
▁sty	-10617
▁alarm	-10618
▁2.6	-10619
▁teens	-10620
▁pharmaceutical	-10621
▁hij	-10622
▁Vlad	-10623
▁boosted	-10624
berry	-10625
▁shake	-10626
▁mol	-10627
▁mandate	-10628
▁Tibetan	-10629
▁wildlife	-10630
▁Employ	-10631
▁Somali	-10632
▁undermin	-10633
▁Armstrong	-10634
▁discussing	-10635
▁medication	-10636
▁Pict	-10637
▁Leeds	-10638
▁Tsv	-10639
▁300,000	-10640
▁Richardson	-10641
▁bacter	-10642
▁tobacco	-10643
▁reductions	-10644
▁Banks	-10645
erto	-10646
▁Aren	-10647
▁disrupt	-10648
▁restored	-10649
▁Fat	-10650
fare	-10651
▁Kerry	-10652
▁comed	-10653
screen	-10654
▁seemingly	-10655
▁wis	-10656
▁Dor	-10657
▁Fut	-10658
▁hydro	-10659
▁engineers	-10660
itate	-10661
▁portra	-10662
▁sits	-10663
inated	-10664
▁reconciliation	-10665
TC	-10666
▁declines	-10667
Star	-10668
▁bloc	-10669
.25	-10670
▁Budd	-10671
▁closest	-10672
friendly	-10673
▁processing	-10674
▁Ton	-10675
▁plum	-10676
▁refusing	-10677
▁opener	-10678
▁waited	-10679
▁gear	-10680
▁answered	-10681
▁tears	-10682
▁hearings	-10683
▁fing	-10684
▁guarantees	-10685
eps	-10686
▁Cher	-10687
▁Hind	-10688
▁poet	-10689
▁hug	-10690
oli	-10691
aus	-10692
▁excessive	-10693
▁organised	-10694
▁Hondur	-10695
▁lod	-10696
otive	-10697
▁Josh	-10698
▁overt	-10699
▁occupied	-10700
▁bottles	-10701
▁volatile	-10702
▁Cinc	-10703
▁colour	-10704
▁treating	-10705
▁cheer	-10706
▁tang	-10707
..	-10708
▁Tottenham	-10709
▁Alban	-10710
▁sin	-10711
▁reign	-10712
theless	-10713
▁1.0	-10714
▁singles	-10715
▁soccer	-10716
▁Conf	-10717
▁developer	-10718
eath	-10719
▁meal	-10720
▁Dj	-10721
▁severely	-10722
Bay	-10723
aria	-10724
inary	-10725
▁inevitable	-10726
▁jobless	-10727
▁50-	-10728
▁Bad	-10729
▁runner	-10730
▁errors	-10731
wind	-10732
▁peacek	-10733
▁pa	-10734
▁examined	-10735
▁consultation	-10736
▁buses	-10737
▁devoted	-10738
-200	-10739
ishers	-10740
▁Dream	-10741
▁Tsvangir	-10742
▁shield	-10743
omach	-10744
▁cub	-10745
▁demonstrate	-10746
leg	-10747
enter	-10748
▁frame	-10749
▁furniture	-10750
▁bold	-10751
▁Rooney	-10752
BM	-10753
ski	-10754
▁Tsvangirai	-10755
▁administrative	-10756
▁bureauc	-10757
▁cautious	-10758
izer	-10759
uration	-10760
▁examination	-10761
▁25,000	-10762
▁centres	-10763
▁cruise	-10764
▁Reform	-10765
▁diamond	-10766
▁Natural	-10767
▁preventing	-10768
▁snap	-10769
▁Dennis	-10770
▁depends	-10771
▁Pad	-10772
▁pink	-10773
▁inject	-10774
▁motorcy	-10775
▁Agr	-10776
▁Clear	-10777
innati	-10778
LAN	-10779
▁Exc	-10780
▁Hat	-10781
▁workforce	-10782
▁counties	-10783
▁notably	-10784
▁Bangl	-10785
▁Zelaya	-10786
▁Norway	-10787
▁Tob	-10788
▁Gibbs	-10789
▁mate	-10790
▁Spears	-10791
▁forum	-10792
▁uncertainties	-10793
▁hiding	-10794
▁lined	-10795
yers	-10796
▁Danny	-10797
▁globe	-10798
▁mounting	-10799
▁Cincinnati	-10800
▁obsc	-10801
breaking	-10802
tax	-10803
▁lesson	-10804
▁restrict	-10805
▁vit	-10806
.50	-10807
▁starring	-10808
▁handled	-10809
▁#	-10810
▁Have	-10811
▁goalkeeper	-10812
▁constantly	-10813
▁Justin	-10814
▁transpl	-10815
▁Indians	-10816
▁beneath	-10817
▁shame	-10818
▁muscle	-10819
▁examine	-10820
▁promotion	-10821
▁scan	-10822
otes	-10823
▁evolution	-10824
▁fo	-10825
▁Benj	-10826
▁blew	-10827
▁Notes	-10828
iley	-10829
▁disagre	-10830
▁inquest	-10831
▁Castro	-10832
▁foreigners	-10833
▁emotion	-10834
▁touched	-10835
▁diverse	-10836
▁Xinhua	-10837
▁gender	-10838
▁meets	-10839
▁tracking	-10840
▁94	-10841
jud	-10842
opard	-10843
▁Congo	-10844
▁delighted	-10845
▁immune	-10846
▁tempt	-10847
earchers	-10848
▁98	-10849
▁ratio	-10850
▁fab	-10851
▁cycl	-10852
▁farms	-10853
▁scream	-10854
▁Cambridge	-10855
▁span	-10856
▁Would	-10857
▁HS	-10858
mails	-10859
▁commodity	-10860
▁researcher	-10861
▁posting	-10862
▁Laura	-10863
▁button	-10864
ls	-10865
▁Anyone	-10866
▁anxiety	-10867
▁Sac	-10868
▁fantastic	-10869
▁hammer	-10870
▁Stein	-10871
▁Sin	-10872
▁Bobby	-10873
▁OF	-10874
▁6-1	-10875
▁180	-10876
▁Fact	-10877
▁Idol	-10878
▁Almost	-10879
▁proceeds	-10880
▁Television	-10881
▁Hudson	-10882
onduct	-10883
imir	-10884
▁curb	-10885
▁shell	-10886
▁technique	-10887
▁spreading	-10888
▁Investigators	-10889
▁elabor	-10890
ranked	-10891
▁Marshall	-10892
ori	-10893
▁Pu	-10894
▁pact	-10895
▁exempt	-10896
▁database	-10897
▁Shah	-10898
▁Quest	-10899
▁salaries	-10900
▁91	-10901
▁chocolate	-10902
▁gallery	-10903
▁spo	-10904
▁stomach	-10905
vo	-10906
▁Cold	-10907
cribed	-10908
▁MD	-10909
▁harass	-10910
speed	-10911
▁pitched	-10912
▁fighter	-10913
▁Climate	-10914
▁Yesterday	-10915
▁bipart	-10916
▁Nottingham	-10917
▁breakthrough	-10918
▁Corps	-10919
▁optimism	-10920
▁Todd	-10921
▁rhetoric	-10922
teen	-10923
▁surveyed	-10924
ellers	-10925
▁nursing	-10926
▁bio	-10927
▁Resc	-10928
▁referee	-10929
▁ON	-10930
▁hunting	-10931
rien	-10932
▁15,000	-10933
▁pride	-10934
▁Line	-10935
oker	-10936
▁pays	-10937
▁spiritual	-10938
▁consistently	-10939
icipal	-10940
▁convince	-10941
▁23-	-10942
▁thro	-10943
▁spotlight	-10944
▁semif	-10945
▁strongest	-10946
▁neighborhoods	-10947
▁incorpor	-10948
▁nick	-10949
▁epic	-10950
osex	-10951
▁Knight	-10952
▁crowded	-10953
▁Reporting	-10954
▁vary	-10955
▁judicial	-10956
▁measured	-10957
▁privile	-10958
▁debris	-10959
▁explore	-10960
▁hurricane	-10961
▁unity	-10962
▁fet	-10963
▁flav	-10964
▁rear	-10965
▁honour	-10966
▁Campaign	-10967
▁departments	-10968
▁intimid	-10969
▁parade	-10970
▁110	-10971
▁grave	-10972
▁fisher	-10973
▁roadside	-10974
▁wet	-10975
▁Amb	-10976
▁drives	-10977
▁acquire	-10978
sized	-10979
▁connections	-10980
▁4-	-10981
onder	-10982
▁lasted	-10983
▁reh	-10984
▁Aberde	-10985
▁frustrated	-10986
▁Freedom	-10987
▁iPod	-10988
▁corporations	-10989
▁intellectual	-10990
ushing	-10991
dri	-10992
▁speaks	-10993
▁Ye	-10994
leum	-10995
▁Austin	-10996
▁budgets	-10997
▁Manuel	-10998
▁ambulance	-10999
▁Gore	-11000
▁signature	-11001
▁capabilities	-11002
▁Cu	-11003
▁touchdowns	-11004
▁extremists	-11005
▁militia	-11006
▁obligations	-11007
▁instrument	-11008
▁genuine	-11009
▁violated	-11010
▁Duncan	-11011
▁Hit	-11012
▁renov	-11013
▁fel	-11014
▁walks	-11015
▁Contin	-11016
▁Buzz	-11017
▁modified	-11018
▁vessels	-11019
▁anch	-11020
▁starter	-11021
▁panic	-11022
▁reconst	-11023
mal	-11024
▁joke	-11025
▁entrance	-11026
ppy	-11027
iped	-11028
anim	-11029
▁Finally	-11030
▁Gro	-11031
▁obesity	-11032
▁Fish	-11033
▁mutual	-11034
▁191	-11035
▁Walter	-11036
ullivan	-11037
▁Fernando	-11038
.30	-11039
▁soci	-11040
aturally	-11041
▁JPMorgan	-11042
▁confirmation	-11043
▁councils	-11044
▁diplomat	-11045
▁dancing	-11046
▁youngest	-11047
▁toys	-11048
▁centuries	-11049
▁fined	-11050
▁kidnapping	-11051
ught	-11052
▁Mother	-11053
▁tables	-11054
▁delegation	-11055
▁gifts	-11056
▁battling	-11057
▁chamber	-11058
▁awaiting	-11059
▁kilometers	-11060
viously	-11061
elle	-11062
▁tale	-11063
▁deposit	-11064
▁3-1	-11065
▁Dig	-11066
▁medals	-11067
▁cous	-11068
aukee	-11069
sharing	-11070
▁flowers	-11071
giving	-11072
stage	-11073
▁regret	-11074
▁trim	-11075
▁residence	-11076
▁NCAA	-11077
▁Relations	-11078
▁occasionally	-11079
▁Theat	-11080
dam	-11081
orge	-11082
▁Oakland	-11083
▁exploration	-11084
▁slowing	-11085
▁coaching	-11086
zes	-11087
▁peers	-11088
▁extrad	-11089
▁gaining	-11090
▁scenario	-11091
▁Bou	-11092
▁bulk	-11093
▁heating	-11094
amble	-11095
uten	-11096
.00	-11097
▁suburban	-11098
▁09	-11099
▁None	-11100
▁Total	-11101
▁Honda	-11102
▁occasions	-11103
▁decreased	-11104
▁resolved	-11105
host	-11106
▁grim	-11107
▁requirement	-11108
▁Trop	-11109
▁Emirates	-11110
▁relating	-11111
AGO	-11112
▁disclosure	-11113
▁theatre	-11114
▁pressures	-11115
▁publisher	-11116
▁shortage	-11117
▁Scientists	-11118
▁golden	-11119
stitutes	-11120
gging	-11121
hit	-11122
▁priorities	-11123
▁publishing	-11124
▁Vin	-11125
▁resur	-11126
▁fortune	-11127
▁easing	-11128
▁1984	-11129
AAP	-11130
▁twe	-11131
TO	-11132
▁ambitions	-11133
▁Led	-11134
top	-11135
▁metres	-11136
▁admits	-11137
▁0.6	-11138
waukee	-11139
▁upgr	-11140
▁bloody	-11141
▁circle	-11142
deg	-11143
▁Powell	-11144
▁expend	-11145
▁availability	-11146
▁produces	-11147
▁CHIC	-11148
▁proc	-11149
▁Croat	-11150
▁Belgium	-11151
mel	-11152
▁bot	-11153
▁Capello	-11154
▁commodities	-11155
▁Clarke	-11156
▁Friends	-11157
▁Short	-11158
▁assured	-11159
▁Mess	-11160
▁Buffalo	-11161
▁commitments	-11162
▁romantic	-11163
▁AA	-11164
▁twin	-11165
▁Marines	-11166
▁nurse	-11167
▁movements	-11168
▁championships	-11169
▁formerly	-11170
parts	-11171
▁revol	-11172
▁visual	-11173
▁teeth	-11174
▁Islands	-11175
▁Serge	-11176
billion	-11177
▁Garcia	-11178
▁Small	-11179
▁violation	-11180
▁assassination	-11181
▁Ak	-11182
▁bump	-11183
wa	-11184
bat	-11185
rae	-11186
children	-11187
▁instant	-11188
▁Charlotte	-11189
▁enterprise	-11190
boys	-11191
▁generous	-11192
▁wanting	-11193
▁Sel	-11194
▁Jesus	-11195
▁sheriff	-11196
▁Derby	-11197
▁Electric	-11198
▁displaced	-11199
▁Intel	-11200
▁Brand	-11201
▁presidents	-11202
rington	-11203
onies	-11204
▁CHICAGO	-11205
▁uncon	-11206
▁Engine	-11207
▁chemicals	-11208
▁lun	-11209
▁Crow	-11210
▁weaker	-11211
▁resource	-11212
del	-11213
▁Owen	-11214
▁Lebanese	-11215
▁gig	-11216
▁Mobile	-11217
▁volunteer	-11218
▁Holdings	-11219
▁Building	-11220
▁Third	-11221
iband	-11222
▁clim	-11223
urches	-11224
egu	-11225
▁electrical	-11226
▁40-	-11227
borough	-11228
▁Margaret	-11229
▁maintaining	-11230
tershire	-11231
▁Nazi	-11232
▁Ethiop	-11233
▁Alf	-11234
▁Tes	-11235
sche	-11236
▁Lauren	-11237
▁Researchers	-11238
▁Ful	-11239
▁Bail	-11240
▁NOT	-11241
▁negl	-11242
tail	-11243
▁Winter	-11244
▁courage	-11245
▁Side	-11246
▁Industry	-11247
▁replacing	-11248
▁categories	-11249
▁profitable	-11250
▁Bat	-11251
▁pitcher	-11252
▁retreat	-11253
▁0.7	-11254
▁Sut	-11255
▁lucrative	-11256
▁ignore	-11257
▁bout	-11258
▁1930	-11259
▁promoted	-11260
ista	-11261
▁Hon	-11262
oved	-11263
▁absent	-11264
▁primaries	-11265
istrates	-11266
▁Kil	-11267
▁conducting	-11268
▁Dak	-11269
tra	-11270
▁Cab	-11271
enegger	-11272
▁Leicester	-11273
hal	-11274
▁ITV	-11275
▁rental	-11276
▁disclose	-11277
▁2.8	-11278
▁Seb	-11279
▁suggestions	-11280
▁provinces	-11281
▁deserve	-11282
▁valued	-11283
▁colleges	-11284
olk	-11285
▁murdered	-11286
▁situations	-11287
▁crops	-11288
▁publicity	-11289
▁dominant	-11290
▁integrated	-11291
▁HM	-11292
▁demonstrators	-11293
gence	-11294
▁Milwaukee	-11295
▁FOX	-11296
▁fame	-11297
▁Embassy	-11298
▁openly	-11299
▁separat	-11300
▁Kyi	-11301
mons	-11302
▁prest	-11303
build	-11304
▁gradu	-11305
▁donated	-11306
awi	-11307
▁Hass	-11308
▁supermarket	-11309
▁Treat	-11310
eches	-11311
▁mystery	-11312
▁grocer	-11313
▁declaration	-11314
▁endorsed	-11315
▁sleeping	-11316
uz	-11317
▁opera	-11318
▁guer	-11319
▁ranking	-11320
▁dispos	-11321
▁prisoner	-11322
▁OP	-11323
ancies	-11324
▁praise	-11325
▁comparable	-11326
▁suits	-11327
ternal	-11328
▁topic	-11329
post	-11330
▁Kal	-11331
rock	-11332
▁lawsuits	-11333
▁reviewed	-11334
▁Arnold	-11335
▁registration	-11336
▁Hispanic	-11337
bie	-11338
▁encounter	-11339
▁Delhi	-11340
▁horm	-11341
▁matched	-11342
idal	-11343
▁3-0	-11344
▁lav	-11345
etta	-11346
▁|	-11347
yer	-11348
▁quietly	-11349
▁painted	-11350
▁Vladimir	-11351
▁followers	-11352
▁2.0	-11353
▁Schwarzenegger	-11354
ogs	-11355
▁sidel	-11356
▁Angels	-11357
remlin	-11358
▁undersc	-11359
▁lobbying	-11360
▁yard	-11361
▁appet	-11362
▁erupted	-11363
▁Bed	-11364
▁Snow	-11365
▁ousted	-11366
▁Within	-11367
▁subscrib	-11368
▁1986	-11369
▁BEI	-11370
arded	-11371
▁Rest	-11372
▁infections	-11373
SC	-11374
▁Denmark	-11375
▁ballots	-11376
▁Memorial	-11377
GH	-11378
▁alter	-11379
▁amendment	-11380
iah	-11381
▁topped	-11382
▁engagement	-11383
Space	-11384
▁sample	-11385
▁unnecess	-11386
▁impressed	-11387
bits	-11388
▁Main	-11389
▁1-1	-11390
▁crazy	-11391
▁suggestion	-11392
▁warn	-11393
▁holders	-11394
▁outdoor	-11395
▁Ashley	-11396
▁neutral	-11397
▁searched	-11398
▁3.6	-11399
▁Ath	-11400
▁Mandelson	-11401
▁125	-11402
▁Portland	-11403
▁Amy	-11404
▁affecting	-11405
itis	-11406
▁kidney	-11407
▁circuit	-11408
oken	-11409
▁DC	-11410
▁dim	-11411
ahar	-11412
▁Ronaldo	-11413
▁Favre	-11414
▁urge	-11415
▁Forces	-11416
▁dad	-11417
▁taxi	-11418
▁tips	-11419
rin	-11420
▁opinions	-11421
▁agricultural	-11422
▁perpet	-11423
▁1987	-11424
▁deployment	-11425
iots	-11426
▁Ivan	-11427
▁enjoying	-11428
▁Nato	-11429
▁Sure	-11430
▁pressed	-11431
▁Benjamin	-11432
apes	-11433
▁executed	-11434
ihad	-11435
iverse	-11436
▁obligation	-11437
▁fence	-11438
▁burgl	-11439
▁Agric	-11440
▁paintings	-11441
▁PGA	-11442
▁grid	-11443
▁Gray	-11444
▁audio	-11445
▁unemployed	-11446
▁undermine	-11447
▁foss	-11448
▁chips	-11449
▁inner	-11450
opular	-11451
▁Neb	-11452
▁Tribune	-11453
▁Everton	-11454
▁refuse	-11455
▁belt	-11456
▁unac	-11457
▁credibility	-11458
▁Manning	-11459
▁participating	-11460
▁27-	-11461
▁safely	-11462
▁compr	-11463
▁Arthur	-11464
▁partially	-11465
unta	-11466
▁assumed	-11467
▁counterparts	-11468
▁wors	-11469
▁Miliband	-11470
▁tiss	-11471
ftime	-11472
▁preparation	-11473
▁Money	-11474
▁slowed	-11475
▁threaten	-11476
▁incentive	-11477
▁Box	-11478
▁hell	-11479
▁Sheikh	-11480
▁acceptable	-11481
▁components	-11482
▁programming	-11483
ocide	-11484
▁Foster	-11485
▁Tamil	-11486
▁patterns	-11487
▁que	-11488
▁surprisingly	-11489
▁apology	-11490
▁Devon	-11491
▁cruel	-11492
▁appreciate	-11493
▁Kath	-11494
▁vend	-11495
▁Spurs	-11496
▁Sussex	-11497
▁ensuring	-11498
▁Jar	-11499
ighed	-11500
▁fragile	-11501
▁halftime	-11502
▁Hull	-11503
▁Theater	-11504
▁respected	-11505
▁menu	-11506
arency	-11507
▁III	-11508
degree	-11509
▁pocket	-11510
▁Holy	-11511
▁comic	-11512
▁Tun	-11513
throp	-11514
▁BMW	-11515
▁Omar	-11516
▁collective	-11517
▁bru	-11518
▁Essex	-11519
▁1,3	-11520
▁loaded	-11521
▁stopping	-11522
▁designers	-11523
ortium	-11524
▁lengthy	-11525
▁Christians	-11526
isms	-11527
▁eurozone	-11528
▁Experts	-11529
▁Ana	-11530
▁boge	-11531
▁evacuated	-11532
arth	-11533
agic	-11534
▁Wals	-11535
▁Philippines	-11536
uality	-11537
▁Saints	-11538
▁compliance	-11539
▁instruments	-11540
▁recalls	-11541
▁implications	-11542
▁6,000	-11543
▁ward	-11544
atherine	-11545
▁array	-11546
▁premiere	-11547
sk	-11548
▁Lin	-11549
▁automatically	-11550
▁Maine	-11551
eepers	-11552
▁Brady	-11553
utt	-11554
▁HD	-11555
club	-11556
▁hostile	-11557
▁cancelled	-11558
comm	-11559
▁tu	-11560
▁Wenger	-11561
▁supporter	-11562
▁wrapped	-11563
ci	-11564
▁Suu	-11565
▁Palm	-11566
terrorism	-11567
▁corp	-11568
▁god	-11569
▁Colin	-11570
▁screens	-11571
▁Jeremy	-11572
▁supervis	-11573
▁Jacob	-11574
▁bubble	-11575
elihood	-11576
▁restricted	-11577
▁Asked	-11578
▁Israelis	-11579
▁highlights	-11580
lee	-11581
▁Malaysia	-11582
reated	-11583
ratic	-11584
pin	-11585
▁Burma	-11586
▁branches	-11587
▁Kenn	-11588
▁bron	-11589
▁spare	-11590
▁disputes	-11591
▁sealed	-11592
▁calend	-11593
▁outlets	-11594
▁Bey	-11595
▁tower	-11596
▁emphasis	-11597
phis	-11598
▁Fif	-11599
ethe	-11600
▁oun	-11601
▁pursuing	-11602
ripp	-11603
▁responding	-11604
▁celebrating	-11605
▁demonstration	-11606
▁divisions	-11607
math	-11608
▁determination	-11609
▁0.0	-11610
▁gases	-11611
▁strongh	-11612
powered	-11613
▁backs	-11614
▁stero	-11615
sky	-11616
▁Fall	-11617
▁automatic	-11618
▁interpret	-11619
▁sponsored	-11620
tech	-11621
▁Please	-11622
▁Rather	-11623
▁Hunter	-11624
▁unchanged	-11625
▁studios	-11626
abbing	-11627
▁formula	-11628
iasm	-11629
Brien	-11630
▁acknowledge	-11631
▁NHL	-11632
▁slim	-11633
▁Peterson	-11634
▁micro	-11635
▁raids	-11636
▁cheese	-11637
▁Schools	-11638
▁format	-11639
▁witnessed	-11640
▁evil	-11641
▁160	-11642
▁agriculture	-11643
▁glad	-11644
▁Blake	-11645
▁Om	-11646
▁Katrina	-11647
▁convoy	-11648
▁Mull	-11649
utsche	-11650
▁Veter	-11651
400	-11652
▁lap	-11653
▁basically	-11654
ugged	-11655
▁tribunal	-11656
▁3.4	-11657
nesty	-11658
rimin	-11659
▁Sep	-11660
▁1982	-11661
▁stakes	-11662
▁objects	-11663
▁Heathrow	-11664
icism	-11665
▁Pap	-11666
▁accepting	-11667
▁Ki	-11668
oria	-11669
vely	-11670
▁marry	-11671
loaded	-11672
▁Hann	-11673
▁Montgomery	-11674
▁Memphis	-11675
▁Kir	-11676
▁irre	-11677
▁Dise	-11678
pointer	-11679
▁Athens	-11680
▁Election	-11681
▁wooden	-11682
kok	-11683
▁bears	-11684
▁Angela	-11685
▁counted	-11686
▁accidents	-11687
▁extending	-11688
▁literally	-11689
▁Brew	-11690
▁wrest	-11691
▁fundraising	-11692
▁Butler	-11693
controlled	-11694
▁Roc	-11695
▁MySpace	-11696
lings	-11697
▁currencies	-11698
▁storms	-11699
▁fright	-11700
▁endang	-11701
▁Ca	-11702
ommun	-11703
▁Cape	-11704
▁flour	-11705
author	-11706
wait	-11707
▁cabin	-11708
▁receiver	-11709
▁transit	-11710
CH	-11711
idges	-11712
▁Flin	-11713
▁bats	-11714
▁Bangladesh	-11715
▁Peru	-11716
▁flown	-11717
▁slot	-11718
▁insurer	-11719
▁grandmother	-11720
▁Wallace	-11721
▁conversations	-11722
ambers	-11723
▁mosque	-11724
CA	-11725
▁designs	-11726
ardari	-11727
▁7-6	-11728
dem	-11729
▁Gat	-11730
▁panels	-11731
bow	-11732
▁forever	-11733
▁breathing	-11734
▁diluted	-11735
▁desp	-11736
▁Easter	-11737
▁detectives	-11738
▁Overall	-11739
▁Sharif	-11740
▁infant	-11741
▁aftermath	-11742
▁perceived	-11743
▁Formula	-11744
▁Colombian	-11745
▁Ta	-11746
▁tag	-11747
▁choosing	-11748
inity	-11749
▁eliminated	-11750
▁Jama	-11751
▁cleaning	-11752
▁Sid	-11753
▁repro	-11754
▁Sex	-11755
▁2,500	-11756
arest	-11757
▁withdrew	-11758
IR	-11759
▁licence	-11760
ipper	-11761
wealth	-11762
▁Armed	-11763
▁abused	-11764
▁Zardari	-11765
inction	-11766
▁tropical	-11767
itated	-11768
▁soared	-11769
▁buff	-11770
▁arranged	-11771
istered	-11772
▁volumes	-11773
amped	-11774
▁Knox	-11775
▁Drew	-11776
▁myth	-11777
ressing	-11778
drop	-11779
erm	-11780
▁turb	-11781
▁Alexand	-11782
▁universal	-11783
ersen	-11784
enson	-11785
▁Military	-11786
▁mere	-11787
▁Casey	-11788
▁locals	-11789
▁indicates	-11790
▁Chamber	-11791
▁defic	-11792
▁Bangkok	-11793
▁hostage	-11794
▁automakers	-11795
▁Arctic	-11796
afe	-11797
acles	-11798
napped	-11799
▁dining	-11800
▁Phillies	-11801
▁speeches	-11802
▁booked	-11803
▁jets	-11804
▁Liberty	-11805
▁bipartisan	-11806
▁Ric	-11807
▁briefing	-11808
▁surged	-11809
▁NA	-11810
▁assemb	-11811
▁mamm	-11812
▁Advis	-11813
uers	-11814
▁Coal	-11815
▁laboratory	-11816
▁8,000	-11817
▁Kremlin	-11818
changes	-11819
▁interrogation	-11820
▁Theatre	-11821
around	-11822
▁petrol	-11823
▁vocal	-11824
▁Surrey	-11825
▁disappointment	-11826
▁PM	-11827
▁musicians	-11828
▁3.2	-11829
▁admission	-11830
▁articles	-11831
▁conscious	-11832
▁epid	-11833
amework	-11834
▁probation	-11835
▁Billy	-11836
▁distingu	-11837
▁Brig	-11838
Is	-11839
▁Kl	-11840
osh	-11841
▁dealer	-11842
▁guerrill	-11843
▁tours	-11844
▁diesel	-11845
▁pronounced	-11846
hum	-11847
▁arrangement	-11848
▁sid	-11849
▁pursuit	-11850
▁payroll	-11851
▁settlements	-11852
▁AR	-11853
▁addresses	-11854
▁recognised	-11855
▁willingness	-11856
▁sentencing	-11857
▁chol	-11858
bridge	-11859
▁submit	-11860
▁Bosn	-11861
▁phenomen	-11862
▁bunch	-11863
cessions	-11864
▁genocide	-11865
▁laptop	-11866
In	-11867
▁Greater	-11868
▁3-2	-11869
▁hosting	-11870
ali	-11871
▁item	-11872
▁arena	-11873
▁examples	-11874
▁chancellor	-11875
▁acquisitions	-11876
▁Nep	-11877
▁displayed	-11878
▁kiss	-11879
▁tremend	-11880
▁Deutsche	-11881
▁Cash	-11882
▁vegetables	-11883
▁Libya	-11884
engu	-11885
▁alien	-11886
▁Dodgers	-11887
dig	-11888
erves	-11889
▁smell	-11890
alez	-11891
▁Monetary	-11892
habi	-11893
▁meltdown	-11894
minded	-11895
▁permit	-11896
▁Hop	-11897
▁Geneva	-11898
▁deriv	-11899
▁failures	-11900
▁supplement	-11901
▁Moon	-11902
▁designated	-11903
▁Sev	-11904
▁intr	-11905
fin	-11906
▁disappearance	-11907
▁Downing	-11908
▁unaccept	-11909
▁Homeland	-11910
▁pod	-11911
▁billionaire	-11912
▁accomplish	-11913
▁superior	-11914
▁rehabil	-11915
▁kidnapped	-11916
aga	-11917
▁unanim	-11918
▁bolster	-11919
▁inventory	-11920
▁punch	-11921
▁Produc	-11922
▁Few	-11923
75	-11924
▁Manager	-11925
▁racist	-11926
▁spy	-11927
▁unpopular	-11928
ationally	-11929
▁3.3	-11930
otti	-11931
▁Heart	-11932
▁gradually	-11933
▁redund	-11934
▁Kle	-11935
▁adoption	-11936
▁26-	-11937
▁Lang	-11938
▁priest	-11939
▁concessions	-11940
▁3.8	-11941
umble	-11942
isely	-11943
▁sacked	-11944
▁advocate	-11945
▁Swat	-11946
ouces	-11947
▁nowhere	-11948
▁subsequently	-11949
ateur	-11950
▁assigned	-11951
▁remembered	-11952
▁enthusiasm	-11953
▁classified	-11954
insula	-11955
iva	-11956
faction	-11957
▁suburb	-11958
▁embrace	-11959
▁gunman	-11960
▁evident	-11961
ouring	-11962
▁implemented	-11963
▁broadcaster	-11964
▁safer	-11965
▁dubbed	-11966
▁sew	-11967
▁Half	-11968
▁advisory	-11969
annon	-11970
100	-11971
▁headline	-11972
▁counterpart	-11973
▁Sym	-11974
ingham	-11975
▁nurses	-11976
35	-11977
raeus	-11978
storm	-11979
▁superb	-11980
▁governors	-11981
rament	-11982
▁psychological	-11983
TE	-11984
▁0.8	-11985
arre	-11986
otherap	-11987
▁successive	-11988
ardi	-11989
▁trainer	-11990
▁jewel	-11991
▁horror	-11992
▁PH	-11993
.75	-11994
itudes	-11995
▁Around	-11996
scri	-11997
▁aviation	-11998
▁cens	-11999
▁indef	-12000
▁Osborne	-12001
▁Iv	-12002
ui	-12003
▁Cohen	-12004
▁patch	-12005
▁extract	-12006
▁motivated	-12007
▁glo	-12008
▁Along	-12009
▁drown	-12010
▁permits	-12011
▁Ug	-12012
mat	-12013
went	-12014
▁artific	-12015
▁churches	-12016
▁presents	-12017
▁Kay	-12018
▁snapped	-12019
▁describing	-12020
leton	-12021
▁scope	-12022
▁mask	-12023
▁dreams	-12024
▁Petraeus	-12025
▁episodes	-12026
▁incumb	-12027
▁railway	-12028
encer	-12029
isd	-12030
count	-12031
▁terminal	-12032
▁lease	-12033
▁Pav	-12034
▁Moss	-12035
▁Doctors	-12036
▁Glouces	-12037
▁Thank	-12038
▁scrat	-12039
▁Living	-12040
▁Kam	-12041
▁seas	-12042
listed	-12043
rants	-12044
▁creates	-12045
▁continent	-12046
▁structures	-12047
▁reiter	-12048
JING	-12049
▁Dere	-12050
ortions	-12051
▁astronauts	-12052
▁Gaz	-12053
▁View	-12054
iri	-12055
▁filings	-12056
▁offence	-12057
▁voices	-12058
▁stole	-12059
▁Mohamed	-12060
▁assign	-12061
▁Timothy	-12062
fty	-12063
▁Expl	-12064
▁Legisl	-12065
▁glam	-12066
▁Reports	-12067
▁collaboration	-12068
oly	-12069
▁Gonzalez	-12070
▁definition	-12071
▁simpl	-12072
▁Command	-12073
▁polar	-12074
▁Cornwall	-12075
▁marine	-12076
card	-12077
▁Emergency	-12078
▁Shell	-12079
ovich	-12080
▁succeeded	-12081
acon	-12082
▁prevention	-12083
▁Na	-12084
▁Kingdom	-12085
fly	-12086
▁Assistant	-12087
▁anymore	-12088
fu	-12089
atoes	-12090
airy	-12091
▁forgotten	-12092
▁lend	-12093
▁sheets	-12094
▁BEIJING	-12095
▁releases	-12096
▁Century	-12097
eton	-12098
▁Wang	-12099
▁advocacy	-12100
▁fines	-12101
▁conceded	-12102
▁Nok	-12103
▁genes	-12104
▁Ow	-12105
▁lake	-12106
umper	-12107
iev	-12108
▁poised	-12109
▁spaces	-12110
▁talented	-12111
▁Fried	-12112
▁Osset	-12113
▁wholesale	-12114
▁disgr	-12115
▁Based	-12116
▁junta	-12117
▁deton	-12118
▁tender	-12119
▁dependent	-12120
hyth	-12121
▁completion	-12122
▁hostages	-12123
urer	-12124
▁Luis	-12125
▁Lisa	-12126
▁dirty	-12127
och	-12128
▁rushing	-12129
fax	-12130
▁missions	-12131
▁declare	-12132
▁Sotom	-12133
▁Ib	-12134
▁cab	-12135
▁stepping	-12136
▁Columbus	-12137
▁endorsement	-12138
▁removal	-12139
▁450	-12140
▁eleg	-12141
▁expression	-12142
wart	-12143
▁jazz	-12144
▁architecture	-12145
▁Oliver	-12146
▁sounded	-12147
▁pensions	-12148
amas	-12149
▁beliefs	-12150
▁supplier	-12151
▁3.1	-12152
▁brows	-12153
oped	-12154
▁Dhabi	-12155
▁fails	-12156
▁greeted	-12157
uri	-12158
eled	-12159
▁satisfied	-12160
cr	-12161
▁lets	-12162
▁upgrade	-12163
▁Ald	-12164
▁runway	-12165
▁minim	-12166
▁Aberdeen	-12167
▁confidential	-12168
▁external	-12169
▁ax	-12170
▁rever	-12171
▁nationally	-12172
▁substitute	-12173
▁Mack	-12174
▁Carn	-12175
ultane	-12176
▁Studies	-12177
▁Wazir	-12178
roid	-12179
▁transparency	-12180
▁addressing	-12181
▁phenomenon	-12182
pound	-12183
▁peer	-12184
▁»	-12185
▁History	-12186
▁Person	-12187
▁Sotomayor	-12188
ERS	-12189
▁Meg	-12190
-16	-12191
▁1983	-12192
▁dangers	-12193
▁750	-12194
▁contests	-12195
▁Midlands	-12196
▁Anna	-12197
manuel	-12198
▁removing	-12199
ribe	-12200
-13	-12201
▁discipline	-12202
olo	-12203
▁dign	-12204
omo	-12205
ifies	-12206
assion	-12207
▁drought	-12208
▁eBay	-12209
▁exchanges	-12210
▁Whatever	-12211
ika	-12212
▁Wire	-12213
▁lean	-12214
▁gentle	-12215
▁maj	-12216
▁flames	-12217
▁AS	-12218
ramento	-12219
▁marking	-12220
▁mans	-12221
▁neighbours	-12222
▁tunnel	-12223
▁UCLA	-12224
▁inapp	-12225
▁bidding	-12226
▁reminder	-12227
▁Prin	-12228
▁exile	-12229
▁Northwest	-12230
▁plummet	-12231
usting	-12232
▁accounted	-12233
folk	-12234
asted	-12235
etheless	-12236
▁lighting	-12237
emeter	-12238
▁unacceptable	-12239
▁Tar	-12240
▁gangs	-12241
▁enrichment	-12242
▁photographer	-12243
▁nod	-12244
▁Diamond	-12245
▁switched	-12246
▁Wel	-12247
▁Mut	-12248
▁inspectors	-12249
acht	-12250
▁stalled	-12251
▁Alist	-12252
▁organizers	-12253
▁Miche	-12254
▁gate	-12255
▁seal	-12256
▁pandemic	-12257
oda	-12258
▁Derek	-12259
iard	-12260
stop	-12261
▁elaborate	-12262
▁clearing	-12263
▁ingredients	-12264
▁steal	-12265
▁priced	-12266
iances	-12267
▁musc	-12268
▁conflicts	-12269
rik	-12270
▁safegu	-12271
▁bronze	-12272
▁listing	-12273
▁Pharm	-12274
▁Pas	-12275
licit	-12276
▁Ferrari	-12277
▁Swan	-12278
▁thri	-12279
▁Hamid	-12280
▁greatly	-12281
▁battered	-12282
amous	-12283
▁tanks	-12284
▁Si	-12285
▁compelling	-12286
▁cinema	-12287
hard	-12288
▁gloom	-12289
▁drum	-12290
ainted	-12291
▁unbeat	-12292
▁Alistair	-12293
▁considers	-12294
▁McA	-12295
▁Rat	-12296
▁Calder	-12297
▁Hew	-12298
▁calendar	-12299
▁inquiries	-12300
▁bombers	-12301
rov	-12302
erts	-12303
▁sne	-12304
▁trump	-12305
▁gal	-12306
▁Trip	-12307
▁minus	-12308
▁refund	-12309
erable	-12310
▁Besides	-12311
▁absolute	-12312
▁credited	-12313
zer	-12314
▁Auto	-12315
▁Mason	-12316
▁150,000	-12317
▁Prim	-12318
▁tragic	-12319
▁radar	-12320
▁Nokia	-12321
▁hailed	-12322
▁Could	-12323
▁Bolton	-12324
▁7-	-12325
▁Strauss	-12326
▁Airbus	-12327
▁struggles	-12328
▁Madonna	-12329
▁reviewing	-12330
▁topp	-12331
▁seasonal	-12332
▁youths	-12333
ple	-12334
▁confusion	-12335
elligent	-12336
igate	-12337
▁Housing	-12338
▁Posted	-12339
icyc	-12340
▁hearts	-12341
▁Article	-12342
▁Clemens	-12343
▁Circuit	-12344
▁prolong	-12345
Ne	-12346
▁tenure	-12347
isting	-12348
inating	-12349
▁everyday	-12350
▁floods	-12351
-14	-12352
▁ET	-12353
▁checking	-12354
▁excluding	-12355
▁charities	-12356
▁Tri	-12357
▁equipped	-12358
▁strang	-12359
▁testify	-12360
▁jurors	-12361
▁immigrant	-12362
size	-12363
▁observed	-12364
ienna	-12365
▁homeland	-12366
▁jurisd	-12367
▁AD	-12368
▁skill	-12369
▁enemies	-12370
uity	-12371
▁overc	-12372
▁populations	-12373
▁fer	-12374
▁Danish	-12375
▁FRAN	-12376
▁poorly	-12377
▁commissioned	-12378
▁ts	-12379
▁Hilton	-12380
▁recognise	-12381
▁routinely	-12382
▁teammates	-12383
▁counting	-12384
▁mart	-12385
▁integration	-12386
▁Retail	-12387
▁corrupt	-12388
▁toy	-12389
▁demol	-12390
▁inspector	-12391
▁attributed	-12392
▁defer	-12393
iscovery	-12394
▁Movement	-12395
▁BNP	-12396
print	-12397
▁Dame	-12398
▁barred	-12399
▁Maur	-12400
▁runners	-12401
▁Sullivan	-12402
▁Vent	-12403
▁consent	-12404
▁contractor	-12405
▁Reed	-12406
▁deliberately	-12407
▁HSBC	-12408
▁fabric	-12409
▁Dakota	-12410
▁jacket	-12411
▁Cambod	-12412
▁phrase	-12413
▁Gibson	-12414
▁rated	-12415
▁adequate	-12416
▁root	-12417
school	-12418
court	-12419
▁Village	-12420
berman	-12421
ippers	-12422
▁ethics	-12423
▁Ry	-12424
▁1985	-12425
▁Slam	-12426
▁filling	-12427
▁gambling	-12428
▁Rah	-12429
▁Sacramento	-12430
▁Walsh	-12431
▁subscri	-12432
▁northeast	-12433
▁Mohammad	-12434
▁Ep	-12435
▁USC	-12436
itement	-12437
▁wondering	-12438
▁gren	-12439
▁Companies	-12440
▁sacrifice	-12441
▁refusal	-12442
ogg	-12443
▁debates	-12444
will	-12445
▁firmly	-12446
uda	-12447
▁garage	-12448
▁processes	-12449
▁Krist	-12450
▁Against	-12451
▁editorial	-12452
▁agg	-12453
▁Bishop	-12454
isure	-12455
▁spray	-12456
▁Joint	-12457
▁orange	-12458
irez	-12459
22	-12460
ocaust	-12461
▁Montana	-12462
▁leather	-12463
▁Beh	-12464
▁wounding	-12465
ORT	-12466
illo	-12467
▁0-0	-12468
▁approaching	-12469
dan	-12470
▁occasional	-12471
▁dawn	-12472
▁tech	-12473
▁naval	-12474
▁premiums	-12475
ser	-12476
▁Dublin	-12477
▁rockets	-12478
▁Potter	-12479
▁Prior	-12480
▁contrad	-12481
asive	-12482
▁intensive	-12483
▁CS	-12484
dering	-12485
▁magnitude	-12486
▁dragged	-12487
▁physically	-12488
▁FSA	-12489
▁turnout	-12490
asm	-12491
▁embry	-12492
▁intend	-12493
▁Rosen	-12494
▁1-	-12495
▁integrity	-12496
▁Plus	-12497
▁1,200	-12498
▁unhappy	-12499
▁plug	-12500
▁controlling	-12501
enz	-12502
▁cattle	-12503
▁inspiration	-12504
ENT	-12505
▁Place	-12506
▁attendance	-12507
achers	-12508
▁bands	-12509
▁Comment	-12510
▁realised	-12511
opez	-12512
▁deficits	-12513
▁moder	-12514
▁separated	-12515
▁approaches	-12516
▁resemb	-12517
▁offerings	-12518
▁haul	-12519
lav	-12520
entials	-12521
rawling	-12522
▁exceptional	-12523
▁flexible	-12524
▁revive	-12525
▁sorts	-12526
▁trafficking	-12527
▁abst	-12528
drome	-12529
▁surveys	-12530
▁midfield	-12531
▁PAR	-12532
▁landl	-12533
▁Bailey	-12534
▁Mitt	-12535
▁comply	-12536
ALL	-12537
▁Waziristan	-12538
▁invitation	-12539
▁institutional	-12540
▁naturally	-12541
aments	-12542
▁confrontation	-12543
▁Russians	-12544
ancers	-12545
▁alternatives	-12546
▁Cour	-12547
▁Athlet	-12548
▁silent	-12549
▁Golf	-12550
▁mandatory	-12551
▁withdrawn	-12552
▁Temp	-12553
▁magic	-12554
16	-12555
▁placing	-12556
▁substantially	-12557
▁municipal	-12558
▁Log	-12559
▁Rivers	-12560
▁Paterson	-12561
▁woes	-12562
▁precisely	-12563
obb	-12564
nsic	-12565
▁pole	-12566
writer	-12567
▁Kr	-12568
▁FD	-12569
▁dent	-12570
▁Merced	-12571
▁Karen	-12572
▁Eagles	-12573
▁Annual	-12574
▁creditors	-12575
bour	-12576
▁inspection	-12577
▁Rw	-12578
▁careers	-12579
▁unsuccess	-12580
▁reflecting	-12581
▁Cable	-12582
▁1⁄	-12583
▁Ext	-12584
▁Criminal	-12585
▁Nicholas	-12586
▁eleph	-12587
▁altogether	-12588
itr	-12589
adequ	-12590
▁aspir	-12591
▁Sunder	-12592
▁Castle	-12593
▁collecting	-12594
identified	-12595
prom	-12596
rard	-12597
▁defendant	-12598
aky	-12599
▁liv	-12600
▁profound	-12601
▁nightclub	-12602
istle	-12603
▁Gabri	-12604
▁riders	-12605
▁Morning	-12606
▁physician	-12607
▁stealing	-12608
leep	-12609
▁Puerto	-12610
▁chains	-12611
▁sisters	-12612
▁Torres	-12613
▁Classic	-12614
▁Similar	-12615
▁devastated	-12616
▁controll	-12617
migr	-12618
▁Ve	-12619
ania	-12620
inted	-12621
▁lowered	-12622
▁certific	-12623
▁2013	-12624
▁habits	-12625
▁McM	-12626
aksin	-12627
orse	-12628
▁unnecessary	-12629
▁chairs	-12630
▁utter	-12631
▁realise	-12632
efficient	-12633
▁description	-12634
▁Franklin	-12635
▁simultane	-12636
asa	-12637
orest	-12638
▁1,0	-12639
▁Baby	-12640
▁dose	-12641
▁Diana	-12642
▁justify	-12643
▁criteria	-12644
▁ug	-12645
▁Costa	-12646
▁Norman	-12647
▁cro	-12648
▁secular	-12649
▁aggressively	-12650
▁Sha	-12651
▁Dodd	-12652
▁blocking	-12653
cker	-12654
▁blacks	-12655
▁harvest	-12656
▁insult	-12657
▁8-	-12658
▁weakened	-12659
▁worn	-12660
vili	-12661
▁fingers	-12662
▁hardware	-12663
19	-12664
▁28-	-12665
cost	-12666
▁2.9	-12667
▁parked	-12668
▁conting	-12669
▁Residents	-12670
▁shootings	-12671
▁Knicks	-12672
▁propag	-12673
toff	-12674
▁explaining	-12675
▁GE	-12676
after	-12677
▁affects	-12678
▁employs	-12679
▁sank	-12680
▁Rescue	-12681
▁les	-12682
ffield	-12683
▁travelled	-12684
▁Kur	-12685
owski	-12686
▁gene	-12687
▁unle	-12688
▁mainland	-12689
▁breakdown	-12690
ronom	-12691
▁Pic	-12692
▁1981	-12693
▁Cai	-12694
▁Samuel	-12695
▁divide	-12696
▁lasting	-12697
----	-12698
▁Belgian	-12699
▁strategist	-12700
▁Review	-12701
▁naked	-12702
▁Medicaid	-12703
▁framework	-12704
▁1967	-12705
14	-12706
▁ECB	-12707
▁Jav	-12708
eties	-12709
▁consp	-12710
▁viewing	-12711
▁halted	-12712
▁Indianapolis	-12713
▁notorious	-12714
hl	-12715
▁Ern	-12716
▁acid	-12717
▁Zuma	-12718
riages	-12719
earns	-12720
rating	-12721
anne	-12722
▁Sunderland	-12723
▁1,6	-12724
ecting	-12725
▁bacteria	-12726
▁bathroom	-12727
▁Depression	-12728
▁grab	-12729
▁hamp	-12730
▁actively	-12731
▁aspect	-12732
▁Point	-12733
▁Alz	-12734
▁Bever	-12735
▁murders	-12736
▁Harper	-12737
▁shy	-12738
▁Ches	-12739
▁leth	-12740
▁antib	-12741
AB	-12742
▁confer	-12743
▁excuse	-12744
▁barrier	-12745
▁rallies	-12746
▁Banking	-12747
▁Cos	-12748
ews	-12749
▁tune	-12750
▁steam	-12751
▁load	-12752
▁Reading	-12753
▁mounted	-12754
▁viable	-12755
▁engaging	-12756
▁IBM	-12757
▁Secret	-12758
▁Bi	-12759
▁fantasy	-12760
▁Stern	-12761
▁entert	-12762
amine	-12763
▁advertis	-12764
▁postponed	-12765
▁authen	-12766
▁AB	-12767
▁Sudanese	-12768
herent	-12769
▁interpre	-12770
▁tackling	-12771
▁diagnosis	-12772
odox	-12773
▁Muham	-12774
owder	-12775
▁Data	-12776
▁swap	-12777
▁respondents	-12778
UT	-12779
▁Cut	-12780
▁ought	-12781
▁cleric	-12782
▁hospitalized	-12783
▁replay	-12784
jo	-12785
▁ber	-12786
▁southwest	-12787
▁appetite	-12788
▁valley	-12789
▁benefited	-12790
▁youngsters	-12791
▁premature	-12792
▁Start	-12793
▁ware	-12794
▁Ramirez	-12795
▁leaf	-12796
ranean	-12797
▁Brent	-12798
▁Durham	-12799
▁Basra	-12800
NC	-12801
zza	-12802
▁transformed	-12803
▁Band	-12804
▁Cass	-12805
▁Johnny	-12806
▁doubles	-12807
▁councill	-12808
▁Prevention	-12809
▁immin	-12810
aste	-12811
▁contributing	-12812
▁Letter	-12813
▁gau	-12814
phones	-12815
▁decisive	-12816
▁stripped	-12817
▁incredible	-12818
hist	-12819
▁yields	-12820
▁pleasure	-12821
▁injection	-12822
▁5.5	-12823
▁earmark	-12824
▁Batt	-12825
▁sooner	-12826
▁compare	-12827
arett	-12828
▁classroom	-12829
▁Chev	-12830
▁accessible	-12831
▁hardest	-12832
▁bosses	-12833
▁outlined	-12834
seat	-12835
▁fossil	-12836
inos	-12837
dick	-12838
▁indefin	-12839
▁Brandon	-12840
▁Storm	-12841
▁squeeze	-12842
▁reminded	-12843
▁Bird	-12844
▁Left	-12845
inees	-12846
ulent	-12847
▁Markets	-12848
ittees	-12849
▁Madison	-12850
▁southeast	-12851
-17	-12852
▁Mall	-12853
▁courtroom	-12854
▁bones	-12855
▁Bennett	-12856
▁enhanced	-12857
▁humanity	-12858
▁Nine	-12859
▁explicit	-12860
▁educated	-12861
▁Adrian	-12862
▁rational	-12863
▁performers	-12864
occ	-12865
▁materially	-12866
▁negotiated	-12867
▁Guy	-12868
▁torch	-12869
hander	-12870
▁palace	-12871
▁fuels	-12872
▁Alger	-12873
▁manif	-12874
story	-12875
uffed	-12876
▁consortium	-12877
▁pork	-12878
▁Bright	-12879
▁Montreal	-12880
▁Cardinals	-12881
azed	-12882
▁biz	-12883
▁Nixon	-12884
▁Richards	-12885
▁parall	-12886
▁spectrum	-12887
▁Make	-12888
▁intrig	-12889
▁Mov	-12890
▁flooded	-12891
▁shortages	-12892
▁financially	-12893
▁Rain	-12894
▁component	-12895
▁Harrison	-12896
unami	-12897
▁Father	-12898
▁homosex	-12899
▁Kuwait	-12900
▁poorest	-12901
▁hunger	-12902
▁exists	-12903
▁Bent	-12904
▁Centers	-12905
▁Fein	-12906
▁clever	-12907
▁Jeffrey	-12908
▁Spencer	-12909
auer	-12910
anol	-12911
▁Late	-12912
▁Suff	-12913
▁McLaren	-12914
▁displays	-12915
▁Roth	-12916
▁worrying	-12917
▁conj	-12918
▁bearing	-12919
▁Soon	-12920
▁Agriculture	-12921
▁1976	-12922
▁Alzheimer	-12923
▁postseason	-12924
▁Lloyd	-12925
▁desperately	-12926
▁pedest	-12927
▁Johan	-12928
▁weighed	-12929
-15	-12930
itte	-12931
▁7,000	-12932
▁foreclosures	-12933
▁101	-12934
▁distant	-12935
oft	-12936
▁Sheffield	-12937
yon	-12938
enza	-12939
▁tremendous	-12940
▁Lopez	-12941
News	-12942
growing	-12943
▁recommendation	-12944
oons	-12945
▁maintains	-12946
▁yuan	-12947
▁inadequ	-12948
▁Nepal	-12949
gov	-12950
▁foster	-12951
▁literature	-12952
ideo	-12953
kinson	-12954
▁slower	-12955
▁uncomfort	-12956
ommunications	-12957
▁Certain	-12958
ulty	-12959
▁Thanksgiving	-12960
▁relay	-12961
▁wisdom	-12962
uese	-12963
▁passport	-12964
▁Blackburn	-12965
▁Norfolk	-12966
▁sponsor	-12967
▁Kash	-12968
▁Nothing	-12969
▁Mercedes	-12970
▁Martine	-12971
weg	-12972
▁Sadr	-12973
▁discour	-12974
▁Lieberman	-12975
▁`	-12976
▁Iron	-12977
▁lovely	-12978
▁Using	-12979
running	-12980
▁steadily	-12981
▁km	-12982
agne	-12983
▁Peters	-12984
Maliki	-12985
▁Colon	-12986
▁securing	-12987
▁wary	-12988
▁Stars	-12989
▁Griffin	-12990
▁boycott	-12991
utenant	-12992
▁Disease	-12993
▁opposing	-12994
▁Holocaust	-12995
lay	-12996
ominated	-12997
eyer	-12998
▁salmon	-12999
▁contracted	-13000
hou	-13001
▁Dri	-13002
spons	-13003
▁1968	-13004
▁MI	-13005
▁lifting	-13006
▁Discovery	-13007
The	-13008
▁fold	-13009
▁contacts	-13010
▁3.7	-13011
chair	-13012
etown	-13013
▁flexibility	-13014
▁ferry	-13015
▁Survey	-13016
▁Wars	-13017
funded	-13018
▁internationally	-13019
▁Ott	-13020
▁Francis	-13021
▁climbing	-13022
▁Less	-13023
▁draws	-13024
▁Commonwealth	-13025
▁Mao	-13026
ateful	-13027
▁Master	-13028
▁reveals	-13029
oid	-13030
▁Cubs	-13031
▁barriers	-13032
▁Portuguese	-13033
ige	-13034
vals	-13035
stri	-13036
▁beds	-13037
▁folk	-13038
▁sore	-13039
▁tissue	-13040
▁suitable	-13041
▁Southeast	-13042
▁Full	-13043
▁grey	-13044
▁Too	-13045
▁Djok	-13046
▁OPEC	-13047
▁sweat	-13048
▁Princess	-13049
▁responses	-13050
▁nickn	-13051
har	-13052
igen	-13053
▁beaches	-13054
▁balanced	-13055
▁philosophy	-13056
▁visa	-13057
gments	-13058
▁Geoff	-13059
▁apartments	-13060
▁Nebr	-13061
▁aston	-13062
nity	-13063
anguage	-13064
▁jeopard	-13065
▁shifted	-13066
▁rankings	-13067
▁Thaksin	-13068
▁carpet	-13069
▁convinc	-13070
▁donor	-13071
ucker	-13072
▁Doug	-13073
▁Roddick	-13074
▁arbit	-13075
▁insight	-13076
▁magazines	-13077
▁afterwards	-13078
▁instructions	-13079
▁Gard	-13080
▁bids	-13081
▁anxious	-13082
▁Rachel	-13083
▁motorists	-13084
▁Fiat	-13085
▁academy	-13086
▁betting	-13087
▁hazard	-13088
emetery	-13089
▁Ele	-13090
▁incomes	-13091
▁insisting	-13092
▁giants	-13093
▁surviving	-13094
▁Carroll	-13095
▁ceiling	-13096
▁surpass	-13097
rose	-13098
▁corporation	-13099
ishops	-13100
▁cautioned	-13101
only	-13102
▁preca	-13103
▁Ka	-13104
▁jumping	-13105
▁leverage	-13106
▁recruitment	-13107
▁Chan	-13108
▁trademark	-13109
▁``	-13110
▁Djokovic	-13111
▁Vienna	-13112
▁dumped	-13113
▁edged	-13114
▁Fame	-13115
▁searches	-13116
▁1972	-13117
▁encl	-13118
▁holy	-13119
▁Highway	-13120
▁Emp	-13121
abling	-13122
▁chapter	-13123
▁TD	-13124
egoti	-13125
▁Phel	-13126
▁tally	-13127
▁physicians	-13128
▁purchasing	-13129
ouds	-13130
▁Delaware	-13131
▁batting	-13132
▁owed	-13133
▁Qatar	-13134
▁Between	-13135
▁indicted	-13136
▁Pant	-13137
▁rhyth	-13138
▁SE	-13139
▁allowance	-13140
13	-13141
▁Set	-13142
▁facil	-13143
▁governance	-13144
▁constituency	-13145
best	-13146
▁surplus	-13147
▁undergo	-13148
▁strained	-13149
▁Action	-13150
▁Design	-13151
sl	-13152
▁TS	-13153
▁birdie	-13154
▁unbeaten	-13155
with	-13156
▁coordinator	-13157
▁Conc	-13158
▁releg	-13159
▁objective	-13160
▁Blues	-13161
▁1975	-13162
Ar	-13163
▁pilgr	-13164
▁chiefs	-13165
▁slo	-13166
ovan	-13167
agging	-13168
▁rocks	-13169
world	-13170
▁reader	-13171
▁Rogers	-13172
▁Schum	-13173
▁copper	-13174
▁Nebraska	-13175
▁>	-13176
▁Ga	-13177
▁labels	-13178
▁replic	-13179
▁aging	-13180
onso	-13181
▁depri	-13182
▁abuses	-13183
▁nightm	-13184
▁60,000	-13185
▁Hugo	-13186
▁boot	-13187
▁util	-13188
anie	-13189
▁Prix	-13190
▁Heritage	-13191
▁Deal	-13192
▁dynamic	-13193
▁realistic	-13194
▁Carr	-13195
▁contamin	-13196
▁Talk	-13197
grad	-13198
cap	-13199
ailing	-13200
DAD	-13201
arettes	-13202
▁gaming	-13203
▁6.5	-13204
▁navy	-13205
▁Bradley	-13206
▁loves	-13207
▁excitement	-13208
▁stark	-13209
▁radiation	-13210
oga	-13211
▁exped	-13212
▁precious	-13213
▁embarrassing	-13214
▁Magic	-13215
95	-13216
▁Cowboys	-13217
▁Enterprise	-13218
▁Nav	-13219
▁iconic	-13220
▁Cav	-13221
▁backup	-13222
▁oxy	-13223
▁Tesco	-13224
odge	-13225
PR	-13226
kei	-13227
▁patri	-13228
▁institute	-13229
aton	-13230
▁heels	-13231
▁sectarian	-13232
atis	-13233
▁commonly	-13234
▁HBOS	-13235
▁releasing	-13236
▁meaningful	-13237
▁Pete	-13238
anchez	-13239
▁cyber	-13240
president	-13241
▁Mol	-13242
▁Weather	-13243
▁acceptance	-13244
▁achievements	-13245
17	-13246
▁Moroc	-13247
▁perception	-13248
▁dirt	-13249
▁endangered	-13250
▁sib	-13251
▁Melbourne	-13252
▁Forum	-13253
▁nominees	-13254
lon	-13255
▁trash	-13256
▁averaged	-13257
▁adventure	-13258
▁Sign	-13259
▁Boliv	-13260
▁completing	-13261
▁trophy	-13262
acker	-13263
▁spends	-13264
▁sellers	-13265
▁Rush	-13266
▁farming	-13267
▁persuaded	-13268
▁Venezuelan	-13269
▁minimal	-13270
ivic	-13271
▁Steph	-13272
▁balloon	-13273
▁Flight	-13274
▁anonymous	-13275
doing	-13276
▁Hunt	-13277
▁Bark	-13278
▁exclusively	-13279
▁wrap	-13280
▁scared	-13281
otherapy	-13282
▁subscribers	-13283
moon	-13284
bedroom	-13285
▁transmission	-13286
▁BAG	-13287
▁transplant	-13288
erez	-13289
▁forb	-13290
▁Celtics	-13291
.95	-13292
▁accum	-13293
▁handing	-13294
▁spite	-13295
▁Shel	-13296
erie	-13297
▁McCl	-13298
▁Mills	-13299
▁litigation	-13300
olan	-13301
aco	-13302
▁audit	-13303
ashire	-13304
ifford	-13305
▁fiction	-13306
▁Ellis	-13307
▁boosting	-13308
▁prisons	-13309
▁Lords	-13310
▁Barnes	-13311
▁''	-13312
▁legendary	-13313
▁overturned	-13314
bi	-13315
▁Nikkei	-13316
▁intentions	-13317
▁Hut	-13318
▁airpl	-13319
▁productivity	-13320
▁Lear	-13321
axy	-13322
▁violating	-13323
▁matching	-13324
▁Britons	-13325
▁Sanchez	-13326
adr	-13327
▁fraction	-13328
mph	-13329
tis	-13330
▁jam	-13331
▁Disc	-13332
▁rivers	-13333
▁Da	-13334
pher	-13335
▁prayer	-13336
▁AG	-13337
▁frank	-13338
▁recre	-13339
▁imminent	-13340
ugee	-13341
▁Death	-13342
even	-13343
▁favored	-13344
▁Hoff	-13345
▁ling	-13346
▁Aston	-13347
▁oxygen	-13348
attled	-13349
▁recruiting	-13350
▁voiced	-13351
▁confused	-13352
▁hook	-13353
arming	-13354
▁venues	-13355
▁junk	-13356
▁Munich	-13357
itionally	-13358
▁theaters	-13359
▁calculated	-13360
▁Aer	-13361
▁portrait	-13362
▁preserv	-13363
▁Political	-13364
▁Ecu	-13365
▁chase	-13366
▁rib	-13367
▁Lower	-13368
▁concerning	-13369
▁Alt	-13370
▁Wade	-13371
▁seeds	-13372
▁stiff	-13373
▁platforms	-13374
▁prestigious	-13375
▁Mediter	-13376
▁fever	-13377
▁Muhammad	-13378
▁Online	-13379
▁artistic	-13380
▁bizarre	-13381
▁receives	-13382
▁televised	-13383
opes	-13384
▁assaulted	-13385
▁orph	-13386
▁nominations	-13387
▁RAF	-13388
▁trace	-13389
▁spokesperson	-13390
▁Sciences	-13391
▁diversity	-13392
uf	-13393
▁solely	-13394
▁feeding	-13395
▁dressing	-13396
▁leaked	-13397
▁Jefferson	-13398
▁avoiding	-13399
▁intelligent	-13400
▁Holmes	-13401
wy	-13402
▁SA	-13403
▁Gram	-13404
▁Traff	-13405
▁inappropriate	-13406
▁reconstruction	-13407
sud	-13408
asse	-13409
▁Mul	-13410
▁BT	-13411
▁meg	-13412
eness	-13413
▁bicyc	-13414
isse	-13415
insured	-13416
▁imported	-13417
▁Mousavi	-13418
▁BAGH	-13419
quir	-13420
▁Glen	-13421
▁Afghans	-13422
▁Citi	-13423
VI	-13424
vet	-13425
▁pile	-13426
▁slugg	-13427
beit	-13428
▁helpful	-13429
▁Nobody	-13430
▁differently	-13431
▁Stearns	-13432
▁CITY	-13433
▁Gran	-13434
▁Son	-13435
▁Moreover	-13436
▁om	-13437
▁unnamed	-13438
▁Globe	-13439
▁CM	-13440
▁rede	-13441
▁Leaders	-13442
▁coroner	-13443
▁manages	-13444
▁170	-13445
▁BAGHDAD	-13446
▁ailing	-13447
oum	-13448
aired	-13449
▁outright	-13450
ritz	-13451
▁commem	-13452
▁Fig	-13453
▁Summer	-13454
ante	-13455
risk	-13456
▁Lancashire	-13457
spoken	-13458
▁flags	-13459
▁Herald	-13460
▁Industrial	-13461
roper	-13462
ulum	-13463
▁unusually	-13464
▁credentials	-13465
▁Berks	-13466
▁advances	-13467
▁CA	-13468
esto	-13469
▁mac	-13470
▁Dmit	-13471
izza	-13472
▁ESP	-13473
▁toilet	-13474
▁borough	-13475
▁Osama	-13476
▁mines	-13477
▁Honduras	-13478
▁Martinez	-13479
aman	-13480
▁Cox	-13481
▁dug	-13482
erling	-13483
acious	-13484
▁pap	-13485
▁Christie	-13486
▁donation	-13487
▁Darren	-13488
▁forests	-13489
tegr	-13490
acent	-13491
▁marathon	-13492
▁Mediterranean	-13493
▁Ossetia	-13494
▁1⁄2	-13495
▁impair	-13496
▁replied	-13497
cover	-13498
▁Wigan	-13499
laughter	-13500
▁Haitian	-13501
▁memoir	-13502
▁poured	-13503
itably	-13504
▁neighbouring	-13505
▁medi	-13506
▁cigarettes	-13507
▁fares	-13508
▁Cho	-13509
▁Province	-13510
▁universe	-13511
▁recycling	-13512
▁Karl	-13513
esterol	-13514
▁landsl	-13515
▁celebrations	-13516
▁Opera	-13517
▁disruption	-13518
▁disast	-13519
▁Quinn	-13520
▁reinfor	-13521
iffe	-13522
▁Saint	-13523
kward	-13524
▁1974	-13525
Pr	-13526
▁Viol	-13527
▁complaining	-13528
entry	-13529
▁Niss	-13530
▁adap	-13531
▁concerts	-13532
▁7-5	-13533
▁aggrav	-13534
▁subway	-13535
nal	-13536
▁alike	-13537
▁Resources	-13538
issance	-13539
▁understands	-13540
▁Wine	-13541
▁Spitzer	-13542
kick	-13543
▁Brooks	-13544
▁myster	-13545
kar	-13546
▁unidentified	-13547
▁puzz	-13548
▁updates	-13549
▁credible	-13550
▁biological	-13551
24	-13552
▁Shaw	-13553
▁tumbled	-13554
▁permitted	-13555
rot	-13556
▁incredibly	-13557
▁ultra	-13558
itime	-13559
HP	-13560
sm	-13561
▁rumors	-13562
▁shifting	-13563
▁repairs	-13564
▁cam	-13565
▁Leno	-13566
▁Mend	-13567
▁Tracy	-13568
hedral	-13569
word	-13570
▁riots	-13571
▁2-2	-13572
▁MTV	-13573
▁Capt	-13574
▁Wool	-13575
▁abol	-13576
ylum	-13577
▁summ	-13578
▁disagree	-13579
▁focuses	-13580
▁wishes	-13581
▁Rut	-13582
▁scare	-13583
quis	-13584
alion	-13585
▁Julie	-13586
▁heroin	-13587
▁literary	-13588
▁mall	-13589
▁Argentine	-13590
▁capped	-13591
▁McCh	-13592
OD	-13593
▁PA	-13594
▁abduct	-13595
▁freshman	-13596
▁60-	-13597
▁Sharp	-13598
▁hills	-13599
rection	-13600
▁400,000	-13601
▁conclude	-13602
18	-13603
▁ridiculous	-13604
▁DU	-13605
▁trades	-13606
▁entrepreneur	-13607
▁manslaughter	-13608
▁Records	-13609
▁Craw	-13610
amount	-13611
▁Kazakh	-13612
aho	-13613
▁rehe	-13614
writing	-13615
▁Regional	-13616
▁indicating	-13617
▁communicate	-13618
▁1978	-13619
▁Nico	-13620
▁Renault	-13621
▁slashed	-13622
▁ly	-13623
▁Kand	-13624
▁parole	-13625
▁Fulham	-13626
▁Phelps	-13627
istical	-13628
▁Smart	-13629
▁Piet	-13630
▁flee	-13631
▁cousin	-13632
▁DA	-13633
forest	-13634
▁Nigerian	-13635
▁implementation	-13636
▁sympathy	-13637
▁conversion	-13638
▁sections	-13639
▁Cairo	-13640
▁whenever	-13641
omy	-13642
east	-13643
▁Being	-13644
▁embark	-13645
▁Od	-13646
andals	-13647
▁hugely	-13648
obe	-13649
▁rans	-13650
▁revealing	-13651
▁Kib	-13652
▁Nashville	-13653
▁Caval	-13654
▁Sale	-13655
▁doses	-13656
▁commentary	-13657
▁PS	-13658
▁murdering	-13659
▁deserves	-13660
▁IA	-13661
▁Gerrard	-13662
▁introducing	-13663
▁grace	-13664
▁shocking	-13665
▁awkward	-13666
▁blogs	-13667
▁casino	-13668
ANG	-13669
▁Resp	-13670
▁Chall	-13671
itively	-13672
▁bother	-13673
ARC	-13674
▁Beth	-13675
▁terrif	-13676
▁Born	-13677
▁stere	-13678
ributes	-13679
generation	-13680
▁7.5	-13681
▁plag	-13682
▁bargain	-13683
▁publishers	-13684
▁grandfather	-13685
▁retained	-13686
▁stranded	-13687
sa	-13688
▁lawmaker	-13689
▁seiz	-13690
▁felony	-13691
▁McChrystal	-13692
▁orbit	-13693
spe	-13694
addy	-13695
▁functions	-13696
▁Lan	-13697
▁wrist	-13698
▁improper	-13699
▁effectiveness	-13700
▁wr	-13701
▁founding	-13702
▁2014	-13703
▁Cand	-13704
▁tense	-13705
▁concentration	-13706
taking	-13707
▁incumbent	-13708
▁addiction	-13709
▁Bath	-13710
▁hometown	-13711
▁clinics	-13712
▁policing	-13713
liner	-13714
▁Mans	-13715
▁Baseball	-13716
▁CDC	-13717
▁timet	-13718
▁wheat	-13719
alid	-13720
▁wash	-13721
arette	-13722
▁whites	-13723
▁picks	-13724
▁CB	-13725
▁congest	-13726
▁Mood	-13727
▁Pengu	-13728
▁Austrian	-13729
▁composite	-13730
26	-13731
▁globally	-13732
▁concentrate	-13733
▁reaches	-13734
▁committees	-13735
▁Linda	-13736
▁Autom	-13737
▁Salt	-13738
▁eased	-13739
▁x	-13740
charge	-13741
▁Southwest	-13742
▁liver	-13743
▁identification	-13744
▁vibr	-13745
▁gardens	-13746
antile	-13747
▁brick	-13748
▁Randy	-13749
▁jeans	-13750
▁loyalty	-13751
▁contempl	-13752
ucked	-13753
▁accl	-13754
▁trio	-13755
▁diplomacy	-13756
▁aiming	-13757
fold	-13758
▁resumed	-13759
▁Jenkins	-13760
▁Iranians	-13761
23	-13762
Mar	-13763
race	-13764
loying	-13765
▁atomic	-13766
▁Thatcher	-13767
▁stretched	-13768
▁Suz	-13769
▁oversee	-13770
▁printed	-13771
▁uncovered	-13772
▁12,000	-13773
▁tipped	-13774
▁evangel	-13775
▁uncomfortable	-13776
▁destro	-13777
▁impover	-13778
core	-13779
▁speeds	-13780
▁partial	-13781
▁fortunes	-13782
▁meantime	-13783
▁grocery	-13784
linary	-13785
▁Nature	-13786
▁Fitz	-13787
frey	-13788
olphins	-13789
▁finale	-13790
▁protein	-13791
▁filmed	-13792
mid	-13793
cats	-13794
books	-13795
▁collections	-13796
▁forthcoming	-13797
▁Moy	-13798
▁Hand	-13799
▁incur	-13800
▁irrit	-13801
▁relaxed	-13802
▁mock	-13803
General	-13804
▁roster	-13805
▁lip	-13806
▁Students	-13807
▁tsunami	-13808
▁pope	-13809
▁Kid	-13810
▁awful	-13811
▁Valent	-13812
▁lethal	-13813
via	-13814
▁Thorn	-13815
▁ambition	-13816
▁2009.	-13817
girl	-13818
▁07	-13819
▁agreeing	-13820
proof	-13821
▁projections	-13822
▁narrowly	-13823
aucus	-13824
▁Final	-13825
▁narrative	-13826
▁slid	-13827
▁Taleban	-13828
▁capability	-13829
quality	-13830
guard	-13831
▁suspend	-13832
▁cater	-13833
▁legislators	-13834
KE	-13835
▁Kraft	-13836
▁monitors	-13837
▁floors	-13838
▁entrepreneurs	-13839
▁automotive	-13840
▁convictions	-13841
▁significance	-13842
itez	-13843
▁assumptions	-13844
una	-13845
▁miners	-13846
▁brave	-13847
pa	-13848
ARP	-13849
respons	-13850
▁Norweg	-13851
▁drift	-13852
▁highs	-13853
erty	-13854
▁lacked	-13855
li	-13856
BUR	-13857
oding	-13858
▁Uigh	-13859
ashvili	-13860
▁bureau	-13861
▁ugly	-13862
quer	-13863
▁Pitt	-13864
▁Rams	-13865
▁Armen	-13866
▁Stafford	-13867
▁0.9	-13868
mm	-13869
ogen	-13870
▁Eve	-13871
▁glasses	-13872
▁reactor	-13873
▁EPA	-13874
▁zones	-13875
▁agrees	-13876
▁holdings	-13877
▁complications	-13878
▁multim	-13879
44	-13880
into	-13881
▁gut	-13882
▁unst	-13883
asting	-13884
▁Guild	-13885
▁Mach	-13886
▁Scar	-13887
▁brink	-13888
archy	-13889
▁honey	-13890
munition	-13891
▁1969	-13892
▁imposing	-13893
▁accommodation	-13894
UC	-13895
▁SUV	-13896
prises	-13897
▁jokes	-13898
▁Somers	-13899
bishop	-13900
▁liability	-13901
▁interactive	-13902
▁cholesterol	-13903
▁Think	-13904
▁4.2	-13905
▁WHO	-13906
▁Croatia	-13907
▁journalism	-13908
▁Henderson	-13909
▁candidacy	-13910
▁empire	-13911
▁pupp	-13912
▁threatens	-13913
▁Age	-13914
▁fren	-13915
▁click	-13916
▁albeit	-13917
oni	-13918
▁topics	-13919
▁Katie	-13920
▁Luke	-13921
▁receip	-13922
▁Cre	-13923
▁militias	-13924
▁Hoy	-13925
▁Muk	-13926
▁teammate	-13927
▁Nevertheless	-13928
▁ecl	-13929
otton	-13930
fr	-13931
retion	-13932
▁propri	-13933
▁stored	-13934
▁contention	-13935
▁singled	-13936
ONG	-13937
lash	-13938
▁locally	-13939
boat	-13940
BIT	-13941
string	-13942
▁similarly	-13943
unct	-13944
▁Digital	-13945
▁Technologies	-13946
▁leak	-13947
▁twins	-13948
▁ripped	-13949
▁Sams	-13950
▁prosecuted	-13951
99	-13952
▁pad	-13953
casters	-13954
▁poster	-13955
▁pockets	-13956
▁Fargo	-13957
▁autonom	-13958
▁gray	-13959
▁Say	-13960
Os	-13961
ILL	-13962
▁100-	-13963
▁brew	-13964
▁Cadbury	-13965
▁damp	-13966
EST	-13967
▁Come	-13968
▁accuse	-13969
▁sticking	-13970
▁Nord	-13971
▁dominate	-13972
▁generating	-13973
▁undergoing	-13974
▁learnt	-13975
▁Celeb	-13976
▁insurgent	-13977
▁inventories	-13978
▁Cant	-13979
▁Hugh	-13980
▁Benitez	-13981
▁issuing	-13982
▁relation	-13983
▁immunity	-13984
▁dread	-13985
▁confronted	-13986
▁wrongdoing	-13987
▁Citiz	-13988
▁chore	-13989
▁Currently	-13990
pen	-13991
▁enforce	-13992
▁rubble	-13993
▁Trafford	-13994
▁mentally	-13995
-21	-13996
▁2008.	-13997
▁Event	-13998
▁relent	-13999
▁deserved	-14000
▁heated	-14001
▁autism	-14002
▁Jessica	-14003
▁grateful	-14004
▁medications	-14005
▁experiencing	-14006
▁bogey	-14007
heads	-14008
immer	-14009
▁limiting	-14010
▁Berkshire	-14011
rowth	-14012
▁Hitler	-14013
▁assisted	-14014
▁supplied	-14015
-18	-14016
▁planted	-14017
▁NL	-14018
▁albums	-14019
▁vaccines	-14020
▁Holland	-14021
▁refugee	-14022
▁specialists	-14023
▁eve	-14024
▁revenge	-14025
▁costing	-14026
▁layoffs	-14027
quartered	-14028
▁proving	-14029
▁FRANC	-14030
▁rubber	-14031
▁iT	-14032
▁cement	-14033
▁incom	-14034
▁admitting	-14035
▁twist	-14036
▁Song	-14037
▁Greens	-14038
▁adverse	-14039
FC	-14040
track	-14041
▁shorter	-14042
▁graduates	-14043
▁ammunition	-14044
▁BR	-14045
shirt	-14046
achi	-14047
▁hem	-14048
▁shifts	-14049
▁occupation	-14050
bles	-14051
▁reversed	-14052
adi	-14053
▁mirror	-14054
▁Modern	-14055
▁Chuck	-14056
▁forensic	-14057
▁Operation	-14058
▁installation	-14059
▁Syrian	-14060
▁partisan	-14061
▁Lucas	-14062
▁villagers	-14063
▁disastrous	-14064
▁Things	-14065
▁Oprah	-14066
▁Dell	-14067
ocus	-14068
▁notable	-14069
▁Minne	-14070
▁seniors	-14071
lete	-14072
▁turbul	-14073
▁examining	-14074
▁4.3	-14075
▁Consumers	-14076
▁impoverished	-14077
▁birdies	-14078
27	-14079
▁Library	-14080
▁1977	-14081
▁dismant	-14082
▁formation	-14083
▁li	-14084
▁Redskins	-14085
▁derivatives	-14086
▁Hos	-14087
▁UAE	-14088
▁regain	-14089
▁wicket	-14090
▁tribes	-14091
28	-14092
▁Tommy	-14093
asha	-14094
ricanes	-14095
▁Romania	-14096
istically	-14097
emi	-14098
▁filming	-14099
▁respective	-14100
▁Kan	-14101
ISCO	-14102
▁Sche	-14103
▁raped	-14104
▁ESPN	-14105
azine	-14106
▁Colts	-14107
uv	-14108
▁precise	-14109
▁Blackwater	-14110
▁embraced	-14111
▁4.4	-14112
unning	-14113
▁blown	-14114
▁contenders	-14115
uctions	-14116
▁depressed	-14117
four	-14118
▁Kyoto	-14119
▁Reyn	-14120
▁smashed	-14121
▁mistaken	-14122
▁Got	-14123
▁Serbian	-14124
▁opted	-14125
▁applying	-14126
▁Arena	-14127
▁Germans	-14128
▁Richmond	-14129
▁plaint	-14130
▁powder	-14131
founder	-14132
▁organisers	-14133
▁syndrome	-14134
▁Strateg	-14135
▁cartoon	-14136
▁delivers	-14137
▁intensity	-14138
▁Minneapolis	-14139
▁kicking	-14140
▁lane	-14141
atra	-14142
oran	-14143
ping	-14144
▁Inside	-14145
▁Rudd	-14146
▁Clegg	-14147
eor	-14148
▁sheep	-14149
▁attackers	-14150
iper	-14151
▁Lisbon	-14152
▁Everything	-14153
▁Anglo	-14154
▁trusted	-14155
▁suite	-14156
▁retiring	-14157
▁boots	-14158
▁likelihood	-14159
▁Continental	-14160
▁campaigners	-14161
▁accomplished	-14162
▁wholly	-14163
▁Kenneth	-14164
▁sket	-14165
▁denying	-14166
nik	-14167
itative	-14168
effective	-14169
▁ash	-14170
lements	-14171
▁Rap	-14172
stock	-14173
▁perf	-14174
duces	-14175
▁artificial	-14176
▁define	-14177
▁Buy	-14178
ierra	-14179
▁Darwin	-14180
▁Video	-14181
▁reiterated	-14182
▁vigil	-14183
lie	-14184
UM	-14185
▁hes	-14186
owner	-14187
▁stunned	-14188
hart	-14189
sted	-14190
▁languages	-14191
▁cigarette	-14192
▁Vincent	-14193
▁considerably	-14194
▁Gust	-14195
▁banker	-14196
▁establishing	-14197
▁lawn	-14198
markets	-14199
▁Pictures	-14200
afi	-14201
▁voc	-14202
ungle	-14203
▁Kyle	-14204
▁patent	-14205
▁Ax	-14206
▁predicting	-14207
▁IV	-14208
▁Gwen	-14209
rove	-14210
▁predomin	-14211
mart	-14212
▁Stoke	-14213
▁Walt	-14214
▁AND	-14215
▁propaganda	-14216
▁lone	-14217
▁Wireless	-14218
▁Isle	-14219
▁laps	-14220
▁critically	-14221
▁Charter	-14222
▁FRANCISCO	-14223
abis	-14224
▁hockey	-14225
▁Mercantile	-14226
ewalk	-14227
▁medicines	-14228
▁separatist	-14229
▁cripp	-14230
▁wickets	-14231
▁batteries	-14232
▁360	-14233
▁banning	-14234
▁ethanol	-14235
ped	-14236
▁acute	-14237
▁Try	-14238
▁bridges	-14239
▁caucuses	-14240
▁Ru	-14241
fish	-14242
▁sheer	-14243
▁applaud	-14244
▁911	-14245
su	-14246
oop	-14247
▁Lex	-14248
▁surgeon	-14249
ORE	-14250
▁VI	-14251
▁persistent	-14252
headed	-14253
▁revival	-14254
▁countryside	-14255
▁memo	-14256
▁succession	-14257
▁Syn	-14258
▁fights	-14259
▁tub	-14260
▁shoulders	-14261
▁Northampton	-14262
▁Blu	-14263
▁2015	-14264
▁cure	-14265
▁guided	-14266
▁recount	-14267
▁objections	-14268
strom	-14269
oug	-14270
fordshire	-14271
bish	-14272
inging	-14273
▁inadequate	-14274
▁midday	-14275
▁sends	-14276
▁brokers	-14277
▁Majority	-14278
▁Revolutionary	-14279
▁103	-14280
▁mum	-14281
▁Youth	-14282
sponsored	-14283
▁Venus	-14284
▁BC	-14285
▁rack	-14286
▁lesser	-14287
▁whis	-14288
▁distress	-14289
cop	-14290
▁tex	-14291
avin	-14292
anski	-14293
▁liberals	-14294
arity	-14295
▁predictions	-14296
▁Organisation	-14297
▁dairy	-14298
▁Mehsud	-14299
▁amateur	-14300
inf	-14301
▁Pil	-14302
▁asylum	-14303
▁coat	-14304
▁Yemeni	-14305
▁homicide	-14306
▁McCann	-14307
▁Tonight	-14308
,200	-14309
▁Suffolk	-14310
inho	-14311
▁Spaniard	-14312
▁Kind	-14313
▁drops	-14314
▁flawed	-14315
▁Devils	-14316
▁trailed	-14317
▁convincing	-14318
grounds	-14319
▁farmer	-14320
ugs	-14321
▁Nissan	-14322
▁culmin	-14323
▁misleading	-14324
▁Barn	-14325
▁Famil	-14326
▁Aviation	-14327
walk	-14328
▁flows	-14329
▁marketplace	-14330
▁cats	-14331
▁appropri	-14332
▁administrator	-14333
▁stronghold	-14334
points	-14335
say	-14336
aunch	-14337
▁sworn	-14338
▁Mickelson	-14339
▁RE	-14340
deal	-14341
▁Idaho	-14342
▁skull	-14343
▁citizenship	-14344
thodox	-14345
▁fleeing	-14346
grat	-14347
atories	-14348
▁secrets	-14349
▁1973	-14350
▁noon	-14351
▁inhab	-14352
▁Jobs	-14353
▁Serena	-14354
▁Samsung	-14355
▁speakers	-14356
▁Mortgage	-14357
▁pants	-14358
▁caucus	-14359
▁broadly	-14360
▁rehabilitation	-14361
▁Norwegian	-14362
▁scattered	-14363
▁ghost	-14364
ortunate	-14365
▁Rol	-14366
▁cardi	-14367
▁4-1	-14368
▁Shakes	-14369
▁Cros	-14370
▁Jun	-14371
▁relied	-14372
▁1940	-14373
▁Boris	-14374
criptions	-14375
▁Moody	-14376
▁SM	-14377
Neal	-14378
▁Glenn	-14379
▁Esc	-14380
▁mechanism	-14381
▁bund	-14382
▁exagger	-14383
▁destinations	-14384
▁05	-14385
iler	-14386
▁Middles	-14387
just	-14388
ecraft	-14389
▁bug	-14390
comes	-14391
berger	-14392
▁Mom	-14393
▁nerve	-14394
ushes	-14395
▁105	-14396
▁wondered	-14397
▁Opel	-14398
▁gesture	-14399
▁Wen	-14400
▁cyn	-14401
arthy	-14402
▁Scots	-14403
ouncing	-14404
▁Europeans	-14405
▁rit	-14406
▁dividends	-14407
ride	-14408
iffer	-14409
▁shrink	-14410
▁underway	-14411
▁isolation	-14412
▁monks	-14413
▁popul	-14414
▁Nathan	-14415
▁racism	-14416
▁migrants	-14417
▁administrators	-14418
▁ol	-14419
▁freezing	-14420
65	-14421
▁Joy	-14422
▁Marcus	-14423
▁grav	-14424
▁sprawling	-14425
mod	-14426
▁Fly	-14427
▁dot	-14428
charged	-14429
▁Finland	-14430
▁richest	-14431
▁compiled	-14432
chi	-14433
▁recl	-14434
▁sang	-14435
▁Daw	-14436
esting	-14437
▁header	-14438
▁Representative	-14439
Sh	-14440
▁4.1	-14441
▁Healthcare	-14442
▁turnaround	-14443
kind	-14444
▁Yale	-14445
▁shrinking	-14446
▁investigator	-14447
▁thres	-14448
▁hungry	-14449
▁aired	-14450
▁fueled	-14451
building	-14452
▁Fashion	-14453
▁bay	-14454
▁linking	-14455
▁Christine	-14456
▁discont	-14457
▁stones	-14458
ulative	-14459
▁Witness	-14460
▁prostate	-14461
▁applicants	-14462
-40	-14463
▁combine	-14464
▁recruited	-14465
▁Room	-14466
An	-14467
▁unlaw	-14468
▁merchand	-14469
▁Bin	-14470
▁dual	-14471
▁wings	-14472
▁achieving	-14473
▁flower	-14474
▁eventual	-14475
▁wise	-14476
▁attraction	-14477
▁overweight	-14478
▁da	-14479
ellation	-14480
▁Kenny	-14481
▁steroids	-14482
▁Finn	-14483
▁lottery	-14484
▁humor	-14485
▁dispar	-14486
▁Silva	-14487
▁cubic	-14488
▁Hav	-14489
▁shelves	-14490
HS	-14491
rieve	-14492
▁weighing	-14493
▁Cov	-14494
olt	-14495
▁Girls	-14496
▁Vermont	-14497
▁tortured	-14498
ulu	-14499
▁caf	-14500
▁zoo	-14501
▁Sanford	-14502
▁extremist	-14503
▁CR	-14504
▁Din	-14505
▁Ecuador	-14506
cience	-14507
▁backdrop	-14508
▁tide	-14509
orrect	-14510
▁Ja	-14511
▁casting	-14512
▁bilateral	-14513
▁deck	-14514
▁crushed	-14515
▁tightening	-14516
sson	-14517
▁advers	-14518
rod	-14519
▁Eh	-14520
▁rebuilding	-14521
▁Liu	-14522
▁floating	-14523
berto	-14524
▁Somerset	-14525
uating	-14526
▁Gross	-14527
▁mode	-14528
urers	-14529
egates	-14530
eta	-14531
▁athlete	-14532
▁posters	-14533
▁QC	-14534
weet	-14535
▁beloved	-14536
▁congrat	-14537
▁exhibit	-14538
▁supervision	-14539
▁endured	-14540
▁influenced	-14541
▁midst	-14542
▁Legal	-14543
▁ounce	-14544
Conn	-14545
▁Captain	-14546
rahim	-14547
home	-14548
raged	-14549
▁exploring	-14550
▁honored	-14551
▁prospective	-14552
▁cycling	-14553
▁hik	-14554
▁shortfall	-14555
▁equities	-14556
otion	-14557
▁satisfaction	-14558
threat	-14559
▁Lah	-14560
▁smok	-14561
▁Fidel	-14562
▁reacted	-14563
▁warrants	-14564
▁participated	-14565
attering	-14566
▁Worth	-14567
peare	-14568
▁IAEA	-14569
▁Felipe	-14570
▁dancers	-14571
▁belonging	-14572
▁unfortunate	-14573
▁Wildlife	-14574
▁threshold	-14575
forward	-14576
▁curric	-14577
▁hood	-14578
raud	-14579
▁Brett	-14580
▁McCarthy	-14581
NE	-14582
imm	-14583
▁justified	-14584
▁EBIT	-14585
▁Treaty	-14586
▁4.6	-14587
▁policeman	-14588
▁cher	-14589
▁Parents	-14590
▁licensed	-14591
▁endless	-14592
▁spill	-14593
▁halfway	-14594
▁insider	-14595
▁setback	-14596
▁thumb	-14597
vic	-14598
▁museums	-14599
orient	-14600
isle	-14601
▁Hey	-14602
▁Ministers	-14603
hic	-14604
▁Clay	-14605
▁todd	-14606
▁solic	-14607
▁plunge	-14608
alin	-14609
obi	-14610
▁interference	-14611
▁tends	-14612
▁pickup	-14613
▁cooperate	-14614
▁preparations	-14615
▁pave	-14616
▁suburbs	-14617
outheastern	-14618
▁shook	-14619
▁committing	-14620
▁Andrews	-14621
▁bounced	-14622
▁solicit	-14623
▁35-	-14624
▁resil	-14625
▁trailing	-14626
▁Harle	-14627
▁accommodate	-14628
issa	-14629
▁Separ	-14630
▁psychiat	-14631
▁Klein	-14632
▁Hassan	-14633
▁Sprint	-14634
▁oversh	-14635
▁scept	-14636
▁outfit	-14637
▁underwent	-14638
gical	-14639
▁historically	-14640
▁Jong	-14641
▁authentic	-14642
irs	-14643
▁Var	-14644
▁Dist	-14645
▁garb	-14646
▁pitches	-14647
▁sanct	-14648
▁detected	-14649
▁NO	-14650
oway	-14651
▁polled	-14652
▁transparent	-14653
▁contender	-14654
▁uninsured	-14655
▁pitching	-14656
urry	-14657
▁conclusions	-14658
eri	-14659
▁lacks	-14660
▁curious	-14661
▁strokes	-14662
gart	-14663
paid	-14664
▁bite	-14665
▁3.9	-14666
▁tuition	-14667
▁Tyler	-14668
dep	-14669
shine	-14670
▁Cruz	-14671
▁Prices	-14672
▁charts	-14673
▁Obviously	-14674
▁Hood	-14675
▁grasp	-14676
enth	-14677
▁submar	-14678
▁united	-14679
▁compassion	-14680
▁Wake	-14681
▁soup	-14682
▁piano	-14683
▁hyper	-14684
▁delicate	-14685
▁Antar	-14686
▁Dian	-14687
▁ignor	-14688
▁downward	-14689
▁sidelines	-14690
▁Shakespeare	-14691
▁Bran	-14692
▁procl	-14693
sterdam	-14694
▁attitudes	-14695
cript	-14696
▁calories	-14697
▁reserved	-14698
▁Drive	-14699
▁Tower	-14700
▁reckless	-14701
uy	-14702
▁1,7	-14703
▁Hungary	-14704
▁Boyle	-14705
▁leap	-14706
▁dresses	-14707
▁lin	-14708
inness	-14709
▁drain	-14710
▁jersey	-14711
29	-14712
▁identifying	-14713
▁catching	-14714
aines	-14715
▁Baron	-14716
▁emotions	-14717
▁beside	-14718
▁Borders	-14719
inked	-14720
▁technological	-14721
rix	-14722
itches	-14723
▁Lance	-14724
▁nasty	-14725
▁stays	-14726
▁prolonged	-14727
▁aggreg	-14728
▁cartel	-14729
▁inflic	-14730
▁graduated	-14731
arez	-14732
▁queen	-14733
▁skeptical	-14734
bian	-14735
fa	-14736
start	-14737
▁slaughter	-14738
usc	-14739
▁ancest	-14740
▁workplace	-14741
▁brig	-14742
stairs	-14743
▁wiped	-14744
▁unfold	-14745
▁Nig	-14746
▁breed	-14747
▁org	-14748
▁neuro	-14749
amination	-14750
▁inability	-14751
▁4.8	-14752
ste	-14753
▁flick	-14754
,600	-14755
▁Webb	-14756
▁cush	-14757
▁parad	-14758
▁Speed	-14759
▁dece	-14760
▁Looking	-14761
▁Lenn	-14762
▁crises	-14763
▁timetable	-14764
rera	-14765
▁stockp	-14766
▁branded	-14767
▁contend	-14768
,000-	-14769
▁225	-14770
▁helm	-14771
▁Ambassador	-14772
▁poly	-14773
▁broadcasting	-14774
▁mit	-14775
▁Midwest	-14776
▁boundaries	-14777
▁laying	-14778
▁prayers	-14779
kirts	-14780
▁Core	-14781
▁sovereignty	-14782
▁gad	-14783
cutting	-14784
▁friendship	-14785
▁freely	-14786
▁Bradford	-14787
▁Championships	-14788
▁alumin	-14789
▁29-	-14790
▁Charg	-14791
▁pursued	-14792
▁disability	-14793
▁duo	-14794
▁enables	-14795
▁borrowed	-14796
▁Freder	-14797
uffle	-14798
▁Belt	-14799
▁outskirts	-14800
buster	-14801
▁betray	-14802
▁basement	-14803
▁Button	-14804
▁Hod	-14805
▁IRA	-14806
▁Obser	-14807
▁dated	-14808
ea	-14809
▁copyright	-14810
heed	-14811
▁Dim	-14812
▁advertisers	-14813
▁evol	-14814
▁Bert	-14815
▁Rico	-14816
ructive	-14817
▁Area	-14818
▁earliest	-14819
bes	-14820
digit	-14821
uis	-14822
asant	-14823
▁soap	-14824
avour	-14825
▁Heat	-14826
▁CCTV	-14827
▁arrives	-14828
▁throat	-14829
▁passionate	-14830
▁separately	-14831
eu	-14832
▁ther	-14833
▁retal	-14834
▁tasks	-14835
▁supposedly	-14836
cely	-14837
▁ears	-14838
▁briefed	-14839
▁ordering	-14840
▁Trading	-14841
▁decides	-14842
rafts	-14843
irmed	-14844
▁worthy	-14845
▁dishes	-14846
▁subjected	-14847
think	-14848
▁Urban	-14849
▁seize	-14850
ugar	-14851
▁Immigr	-14852
▁athletic	-14853
runner	-14854
▁Holder	-14855
▁bounce	-14856
▁Chand	-14857
▁jihad	-14858
▁tighter	-14859
▁sights	-14860
▁Gallery	-14861
[...]
