<unk>	0
<s>	0
</s>	0
▁t	-0
▁a	-1
he	-2
in	-3
er	-4
▁the	-5
on	-6
▁s	-7
re	-8
▁,	-9
▁w	-10
en	-11
▁.	-12
▁o	-13
at	-14
▁c	-15
an	-16
ed	-17
or	-18
▁b	-19
it	-20
▁f	-21
es	-22
is	-23
▁p	-24
ing	-25
ar	-26
▁in	-27
▁to	-28
al	-29
▁an	-30
ou	-31
▁of	-32
▁h	-33
▁m	-34
as	-35
ic	-36
▁d	-37
▁and	-38
om	-39
il	-40
ion	-41
▁th	-42
▁l	-43
ent	-44
id	-45
▁T	-46
▁re	-47
▁n	-48
el	-49
ro	-50
▁'	-51
st	-52
ec	-53
▁A	-54
ay	-55
▁"	-56
▁S	-57
ut	-58
et	-59
▁g	-60
ad	-61
le	-62
▁on	-63
ve	-64
▁e	-65
ac	-66
▁for	-67
▁M	-68
ol	-69
ot	-70
▁C	-71
▁I	-72
am	-73
ur	-74
▁be	-75
ig	-76
ly	-77
▁he	-78
ver	-79
im	-80
▁that	-81
▁B	-82
ir	-83
▁st	-84
ow	-85
ter	-86
▁The	-87
un	-88
▁is	-89
us	-90
ill	-91
▁wh	-92
ation	-93
ith	-94
▁it	-95
ers	-96
▁with	-97
ce	-98
▁sa	-99
▁was	-100
▁P	-101
ld	-102
▁as	-103
▁at	-104
▁H	-105
▁1	-106
▁W	-107
▁r	-108
os	-109
▁y	-110
▁said	-111
est	-112
em	-113
ear	-114
▁al	-115
ch	-116
ul	-117
▁con	-118
oun	-119
her	-120
▁D	-121
ts	-122
th	-123
▁2	-124
ore	-125
▁fr	-126
▁R	-127
▁F	-128
▁pro	-129
and	-130
ain	-131
ag	-132
▁com	-133
▁ha	-134
▁N	-135
ri	-136
ak	-137
pp	-138
res	-139
▁by	-140
ew	-141
▁G	-142
igh	-143
ate	-144
▁L	-145
ment	-146
op	-147
▁from	-148
if	-149
▁are	-150
▁his	-151
ect	-152
ould	-153
▁has	-154
▁have	-155
▁ex	-156
00	-157
▁v	-158
▁-	-159
▁O	-160
▁sh	-161
ess	-162
▁su	-163
our	-164
ort	-165
▁ch	-166
▁J	-167
▁E	-168
▁U	-169
▁de	-170
ist	-171
ies	-172
ast	-173
ity	-174
oc	-175
ab	-176
od	-177
▁not	-178
end	-179
all	-180
qu	-181
art	-182
▁un	-183
iv	-184
ive	-185
um	-186
ial	-187
ra	-188
▁le	-189
gh	-190
ee	-191
ard	-192
ud	-193
ack	-194
se	-195
ct	-196
▁pl	-197
up	-198
out	-199
ust	-200
▁or	-201
day	-202
▁)	-203
▁(	-204
▁will	-205
ost	-206
▁sp	-207
ight	-208
ich	-209
▁who	-210
▁ab	-211
ome	-212
▁go	-213
▁In	-214
are	-215
ant	-216
▁j	-217
▁k	-218
ice	-219
▁off	-220
▁year	-221
▁had	-222
ap	-223
ere	-224
ell	-225
▁wor	-226
▁whe	-227
▁--	-228
▁their	-229
ff	-230
ge	-231
ok	-232
▁per	-233
▁were	-234
▁se	-235
▁but	-236
▁they	-237
ong	-238
▁comp	-239
ry	-240
▁K	-241
ans	-242
▁ag	-243
▁been	-244
▁this	-245
ound	-246
ther	-247
ough	-248
▁out	-249
ure	-250
▁ad	-251
▁its	-252
ire	-253
mer	-254
ber	-255
▁which	-256
▁more	-257
fter	-258
ions	-259
der	-260
▁cl	-261
ia	-262
▁St	-263
ous	-264
ine	-265
▁would	-266
▁up	-267
ep	-268
▁res	-269
▁inc	-270
ary	-271
▁ne	-272
▁ac	-273
▁tr	-274
▁Th	-275
ide	-276
ie	-277
ub	-278
▁exp	-279
▁ar	-280
▁about	-281
one	-282
▁rep	-283
▁Ch	-284
▁3	-285
▁after	-286
▁we	-287
ated	-288
▁200	-289
▁over	-290
▁all	-291
▁int	-292
age	-293
ime	-294
ik	-295
ark	-296
wo	-297
▁man	-298
▁pr	-299
▁one	-300
ue	-301
ign	-302
▁cont	-303
▁:	-304
so	-305
ip	-306
ame	-307
▁new	-308
▁rec	-309
ident	-310
ence	-311
▁than	-312
ord	-313
lo	-314
uc	-315
▁$	-316
ian	-317
own	-318
ount	-319
ally	-320
ks	-321
▁do	-322
▁can	-323
act	-324
▁An	-325
ake	-326
▁fir	-327
▁her	-328
ays	-329
▁pol	-330
old	-331
use	-332
▁pe	-333
ose	-334
ven	-335
ond	-336
ors	-337
▁It	-338
▁im	-339
ail	-340
▁dis	-341
▁en	-342
▁also	-343
ree	-344
▁He	-345
ations	-346
▁you	-347
ance	-348
ace	-349
ress	-350
▁two	-351
ile	-352
▁fin	-353
▁me	-354
▁Y	-355
ren	-356
ely	-357
illion	-358
▁when	-359
▁qu	-360
▁sc	-361
ople	-362
ass	-363
▁other	-364
▁app	-365
ite	-366
lic	-367
av	-368
ib	-369
anc	-370
ish	-371
▁part	-372
▁first	-373
rit	-374
ates	-375
wn	-376
▁so	-377
hed	-378
▁bec	-379
▁people	-380
og	-381
ase	-382
▁gr	-383
orm	-384
▁last	-385
▁she	-386
▁4	-387
▁ro	-388
▁But	-389
▁pre	-390
▁V	-391
vern	-392
iz	-393
able	-394
oin	-395
oll	-396
▁sec	-397
ical	-398
▁into	-399
man	-400
very	-401
erv	-402
amp	-403
▁Mr	-404
▁acc	-405
ild	-406
ens	-407
ade	-408
ning	-409
▁op	-410
▁inv	-411
▁19	-412
ick	-413
ach	-414
▁could	-415
▁5	-416
ict	-417
▁some	-418
▁att	-419
ition	-420
ru	-421
▁lo	-422
ents	-423
▁lik	-424
▁us	-425
▁inter	-426
vel	-427
▁work	-428
▁them	-429
ang	-430
▁years	-431
▁there	-432
▁Un	-433
▁dec	-434
aw	-435
ult	-436
vernment	-437
cent	-438
lud	-439
▁wee	-440
ank	-441
▁time	-442
▁?	-443
reat	-444
▁imp	-445
▁no	-446
urn	-447
iss	-448
▁mon	-449
ational	-450
arg	-451
▁lead	-452
▁offic	-453
▁ind	-454
resident	-455
oup	-456
itt	-457
ings	-458
▁el	-459
ey	-460
ov	-461
▁Al	-462
enc	-463
ause	-464
ton	-465
ft	-466
▁comm	-467
▁bo	-468
▁him	-469
ory	-470
▁again	-471
▁any	-472
▁cons	-473
ob	-474
▁includ	-475
▁count	-476
▁co	-477
vers	-478
pt	-479
ind	-480
ublic	-481
ons	-482
000	-483
ious	-484
▁government	-485
▁percent	-486
ets	-487
▁under	-488
▁am	-489
▁compan	-490
▁just	-491
form	-492
▁play	-493
▁if	-494
land	-495
▁kn	-496
,000	-497
▁te	-498
ied	-499
red	-500
fore	-501
▁6	-502
meric	-503
ash	-504
▁back	-505
ected	-506
ater	-507
▁New	-508
fer	-509
ince	-510
▁bet	-511
rough	-512
▁As	-513
▁what	-514
▁only	-515
ues	-516
ited	-517
▁three	-518
▁most	-519
▁month	-520
▁cr	-521
▁million	-522
▁act	-523
▁report	-524
▁Americ	-525
als	-526
▁ear	-527
led	-528
row	-529
▁Fr	-530
ama	-531
ities	-532
▁We	-533
hn	-534
▁week	-535
rop	-536
ock	-537
▁say	-538
▁reg	-539
▁before	-540
▁down	-541
ink	-542
oss	-543
▁mark	-544
▁rem	-545
we	-546
uring	-547
▁get	-548
ters	-549
ise	-550
▁cent	-551
▁car	-552
onom	-553
ert	-554
▁20	-555
▁like	-556
▁now	-557
▁add	-558
▁supp	-559
▁bl	-560
▁bu	-561
▁because	-562
ased	-563
ating	-564
▁des	-565
uch	-566
▁ec	-567
▁Wh	-568
ath	-569
▁min	-570
ood	-571
▁ret	-572
▁call	-573
▁end	-574
other	-575
▁how	-576
▁show	-577
gr	-578
les	-579
▁invest	-580
▁Ob	-581
air	-582
▁ass	-583
lin	-584
▁7	-585
und	-586
ement	-587
ix	-588
ool	-589
ices	-590
▁;	-591
ier	-592
▁where	-593
▁did	-594
▁And	-595
▁hel	-596
ting	-597
▁being	-598
▁against	-599
▁sur	-600
▁em	-601
ved	-602
ork	-603
orn	-604
ouse	-605
ward	-606
▁10	-607
▁rel	-608
▁may	-609
▁official	-610
▁world	-611
▁econom	-612
ove	-613
▁Obama	-614
son	-615
ble	-616
aking	-617
▁def	-618
eral	-619
▁str	-620
▁help	-621
yst	-622
▁ins	-623
▁made	-624
du	-625
▁many	-626
▁four	-627
▁through	-628
▁br	-629
ower	-630
▁fl	-631
xt	-632
alth	-633
▁even	-634
▁need	-635
tern	-636
▁home	-637
▁ev	-638
ife	-639
ection	-640
oth	-641
▁our	-642
ily	-643
▁long	-644
▁fe	-645
ital	-646
▁mil	-647
▁since	-648
▁On	-649
▁Com	-650
▁serv	-651
▁own	-652
▁Re	-653
▁plan	-654
▁see	-655
▁/	-656
▁told	-657
gan	-658
▁second	-659
▁make	-660
its	-661
ason	-662
▁should	-663
▁while	-664
ros	-665
▁prov	-666
▁war	-667
▁bus	-668
ful	-669
▁poin	-670
▁says	-671
rib	-672
year	-673
gg	-674
▁8	-675
urs	-676
ms	-677
▁such	-678
▁group	-679
ments	-680
ared	-681
ual	-682
ric	-683
ax	-684
▁Ar	-685
▁company	-686
▁high	-687
▁bel	-688
▁£	-689
ced	-690
ists	-691
▁ann	-692
▁set	-693
▁run	-694
ange	-695
▁those	-696
▁win	-697
cc	-698
▁fam	-699
uss	-700
iness	-701
orts	-702
ures	-703
hen	-704
ah	-705
iew	-706
ision	-707
▁Is	-708
ling	-709
▁child	-710
▁law	-711
ives	-712
▁En	-713
ember	-714
▁Mon	-715
ina	-716
▁well	-717
ics	-718
ned	-719
▁found	-720
ween	-721
▁cour	-722
rat	-723
▁much	-724
▁Mar	-725
▁my	-726
▁sl	-727
▁eff	-728
▁stud	-729
▁Brit	-730
ecut	-731
▁This	-732
▁then	-733
▁sm	-734
▁country	-735
chool	-736
▁between	-737
▁take	-738
min	-739
▁public	-740
▁look	-741
▁still	-742
▁gu	-743
▁sign	-744
▁including	-745
ather	-746
ered	-747
▁Jo	-748
▁way	-749
▁start	-750
way	-751
▁cap	-752
▁Sh	-753
elf	-754
▁sub	-755
▁state	-756
duc	-757
▁aut	-758
imes	-759
outh	-760
▁team	-761
▁ph	-762
ility	-763
ction	-764
▁US	-765
▁during	-766
▁police	-767
▁near	-768
hip	-769
▁president	-770
▁Af	-771
au	-772
▁Sp	-773
ull	-774
ving	-775
▁disc	-776
▁next	-777
iel	-778
hes	-779
▁your	-780
ex	-781
eb	-782
aj	-783
ants	-784
▁9	-785
▁day	-786
▁every	-787
nes	-788
▁ter	-789
lear	-790
io	-791
oy	-792
med	-793
▁They	-794
▁num	-795
▁med	-796
ised	-797
ister	-798
▁Mc	-799
▁big	-800
▁vot	-801
▁head	-802
ular	-803
▁prop	-804
▁gen	-805
▁det	-806
ush	-807
ady	-808
ph	-809
▁incre	-810
▁United	-811
ged	-812
arter	-813
▁tri	-814
▁want	-815
ird	-816
▁polit	-817
▁business	-818
ef	-819
ted	-820
▁dep	-821
ev	-822
▁wom	-823
az	-824
ug	-825
▁ent	-826
orth	-827
alk	-828
olog	-829
irect	-830
ency	-831
ty	-832
erson	-833
ible	-834
▁ser	-835
iday	-836
ll	-837
▁resp	-838
▁conf	-839
ames	-840
▁dif	-841
ner	-842
pped	-843
▁market	-844
▁pay	-845
▁kill	-846
ave	-847
ative	-848
▁sal	-849
bers	-850
pr	-851
▁camp	-852
▁care	-853
ands	-854
▁billion	-855
oney	-856
▁cur	-857
▁bro	-858
ret	-859
▁At	-860
ief	-861
▁former	-862
▁good	-863
ivers	-864
ean	-865
ording	-866
loy	-867
ever	-868
velop	-869
cer	-870
ont	-871
ury	-872
ross	-873
▁Rep	-874
▁know	-875
▁milit	-876
emoc	-877
oot	-878
▁open	-879
ific	-880
▁For	-881
▁ext	-882
▁health	-883
▁iss	-884
ollow	-885
▁stat	-886
istan	-887
▁recent	-888
▁very	-889
▁though	-890
▁don	-891
▁oper	-892
per	-893
▁del	-894
istr	-895
gram	-896
▁Eu	-897
▁school	-898
atch	-899
▁five	-900
▁President	-901
▁officials	-902
ines	-903
▁won	-904
ystem	-905
▁think	-906
▁American	-907
com	-908
eth	-909
gy	-910
▁She	-911
osed	-912
▁leg	-913
▁left	-914
▁news	-915
▁around	-916
▁Ind	-917
▁far	-918
atur	-919
ars	-920
▁put	-921
▁attack	-922
▁cost	-923
▁pass	-924
▁financ	-925
▁12	-926
▁Sun	-927
▁Le	-928
▁prot	-929
▁another	-930
▁adv	-931
▁opp	-932
▁reported	-933
▁fil	-934
line	-935
▁contin	-936
▁There	-937
▁tra	-938
▁follow	-939
▁air	-940
ending	-941
att	-942
▁15	-943
▁support	-944
alf	-945
▁both	-946
used	-947
▁Monday	-948
▁ris	-949
ained	-950
▁Europ	-951
▁pri	-952
▁direct	-953
▁does	-954
▁job	-955
▁loc	-956
▁fore	-957
ger	-958
▁mem	-959
▁inst	-960
▁Wed	-961
aim	-962
uesday	-963
▁Tuesday	-964
▁..	-965
▁these	-966
ves	-967
oci	-968
hor	-969
▁Wednes	-970
▁program	-971
▁Wednesday	-972
▁rest	-973
ness	-974
ral	-975
▁months	-976
eep	-977
▁spec	-978
▁Friday	-979
▁York	-980
ution	-981
ces	-982
▁Sc	-983
▁vis	-984
▁six	-985
ield	-986
ajor	-987
▁money	-988
▁top	-989
▁John	-990
▁spok	-991
▁manag	-992
ursday	-993
▁Thursday	-994
emocrat	-995
▁11	-996
▁develop	-997
ott	-998
▁same	-999
▁going	-1000
--	-1001
▁belie	-1002
▁children	-1003
▁system	-1004
ism	-1005
earch	-1006
ran	-1007
▁dri	-1008
let	-1009
▁ob	-1010
▁That	-1011
▁%	-1012
▁meet	-1013
▁cut	-1014
▁inf	-1015
▁deal	-1016
▁If	-1017
get	-1018
ient	-1019
▁bank	-1020
▁rele	-1021
▁30	-1022
els	-1023
iam	-1024
ys	-1025
▁Z	-1026
▁allow	-1027
▁trans	-1028
▁announ	-1029
▁season	-1030
▁few	-1031
▁too	-1032
▁fund	-1033
▁prof	-1034
▁right	-1035
ights	-1036
ense	-1037
▁che	-1038
urity	-1039
▁game	-1040
ries	-1041
▁pres	-1042
ept	-1043
▁tax	-1044
ired	-1045
▁power	-1046
uck	-1047
rol	-1048
▁prev	-1049
▁dem	-1050
rent	-1051
ished	-1052
ects	-1053
▁cre	-1054
aren	-1055
▁number	-1056
ins	-1057
pl	-1058
▁use	-1059
▁...	-1060
▁mov	-1061
▁used	-1062
aign	-1063
▁Democrat	-1064
▁grow	-1065
▁major	-1066
▁real	-1067
▁proble	-1068
▁financial	-1069
ually	-1070
ploy	-1071
ale	-1072
▁est	-1073
▁life	-1074
ley	-1075
▁find	-1076
▁deb	-1077
over	-1078
▁night	-1079
▁quarter	-1080
▁Bar	-1081
▁hop	-1082
▁days	-1083
ains	-1084
▁fac	-1085
▁record	-1086
raq	-1087
▁sever	-1088
▁claim	-1089
▁person	-1090
▁Bro	-1091
▁try	-1092
ention	-1093
ute	-1094
▁Iraq	-1095
▁Comm	-1096
▁prom	-1097
▁less	-1098
▁family	-1099
ission	-1100
▁rece	-1101
▁ra	-1102
▁tak	-1103
▁AP	-1104
▁called	-1105
▁Q	-1106
▁Eng	-1107
iver	-1108
▁ref	-1109
▁expected	-1110
▁par	-1111
▁past	-1112
ody	-1113
▁China	-1114
▁campaign	-1115
▁according	-1116
▁sw	-1117
ession	-1118
▁dr	-1119
▁third	-1120
▁return	-1121
▁turn	-1122
▁av	-1123
▁bre	-1124
te	-1125
ering	-1126
ages	-1127
▁best	-1128
▁indust	-1129
▁hand	-1130
▁giv	-1131
▁States	-1132
▁intern	-1133
ior	-1134
▁som	-1135
▁might	-1136
ured	-1137
arge	-1138
▁vict	-1139
▁place	-1140
▁ban	-1141
▁199	-1142
ards	-1143
▁Pol	-1144
▁build	-1145
▁inform	-1146
▁ask	-1147
▁Min	-1148
▁city	-1149
▁ed	-1150
▁sim	-1151
▁requ	-1152
▁2008	-1153
▁come	-1154
ten	-1155
ington	-1156
▁least	-1157
▁great	-1158
▁took	-1159
▁poss	-1160
▁appro	-1161
lob	-1162
▁test	-1163
ject	-1164
▁spe	-1165
less	-1166
▁Man	-1167
ized	-1168
▁later	-1169
▁How	-1170
til	-1171
▁South	-1172
▁beh	-1173
osp	-1174
ians	-1175
▁case	-1176
▁early	-1177
▁Sunday	-1178
▁post	-1179
▁came	-1180
view	-1181
▁Sen	-1182
▁exper	-1183
ract	-1184
reen	-1185
ience	-1186
▁main	-1187
▁ago	-1188
▁points	-1189
cept	-1190
echn	-1191
▁half	-1192
ck	-1193
▁coll	-1194
ham	-1195
▁interest	-1196
ai	-1197
▁aff	-1198
▁2009	-1199
ready	-1200
ued	-1201
▁quest	-1202
.5	-1203
▁!	-1204
▁18	-1205
ondon	-1206
▁mod	-1207
side	-1208
▁move	-1209
▁fact	-1210
ison	-1211
▁death	-1212
▁seem	-1213
▁0	-1214
ately	-1215
▁201	-1216
▁without	-1217
ially	-1218
sh	-1219
▁author	-1220
▁court	-1221
▁pop	-1222
▁fail	-1223
▁military	-1224
ived	-1225
▁small	-1226
▁pat	-1227
ided	-1228
▁political	-1229
▁produc	-1230
ched	-1231
▁men	-1232
▁commun	-1233
▁Republic	-1234
artment	-1235
ederal	-1236
ony	-1237
▁Br	-1238
▁already	-1239
augh	-1240
▁spokes	-1241
▁Car	-1242
▁differ	-1243
▁House	-1244
▁hard	-1245
▁investig	-1246
▁produ	-1247
ittle	-1248
alif	-1249
▁economic	-1250
▁Gr	-1251
orp	-1252
▁British	-1253
aining	-1254
ases	-1255
▁happ	-1256
-1	-1257
▁art	-1258
usp	-1259
osition	-1260
co	-1261
me	-1262
▁each	-1263
▁trad	-1264
ety	-1265
▁Be	-1266
▁Russ	-1267
▁agre	-1268
ke	-1269
ored	-1270
▁charg	-1271
▁col	-1272
▁among	-1273
▁Bl	-1274
▁Ro	-1275
▁25	-1276
▁execut	-1277
▁companies	-1278
▁sent	-1279
▁until	-1280
▁whether	-1281
rest	-1282
▁current	-1283
une	-1284
▁keep	-1285
oung	-1286
▁Pro	-1287
ising	-1288
▁fall	-1289
▁never	-1290
aturday	-1291
▁share	-1292
ator	-1293
▁Saturday	-1294
by	-1295
aid	-1296
iversity	-1297
▁inj	-1298
▁London	-1299
cl	-1300
▁members	-1301
▁polic	-1302
▁Afgh	-1303
▁susp	-1304
▁Sec	-1305
cess	-1306
▁elect	-1307
▁away	-1308
▁Ge	-1309
▁hour	-1310
▁today	-1311
▁North	-1312
▁coun	-1313
▁ca	-1314
▁press	-1315
▁Wash	-1316
▁added	-1317
▁Chr	-1318
ened	-1319
▁larg	-1320
reet	-1321
▁13	-1322
▁crit	-1323
ides	-1324
▁14	-1325
▁women	-1326
▁sk	-1327
ertain	-1328
▁Ad	-1329
▁Co	-1330
lier	-1331
▁stand	-1332
ended	-1333
▁appe	-1334
▁economy	-1335
▁Afghan	-1336
▁Pr	-1337
▁here	-1338
▁cond	-1339
lobal	-1340
▁McC	-1341
▁Washington	-1342
ike	-1343
▁chief	-1344
▁consid	-1345
▁buy	-1346
▁several	-1347
▁killed	-1348
▁information	-1349
▁security	-1350
▁little	-1351
▁Go	-1352
▁hit	-1353
▁short	-1354
ically	-1355
▁So	-1356
▁Col	-1357
▁clear	-1358
▁net	-1359
enn	-1360
ops	-1361
▁16	-1362
▁better	-1363
self	-1364
ots	-1365
▁old	-1366
▁You	-1367
rug	-1368
▁&	-1369
▁Dav	-1370
▁got	-1371
▁cred	-1372
▁doc	-1373
iol	-1374
ends	-1375
▁May	-1376
▁party	-1377
▁concer	-1378
▁level	-1379
▁No	-1380
▁Jan	-1381
▁bill	-1382
▁partic	-1383
gin	-1384
ump	-1385
▁local	-1386
▁leaders	-1387
▁hold	-1388
▁hom	-1389
▁expl	-1390
▁house	-1391
▁change	-1392
▁Ab	-1393
▁invol	-1394
aff	-1395
▁national	-1396
▁techn	-1397
▁visit	-1398
cil	-1399
▁hig	-1400
▁perform	-1401
▁equ	-1402
ones	-1403
to	-1404
▁fell	-1405
ON	-1406
▁ben	-1407
▁Intern	-1408
▁Ass	-1409
▁miss	-1410
▁17	-1411
ergy	-1412
▁likely	-1413
ium	-1414
▁mid	-1415
▁mar	-1416
▁Cl	-1417
▁become	-1418
ology	-1419
▁sales	-1420
ults	-1421
▁hist	-1422
rael	-1423
▁sing	-1424
hern	-1425
idence	-1426
app	-1427
▁employ	-1428
▁free	-1429
▁sold	-1430
▁Iran	-1431
▁fut	-1432
▁hum	-1433
▁let	-1434
▁final	-1435
▁organ	-1436
▁All	-1437
▁Ger	-1438
▁2007	-1439
▁Tr	-1440
▁succ	-1441
ably	-1442
▁rul	-1443
ators	-1444
▁Wor	-1445
eg	-1446
▁join	-1447
▁sit	-1448
rew	-1449
▁area	-1450
▁priv	-1451
▁taken	-1452
▁West	-1453
▁prices	-1454
▁Ph	-1455
▁Israel	-1456
ann	-1457
acy	-1458
aun	-1459
BC	-1460
▁National	-1461
▁One	-1462
▁announced	-1463
▁oil	-1464
▁across	-1465
port	-1466
▁America	-1467
▁viol	-1468
▁When	-1469
istration	-1470
▁went	-1471
verage	-1472
▁Cent	-1473
▁young	-1474
sw	-1475
my	-1476
▁sol	-1477
ference	-1478
▁Or	-1479
▁must	-1480
▁fri	-1481
▁val	-1482
head	-1483
▁import	-1484
▁50	-1485
▁book	-1486
▁control	-1487
▁tel	-1488
uters	-1489
akes	-1490
▁making	-1491
ech	-1492
▁give	-1493
▁loss	-1494
▁strong	-1495
▁industry	-1496
inal	-1497
ague	-1498
▁March	-1499
eter	-1500
▁sum	-1501
off	-1502
▁100	-1503
ats	-1504
▁Dep	-1505
ggest	-1506
itions	-1507
ror	-1508
▁plans	-1509
eng	-1510
▁suggest	-1511
▁1.	-1512
ees	-1513
▁office	-1514
▁lost	-1515
▁Con	-1516
utes	-1517
▁low	-1518
▁cust	-1519
urch	-1520
stit	-1521
▁England	-1522
aring	-1523
▁late	-1524
▁countries	-1525
▁global	-1526
▁dist	-1527
▁held	-1528
ize	-1529
▁Res	-1530
▁Ex	-1531
▁His	-1532
▁success	-1533
▁appear	-1534
aper	-1535
▁capital	-1536
▁point	-1537
▁form	-1538
▁admin	-1539
▁drug	-1540
▁enough	-1541
▁With	-1542
▁list	-1543
ern	-1544
▁fur	-1545
hest	-1546
bo	-1547
▁mus	-1548
▁seen	-1549
▁chang	-1550
most	-1551
▁weeks	-1552
▁given	-1553
▁close	-1554
atter	-1555
▁arrest	-1556
▁doll	-1557
hers	-1558
▁times	-1559
▁impro	-1560
▁full	-1561
▁service	-1562
though	-1563
▁met	-1564
▁along	-1565
▁order	-1566
▁line	-1567
▁view	-1568
ways	-1569
▁Clin	-1570
▁international	-1571
▁Geor	-1572
▁consum	-1573
▁po	-1574
▁World	-1575
▁compet	-1576
ball	-1577
▁Mich	-1578
▁European	-1579
▁eas	-1580
▁sen	-1581
▁fire	-1582
thing	-1583
omb	-1584
uly	-1585
omin	-1586
▁Bush	-1587
uel	-1588
▁ant	-1589
iving	-1590
▁threat	-1591
▁really	-1592
ourn	-1593
▁statement	-1594
▁dou	-1595
▁pros	-1596
▁jud	-1597
▁Dec	-1598
raw	-1599
ron	-1600
ait	-1601
▁es	-1602
ified	-1603
▁died	-1604
▁design	-1605
▁known	-1606
ospital	-1607
▁decision	-1608
▁Har	-1609
▁led	-1610
▁alle	-1611
ething	-1612
▁anal	-1613
▁services	-1614
▁working	-1615
ively	-1616
▁saying	-1617
▁insur	-1618
▁writ	-1619
▁water	-1620
▁conv	-1621
▁stri	-1622
▁earlier	-1623
▁leader	-1624
pite	-1625
▁spokesman	-1626
▁Afric	-1627
ffic	-1628
inc	-1629
▁Ang	-1630
▁future	-1631
▁fig	-1632
▁University	-1633
▁After	-1634
ares	-1635
ounds	-1636
yp	-1637
▁Pak	-1638
▁Pal	-1639
ried	-1640
▁gener	-1641
▁UK	-1642
▁region	-1643
▁election	-1644
▁cand	-1645
▁Sept	-1646
ming	-1647
▁City	-1648
ival	-1649
▁saf	-1650
▁event	-1651
▁Fl	-1652
▁risk	-1653
▁nation	-1654
ances	-1655
iod	-1656
▁Am	-1657
▁sell	-1658
▁site	-1659
ential	-1660
▁having	-1661
▁Clinton	-1662
▁tal	-1663
▁Pakistan	-1664
be	-1665
▁face	-1666
imate	-1667
▁federal	-1668
▁director	-1669
▁pot	-1670
▁previous	-1671
aps	-1672
▁ve	-1673
▁emer	-1674
▁mor	-1675
▁complet	-1676
▁Aust	-1677
▁Police	-1678
▁Calif	-1679
aul	-1680
▁taking	-1681
▁whose	-1682
▁talk	-1683
▁cris	-1684
▁Christ	-1685
▁something	-1686
▁nearly	-1687
▁40	-1688
itted	-1689
▁treat	-1690
▁food	-1691
▁others	-1692
▁ide	-1693
▁Britain	-1694
▁further	-1695
yn	-1696
▁behind	-1697
amed	-1698
▁meeting	-1699
▁fight	-1700
▁credit	-1701
iron	-1702
▁once	-1703
here	-1704
▁read	-1705
▁bar	-1706
▁June	-1707
AS	-1708
ring	-1709
apan	-1710
gress	-1711
▁German	-1712
▁Can	-1713
ler	-1714
ruct	-1715
▁char	-1716
▁price	-1717
pan	-1718
-2	-1719
▁hours	-1720
▁began	-1721
▁Reuters	-1722
▁special	-1723
▁side	-1724
▁neg	-1725
wards	-1726
▁What	-1727
▁due	-1728
▁Cong	-1729
▁pub	-1730
▁Will	-1731
work	-1732
▁Gen	-1733
▁result	-1734
▁El	-1735
pril	-1736
▁feel	-1737
▁seven	-1738
▁ball	-1739
▁almost	-1740
▁trying	-1741
ying	-1742
ead	-1743
IN	-1744
ients	-1745
af	-1746
▁Japan	-1747
aker	-1748
▁able	-1749
▁different	-1750
▁games	-1751
ulation	-1752
▁2006	-1753
▁State	-1754
ata	-1755
aged	-1756
empt	-1757
▁asked	-1758
osing	-1759
▁April	-1760
▁candid	-1761
hel	-1762
▁21	-1763
uary	-1764
▁Brown	-1765
ds	-1766
irl	-1767
▁bas	-1768
lex	-1769
▁David	-1770
▁period	-1771
▁question	-1772
▁often	-1773
mp	-1774
▁foot	-1775
▁rate	-1776
ille	-1777
▁increase	-1778
▁24	-1779
▁Some	-1780
ael	-1781
▁Bank	-1782
▁woman	-1783
pping	-1784
▁lot	-1785
ittee	-1786
▁dead	-1787
▁tot	-1788
▁yet	-1789
▁eng	-1790
ences	-1791
retary	-1792
▁Gu	-1793
crib	-1794
▁bor	-1795
▁Afghanistan	-1796
▁effect	-1797
▁infl	-1798
▁series	-1799
▁banks	-1800
▁policy	-1801
▁believe	-1802
▁activ	-1803
▁issue	-1804
▁reb	-1805
▁avail	-1806
▁process	-1807
▁laun	-1808
▁meas	-1809
ene	-1810
▁Med	-1811
▁lim	-1812
▁didn	-1813
▁star	-1814
▁land	-1815
ocial	-1816
▁executive	-1817
▁following	-1818
sel	-1819
▁custom	-1820
▁important	-1821
ivil	-1822
ories	-1823
▁vote	-1824
fic	-1825
▁benef	-1826
▁class	-1827
▁large	-1828
▁crisis	-1829
lish	-1830
lood	-1831
akers	-1832
ature	-1833
oon	-1834
rem	-1835
aster	-1836
gency	-1837
▁occ	-1838
▁foreign	-1839
▁tro	-1840
PI	-1841
▁wr	-1842
▁White	-1843
▁road	-1844
▁eight	-1845
▁break	-1846
ourt	-1847
▁media	-1848
ne	-1849
▁coup	-1850
▁Sw	-1851
▁July	-1852
icle	-1853
▁arg	-1854
iber	-1855
▁Department	-1856
time	-1857
▁div	-1858
orters	-1859
rup	-1860
▁private	-1861
▁22	-1862
▁ur	-1863
▁film	-1864
▁demand	-1865
resent	-1866
▁ever	-1867
▁Dr	-1868
▁energy	-1869
ane	-1870
▁within	-1871
▁things	-1872
▁results	-1873
par	-1874
▁expect	-1875
▁non	-1876
for	-1877
▁offer	-1878
iers	-1879
▁suff	-1880
stand	-1881
asing	-1882
gest	-1883
▁thought	-1884
▁paren	-1885
▁released	-1886
▁markets	-1887
▁key	-1888
back	-1889
ners	-1890
iet	-1891
aced	-1892
▁town	-1893
▁shot	-1894
▁possible	-1895
▁January	-1896
iqu	-1897
▁administration	-1898
▁why	-1899
▁chall	-1900
▁concern	-1901
▁discuss	-1902
▁However	-1903
▁outside	-1904
▁Associ	-1905
▁include	-1906
▁Oct	-1907
ester	-1908
itional	-1909
▁problems	-1910
.2	-1911
umb	-1912
▁cor	-1913
▁higher	-1914
itive	-1915
▁foc	-1916
▁Ed	-1917
▁club	-1918
ements	-1919
▁human	-1920
▁targ	-1921
▁using	-1922
▁To	-1923
▁dev	-1924
atives	-1925
▁McCain	-1926
▁Inc	-1927
▁staff	-1928
ither	-1929
▁players	-1930
lished	-1931
▁problem	-1932
▁always	-1933
▁study	-1934
▁Europe	-1935
▁minutes	-1936
▁Kore	-1937
▁Congress	-1938
▁bring	-1939
▁available	-1940
elt	-1941
▁based	-1942
▁mother	-1943
of	-1944
▁UPI	-1945
▁198	-1946
uclear	-1947
▁env	-1948
▁leading	-1949
▁Minister	-1950
▁Par	-1951
▁growth	-1952
▁ren	-1953
bs	-1954
▁Pl	-1955
▁gas	-1956
▁2010	-1957
ought	-1958
▁mean	-1959
▁opt	-1960
lam	-1961
▁serious	-1962
▁dro	-1963
go	-1964
epend	-1965
▁room	-1966
▁provide	-1967
▁reports	-1968
▁Aug	-1969
▁sex	-1970
▁ident	-1971
▁bad	-1972
▁adm	-1973
▁fav	-1974
▁broad	-1975
cast	-1976
▁hot	-1977
ening	-1978
ensive	-1979
▁black	-1980
arm	-1981
▁Street	-1982
▁Californ	-1983
▁tell	-1984
igr	-1985
▁contract	-1986
dle	-1987
ortun	-1988
▁prison	-1989
▁travel	-1990
ung	-1991
▁authorities	-1992
▁forces	-1993
ality	-1994
▁host	-1995
▁September	-1996
▁started	-1997
down	-1998
▁civil	-1999
▁ste	-2000
▁hous	-2001
▁minister	-2002
▁jobs	-2003
int	-2004
▁sn	-2005
▁history	-2006
▁looking	-2007
sc	-2008
isc	-2009
iding	-2010
▁Court	-2011
▁costs	-2012
▁Bo	-2013
▁certain	-2014
▁music	-2015
▁research	-2016
▁My	-2017
ribut	-2018
▁cho	-2019
▁Feb	-2020
ironment	-2021
▁Se	-2022
▁workers	-2023
▁victory	-2024
▁continue	-2025
▁ahead	-2026
▁mom	-2027
inese	-2028
▁den	-2029
▁received	-2030
▁nuclear	-2031
ades	-2032
▁December	-2033
ney	-2034
▁California	-2035
▁hospital	-2036
.4	-2037
▁name	-2038
▁ple	-2039
▁champ	-2040
▁Air	-2041
▁gave	-2042
▁Count	-2043
ached	-2044
aud	-2045
▁biggest	-2046
▁relations	-2047
▁largest	-2048
▁present	-2049
▁educ	-2050
▁begin	-2051
rench	-2052
raph	-2053
▁body	-2054
▁course	-2055
▁general	-2056
▁diffic	-2057
▁Republican	-2058
▁groups	-2059
▁poll	-2060
▁Austral	-2061
.3	-2062
ims	-2063
▁famil	-2064
ging	-2065
▁building	-2066
ware	-2067
ilar	-2068
▁particular	-2069
raft	-2070
uff	-2071
orpor	-2072
▁Chinese	-2073
▁role	-2074
mber	-2075
ese	-2076
▁difficult	-2077
den	-2078
▁total	-2079
▁front	-2080
▁average	-2081
▁himself	-2082
▁stay	-2083
▁repl	-2084
ij	-2085
based	-2086
▁live	-2087
▁rights	-2088
▁recently	-2089
ability	-2090
cy	-2091
▁vide	-2092
ressed	-2093
▁getting	-2094
▁Ms	-2095
▁mort	-2096
oint	-2097
▁forward	-2098
▁comb	-2099
▁troops	-2100
▁dam	-2101
▁students	-2102
▁firm	-2103
▁girl	-2104
▁hope	-2105
▁Democratic	-2106
▁step	-2107
▁comes	-2108
ream	-2109
▁data	-2110
▁terror	-2111
▁Michael	-2112
hing	-2113
▁field	-2114
▁respons	-2115
▁chair	-2116
ovember	-2117
▁Angel	-2118
▁23	-2119
▁action	-2120
▁fourth	-2121
▁init	-2122
▁charges	-2123
▁lat	-2124
▁became	-2125
oring	-2126
▁colle	-2127
duct	-2128
▁done	-2129
read	-2130
idents	-2131
ford	-2132
▁De	-2133
▁While	-2134
▁wife	-2135
▁agency	-2136
ape	-2137
▁signific	-2138
▁gl	-2139
bert	-2140
atic	-2141
▁November	-2142
▁vol	-2143
▁Pe	-2144
▁Just	-2145
▁interview	-2146
▁veh	-2147
▁International	-2148
▁however	-2149
▁San	-2150
emp	-2151
▁ap	-2152
▁spending	-2153
▁Sm	-2154
▁detail	-2155
medi	-2156
▁describ	-2157
▁er	-2158
▁conference	-2159
▁lower	-2160
ined	-2161
▁Ste	-2162
▁War	-2163
.1	-2164
▁played	-2165
▁arri	-2166
▁father	-2167
▁talks	-2168
▁deter	-2169
▁rather	-2170
OR	-2171
estern	-2172
▁mess	-2173
gether	-2174
▁together	-2175
AN	-2176
▁morning	-2177
▁fre	-2178
▁quick	-2179
▁coming	-2180
▁seek	-2181
▁wind	-2182
▁bomb	-2183
▁pract	-2184
▁senior	-2185
ibility	-2186
▁Senate	-2187
ional	-2188
▁French	-2189
selves	-2190
▁Americans	-2191
▁Hill	-2192
▁unc	-2193
▁thous	-2194
▁Part	-2195
▁cover	-2196
▁community	-2197
▁board	-2198
.7	-2199
▁exc	-2200
▁compl	-2201
▁evidence	-2202
▁pain	-2203
▁27	-2204
▁prob	-2205
▁race	-2206
▁latest	-2207
▁sour	-2208
hold	-2209
rupt	-2210
▁needed	-2211
nings	-2212
str	-2213
▁stock	-2214
ighb	-2215
▁force	-2216
uge	-2217
▁despite	-2218
▁walk	-2219
▁Wal	-2220
▁pick	-2221
▁attacks	-2222
▁telev	-2223
▁age	-2224
▁doesn	-2225
ober	-2226
▁sure	-2227
ids	-2228
aving	-2229
ett	-2230
▁strate	-2231
▁thing	-2232
irc	-2233
isl	-2234
oman	-2235
▁goal	-2236
ests	-2237
▁states	-2238
▁pack	-2239
▁career	-2240
rap	-2241
▁showed	-2242
▁Russia	-2243
▁lear	-2244
▁rose	-2245
▁round	-2246
▁simp	-2247
▁tour	-2248
▁60	-2249
▁East	-2250
ament	-2251
▁Democrats	-2252
ector	-2253
▁fear	-2254
eleb	-2255
▁social	-2256
▁doing	-2257
▁pred	-2258
ze	-2259
▁access	-2260
▁issues	-2261
ization	-2262
▁investors	-2263
▁single	-2264
▁significant	-2265
ari	-2266
▁emb	-2267
▁disp	-2268
ches	-2269
▁investment	-2270
uation	-2271
▁August	-2272
▁TV	-2273
rel	-2274
▁France	-2275
ournal	-2276
ges	-2277
▁account	-2278
▁red	-2279
▁match	-2280
▁Jack	-2281
▁phot	-2282
▁October	-2283
▁attempt	-2284
▁ww	-2285
▁www	-2286
ery	-2287
▁confir	-2288
▁cash	-2289
▁immedi	-2290
.6	-2291
▁watch	-2292
▁Paul	-2293
▁Hol	-2294
▁represent	-2295
▁kind	-2296
▁deep	-2297
▁legal	-2298
▁rad	-2299
▁running	-2300
▁involved	-2301
▁areas	-2302
esterday	-2303
▁propert	-2304
attle	-2305
▁News	-2306
ING	-2307
rought	-2308
ination	-2309
▁comment	-2310
▁parents	-2311
▁nine	-2312
▁compared	-2313
uk	-2314
rugg	-2315
▁makes	-2316
▁neighb	-2317
▁technology	-2318
itting	-2319
▁dollars	-2320
▁Web	-2321
▁bud	-2322
▁prep	-2323
▁26	-2324
▁failed	-2325
pec	-2326
▁arrested	-2327
▁spent	-2328
tain	-2329
▁critic	-2330
oti	-2331
▁mur	-2332
ift	-2333
▁soon	-2334
amer	-2335
▁fun	-2336
▁Coun	-2337
▁ground	-2338
ym	-2339
▁similar	-2340
▁development	-2341
▁stop	-2342
▁summer	-2343
▁wanted	-2344
▁bit	-2345
▁rates	-2346
▁project	-2347
▁tit	-2348
▁Mark	-2349
▁Lab	-2350
▁reven	-2351
▁son	-2352
▁release	-2353
▁miles	-2354
▁tw	-2355
▁Ital	-2356
▁position	-2357
▁mass	-2358
▁Tal	-2359
▁clos	-2360
amb	-2361
▁William	-2362
ilt	-2363
▁Mo	-2364
icted	-2365
iff	-2366
▁squ	-2367
▁typ	-2368
uses	-2369
▁heart	-2370
▁story	-2371
▁light	-2372
▁appeared	-2373
▁enc	-2374
50	-2375
▁store	-2376
▁manager	-2377
▁Now	-2378
▁online	-2379
▁target	-2380
▁products	-2381
aur	-2382
▁newsp	-2383
▁1,	-2384
▁analyst	-2385
▁rev	-2386
liam	-2387
▁trip	-2388
uty	-2389
▁pos	-2390
ule	-2391
▁Per	-2392
▁mortg	-2393
▁independ	-2394
▁197	-2395
▁28	-2396
▁imm	-2397
-0	-2398
avy	-2399
▁India	-2400
.9	-2401
ote	-2402
▁Times	-2403
istrict	-2404
▁presidential	-2405
▁scored	-2406
▁regul	-2407
▁trade	-2408
liament	-2409
▁saw	-2410
▁review	-2411
▁2005	-2412
▁turned	-2413
ruary	-2414
aces	-2415
vert	-2416
▁shares	-2417
▁paid	-2418
▁celeb	-2419
▁mot	-2420
▁needs	-2421
lymp	-2422
▁performance	-2423
▁gun	-2424
▁estim	-2425
mark	-2426
ask	-2427
▁const	-2428
wood	-2429
iting	-2430
▁Olymp	-2431
▁February	-2432
▁accused	-2433
▁cle	-2434
ault	-2435
▁lab	-2436
▁helped	-2437
▁sched	-2438
▁means	-2439
▁environment	-2440
ico	-2441
▁investigation	-2442
▁agreed	-2443
omm	-2444
▁remain	-2445
▁hol	-2446
aled	-2447
▁schools	-2448
▁although	-2449
ural	-2450
undred	-2451
▁homes	-2452
▁prosecut	-2453
▁aud	-2454
oking	-2455
▁doct	-2456
rown	-2457
▁port	-2458
itch	-2459
.8	-2460
ecess	-2461
bn	-2462
▁CN	-2463
▁lawy	-2464
▁docu	-2465
▁medical	-2466
▁member	-2467
▁thousands	-2468
▁television	-2469
▁friends	-2470
▁Fin	-2471
▁track	-2472
▁improve	-2473
▁slow	-2474
▁strugg	-2475
▁prim	-2476
▁dest	-2477
▁ended	-2478
▁themselves	-2479
▁debt	-2480
▁Her	-2481
▁orig	-2482
lement	-2483
▁31	-2484
▁Park	-2485
▁BBC	-2486
▁Sch	-2487
wh	-2488
▁reach	-2489
▁efforts	-2490
vey	-2491
▁George	-2492
▁peace	-2493
▁Mex	-2494
▁Mor	-2495
▁reason	-2496
▁beat	-2497
▁accept	-2498
orney	-2499
▁allowed	-2500
orthern	-2501
ray	-2502
▁Not	-2503
▁Cons	-2504
▁Cup	-2505
▁cases	-2506
▁popular	-2507
▁yesterday	-2508
uf	-2509
▁Los	-2510
▁Cap	-2511
ivid	-2512
kn	-2513
▁agreement	-2514
▁Sup	-2515
▁Islam	-2516
-3	-2517
▁Mus	-2518
aughter	-2519
▁pressure	-2520
▁potential	-2521
▁insurance	-2522
▁experience	-2523
▁vers	-2524
▁officers	-2525
▁trial	-2526
▁production	-2527
▁conc	-2528
▁shows	-2529
enal	-2530
▁base	-2531
▁chance	-2532
ago	-2533
▁Rich	-2534
▁League	-2535
▁Barack	-2536
▁Serv	-2537
▁legisl	-2538
▁Ham	-2539
▁negoti	-2540
anger	-2541
▁County	-2542
▁surpr	-2543
ada	-2544
val	-2545
▁nothing	-2546
▁Ne	-2547
▁brought	-2548
▁personal	-2549
band	-2550
▁bur	-2551
imb	-2552
ample	-2553
▁Ser	-2554
▁opportun	-2555
▁More	-2556
▁Qu	-2557
▁alleged	-2558
ude	-2559
▁Council	-2560
ently	-2561
▁leave	-2562
▁mag	-2563
▁weekend	-2564
▁customers	-2565
▁increasing	-2566
New	-2567
rid	-2568
ruction	-2569
wide	-2570
▁Angeles	-2571
▁lives	-2572
sy	-2573
▁Phil	-2574
change	-2575
▁indic	-2576
TON	-2577
▁redu	-2578
▁Red	-2579
▁shoot	-2580
room	-2581
▁video	-2582
▁north	-2583
▁central	-2584
▁X	-2585
▁carry	-2586
ceed	-2587
▁ill	-2588
pect	-2589
▁By	-2590
▁Compan	-2591
▁violence	-2592
▁Pat	-2593
▁govern	-2594
▁worked	-2595
▁cann	-2596
▁Last	-2597
▁network	-2598
▁search	-2599
▁remains	-2600
▁patients	-2601
▁couple	-2602
ana	-2603
pecially	-2604
▁mult	-2605
▁charged	-2606
▁opposition	-2607
ises	-2608
▁rise	-2609
eration	-2610
▁voters	-2611
▁super	-2612
▁living	-2613
▁doub	-2614
▁published	-2615
ips	-2616
alled	-2617
▁GM	-2618
▁Acc	-2619
▁murder	-2620
▁sett	-2621
▁worth	-2622
▁Center	-2623
erve	-2624
ald	-2625
▁seems	-2626
▁forced	-2627
▁CNN	-2628
▁wants	-2629
▁increased	-2630
▁Ber	-2631
▁stra	-2632
oud	-2633
uit	-2634
▁longer	-2635
▁tre	-2636
▁growing	-2637
outhern	-2638
▁Two	-2639
▁value	-2640
ogn	-2641
▁white	-2642
▁probably	-2643
▁idea	-2644
uing	-2645
ilities	-2646
▁claims	-2647
unt	-2648
▁included	-2649
ander	-2650
aging	-2651
ify	-2652
iec	-2653
chers	-2654
▁James	-2655
▁Fed	-2656
▁29	-2657
▁reform	-2658
▁Government	-2659
▁surv	-2660
▁General	-2661
yle	-2662
▁charge	-2663
▁2004	-2664
▁phone	-2665
▁tried	-2666
▁anything	-2667
▁laws	-2668
▁operations	-2669
▁poor	-2670
▁wait	-2671
bur	-2672
▁changes	-2673
▁ey	-2674
▁playing	-2675
▁Thom	-2676
▁recession	-2677
the	-2678
irst	-2679
▁Ken	-2680
▁cult	-2681
▁annual	-2682
▁effort	-2683
ows	-2684
utions	-2685
ounded	-2686
▁conn	-2687
ster	-2688
▁space	-2689
▁moment	-2690
▁Ear	-2691
▁circ	-2692
▁coach	-2693
▁common	-2694
▁families	-2695
▁especially	-2696
▁sat	-2697
▁education	-2698
ox	-2699
aded	-2700
▁conditions	-2701
▁boy	-2702
▁celebr	-2703
mon	-2704
reg	-2705
▁player	-2706
▁Mart	-2707
hood	-2708
▁Mic	-2709
▁Te	-2710
istic	-2711
lined	-2712
▁individ	-2713
▁cause	-2714
▁Africa	-2715
▁heard	-2716
▁assist	-2717
▁budget	-2718
fully	-2719
imin	-2720
ension	-2721
▁understand	-2722
▁extra	-2723
▁hundred	-2724
▁impact	-2725
ER	-2726
▁funds	-2727
▁Secretary	-2728
▁propos	-2729
▁matter	-2730
▁cell	-2731
▁disapp	-2732
▁Group	-2733
▁i	-2734
ease	-2735
▁mater	-2736
▁avo	-2737
▁Even	-2738
▁figures	-2739
▁Tex	-2740
na	-2741
eed	-2742
ograph	-2743
▁These	-2744
▁bid	-2745
▁deliver	-2746
▁tur	-2747
▁moved	-2748
▁protect	-2749
▁officer	-2750
cement	-2751
▁focus	-2752
▁levels	-2753
▁ens	-2754
▁huge	-2755
▁either	-2756
▁z	-2757
ida	-2758
▁anti	-2759
overed	-2760
▁PR	-2761
▁management	-2762
▁Korea	-2763
field	-2764
▁Wall	-2765
▁prevent	-2766
▁Health	-2767
▁wrong	-2768
▁chairman	-2769
olution	-2770
swire	-2771
aily	-2772
▁trou	-2773
▁di	-2774
haps	-2775
▁fuel	-2776
AT	-2777
AR	-2778
▁scient	-2779
▁training	-2780
ider	-2781
▁App	-2782
Newswire	-2783
pro	-2784
ris	-2785
▁south	-2786
▁example	-2787
▁eu	-2788
▁raised	-2789
atory	-2790
▁separ	-2791
▁Company	-2792
mit	-2793
ole	-2794
▁500	-2795
▁acqu	-2796
▁Char	-2797
▁friend	-2798
ope	-2799
▁Commission	-2800
▁contribut	-2801
▁Germany	-2802
▁Mer	-2803
▁love	-2804
▁hur	-2805
raz	-2806
▁straight	-2807
▁Scott	-2808
jects	-2809
▁Ben	-2810
▁abs	-2811
▁Many	-2812
▁calls	-2813
▁decided	-2814
▁lack	-2815
▁treatment	-2816
▁newspaper	-2817
hol	-2818
BS	-2819
sp	-2820
ender	-2821
▁196	-2822
▁Mid	-2823
▁council	-2824
▁weap	-2825
▁someone	-2826
eck	-2827
▁Mil	-2828
▁vir	-2829
▁green	-2830
▁cancer	-2831
▁closed	-2832
▁Russian	-2833
duced	-2834
▁cross	-2835
▁Indian	-2836
▁judge	-2837
▁contr	-2838
▁reve	-2839
▁hon	-2840
▁mer	-2841
-4	-2842
▁Off	-2843
▁safety	-2844
ires	-2845
ufact	-2846
▁believed	-2847
▁Bill	-2848
▁Scot	-2849
▁address	-2850
overy	-2851
▁anyone	-2852
▁Tre	-2853
▁draw	-2854
▁property	-2855
▁retail	-2856
▁product	-2857
▁income	-2858
▁opening	-2859
▁pan	-2860
▁stage	-2861
▁Des	-2862
▁park	-2863
ota	-2864
enced	-2865
▁intell	-2866
iban	-2867
▁refer	-2868
▁climate	-2869
lying	-2870
itness	-2871
▁above	-2872
▁Gl	-2873
▁rock	-2874
▁followed	-2875
eph	-2876
▁sho	-2877
▁questions	-2878
iant	-2879
oming	-2880
▁35	-2881
▁Union	-2882
▁estab	-2883
▁challen	-2884
▁events	-2885
▁rules	-2886
▁conduct	-2887
▁ran	-2888
▁mat	-2889
▁amount	-2890
▁trading	-2891
▁cannot	-2892
▁inside	-2893
ocked	-2894
lines	-2895
▁recogn	-2896
▁works	-2897
men	-2898
term	-2899
▁feat	-2900
arent	-2901
aries	-2902
▁hands	-2903
▁Mad	-2904
▁amb	-2905
▁anim	-2906
▁soft	-2907
▁concerns	-2908
▁situation	-2909
▁actually	-2910
uled	-2911
▁cars	-2912
▁giving	-2913
▁described	-2914
▁rout	-2915
▁profit	-2916
vest	-2917
▁Smith	-2918
▁Taliban	-2919
ugh	-2920
icles	-2921
istry	-2922
▁center	-2923
▁consider	-2924
▁exist	-2925
▁runs	-2926
merc	-2927
▁Roy	-2928
▁check	-2929
▁currently	-2930
chie	-2931
▁conserv	-2932
▁stre	-2933
makers	-2934
▁Prime	-2935
isions	-2936
while	-2937
▁terms	-2938
onse	-2939
▁Flor	-2940
.0	-2941
▁mind	-2942
ocks	-2943
▁Black	-2944
obile	-2945
iled	-2946
arp	-2947
▁Em	-2948
oke	-2949
▁cal	-2950
▁soldiers	-2951
▁housing	-2952
▁offered	-2953
▁Texas	-2954
bed	-2955
itor	-2956
▁influ	-2957
▁relationship	-2958
▁border	-2959
▁Tur	-2960
estin	-2961
▁flo	-2962
ders	-2963
▁nomin	-2964
▁create	-2965
action	-2966
▁spot	-2967
▁70	-2968
ASH	-2969
▁station	-2970
▁Op	-2971
▁Chic	-2972
▁approach	-2973
▁majority	-2974
▁businesses	-2975
etro	-2976
▁crow	-2977
ona	-2978
▁fans	-2979
▁prime	-2980
atural	-2981
▁answ	-2982
▁candidate	-2983
▁Corp	-2984
▁link	-2985
▁mill	-2986
ipp	-2987
▁touch	-2988
▁numbers	-2989
▁particularly	-2990
INGTON	-2991
rote	-2992
▁MP	-2993
▁drive	-2994
▁Press	-2995
▁instead	-2996
itz	-2997
▁quickly	-2998
▁hus	-2999
▁returned	-3000
▁entire	-3001
▁employees	-3002
▁Florida	-3003
▁self	-3004
▁continued	-3005
▁term	-3006
▁Green	-3007
▁residents	-3008
▁associ	-3009
▁double	-3010
▁regular	-3011
▁blood	-3012
▁mortgage	-3013
▁webs	-3014
▁vac	-3015
▁Jones	-3016
▁respond	-3017
▁instit	-3018
▁warned	-3019
▁manufact	-3020
▁intro	-3021
▁pict	-3022
▁repe	-3023
▁NE	-3024
mercial	-3025
▁require	-3026
▁danger	-3027
set	-3028
▁Robert	-3029
▁claimed	-3030
▁Republicans	-3031
▁prem	-3032
▁Chicago	-3033
▁WASH	-3034
▁Don	-3035
▁Dan	-3036
▁aid	-3037
▁details	-3038
▁WASHINGTON	-3039
▁incident	-3040
▁sector	-3041
▁daughter	-3042
▁mis	-3043
▁Labour	-3044
▁encour	-3045
▁unl	-3046
▁achie	-3047
▁planned	-3048
▁named	-3049
oo	-3050
▁dom	-3051
▁weak	-3052
▁resear	-3053
▁wrote	-3054
▁title	-3055
▁EU	-3056
▁score	-3057
▁People	-3058
▁phys	-3059
igence	-3060
▁Association	-3061
ills	-3062
ociety	-3063
▁opened	-3064
lom	-3065
aught	-3066
ption	-3067
▁charac	-3068
uter	-3069
unk	-3070
▁whole	-3071
▁football	-3072
▁particip	-3073
▁response	-3074
▁Aut	-3075
ston	-3076
▁debate	-3077
▁itself	-3078
▁Vir	-3079
▁Party	-3080
▁demon	-3081
▁loans	-3082
▁push	-3083
▁raise	-3084
▁cuts	-3085
▁reached	-3086
oul	-3087
▁caused	-3088
▁winning	-3089
▁fast	-3090
▁Net	-3091
▁creat	-3092
▁everyone	-3093
▁elections	-3094
▁purch	-3095
▁includes	-3096
ode	-3097
jected	-3098
▁Internet	-3099
iance	-3100
▁wear	-3101
▁counter	-3102
▁killing	-3103
estic	-3104
ounts	-3105
▁Other	-3106
▁grand	-3107
come	-3108
▁Sal	-3109
ES	-3110
▁Mur	-3111
rian	-3112
uries	-3113
▁corpor	-3114
▁Scotland	-3115
▁necess	-3116
berg	-3117
▁School	-3118
elling	-3119
ara	-3120
emb	-3121
▁fair	-3122
▁Do	-3123
▁Act	-3124
▁applic	-3125
lant	-3126
▁Australia	-3127
▁profession	-3128
▁80	-3129
▁aim	-3130
▁Gold	-3131
▁sense	-3132
▁drop	-3133
▁teac	-3134
▁built	-3135
▁Committee	-3136
bon	-3137
asons	-3138
▁dropped	-3139
joy	-3140
▁defe	-3141
▁sto	-3142
▁teams	-3143
▁flu	-3144
▁Palestin	-3145
aut	-3146
▁King	-3147
▁gold	-3148
▁Jackson	-3149
illeg	-3150
▁pers	-3151
▁Rob	-3152
▁journal	-3153
▁shut	-3154
play	-3155
▁card	-3156
▁progress	-3157
reme	-3158
▁African	-3159
▁drugs	-3160
▁appeal	-3161
▁engine	-3162
▁attract	-3163
using	-3164
▁range	-3165
▁Cr	-3166
rief	-3167
▁Johnson	-3168
▁2003	-3169
▁husband	-3170
▁resc	-3171
▁32	-3172
▁High	-3173
▁confirmed	-3174
unch	-3175
▁Federal	-3176
▁movie	-3177
▁committee	-3178
▁happened	-3179
▁attention	-3180
▁decl	-3181
▁Israeli	-3182
▁material	-3183
▁Although	-3184
▁pul	-3185
▁Mexico	-3186
▁illeg	-3187
▁Offic	-3188
▁worst	-3189
night	-3190
▁immediately	-3191
▁sche	-3192
▁takes	-3193
▁created	-3194
▁plant	-3195
▁esc	-3196
airs	-3197
▁hundreds	-3198
rial	-3199
▁isn	-3200
▁Iraqi	-3201
▁assets	-3202
zz	-3203
▁cents	-3204
ionship	-3205
hester	-3206
▁sel	-3207
▁consumer	-3208
inks	-3209
orks	-3210
▁survey	-3211
iation	-3212
▁parliament	-3213
▁La	-3214
▁injured	-3215
▁Wood	-3216
▁ability	-3217
▁scheduled	-3218
▁signed	-3219
▁leaving	-3220
▁Fore	-3221
▁commercial	-3222
▁considered	-3223
▁Arab	-3224
▁simply	-3225
ipped	-3226
▁boost	-3227
▁doz	-3228
▁wasn	-3229
▁launch	-3230
▁condition	-3231
stitution	-3232
stitute	-3233
▁Richard	-3234
resh	-3235
cel	-3236
▁Dar	-3237
▁award	-3238
▁relig	-3239
▁additional	-3240
▁enjoy	-3241
▁sale	-3242
▁attorney	-3243
▁reduce	-3244
▁programs	-3245
tt	-3246
ancy	-3247
▁lif	-3248
▁brother	-3249
▁contact	-3250
irth	-3251
▁fighting	-3252
ky	-3253
icket	-3254
▁mount	-3255
▁suffered	-3256
▁vill	-3257
▁bott	-3258
▁Tom	-3259
▁Sim	-3260
▁teen	-3261
aine	-3262
▁refl	-3263
cher	-3264
▁speech	-3265
▁everything	-3266
▁45	-3267
▁norm	-3268
▁PRNewswire	-3269
▁hear	-3270
▁parts	-3271
woman	-3272
▁Virgin	-3273
ading	-3274
▁middle	-3275
▁gone	-3276
▁population	-3277
▁defense	-3278
▁prior	-3279
lands	-3280
▁Most	-3281
encies	-3282
▁battle	-3283
oted	-3284
▁dip	-3285
▁quite	-3286
ijing	-3287
▁version	-3288
▁disease	-3289
▁Of	-3290
house	-3291
▁NEW	-3292
shire	-3293
▁losses	-3294
▁Beijing	-3295
▁Office	-3296
▁parties	-3297
iter	-3298
erry	-3299
ogle	-3300
▁save	-3301
▁rising	-3302
▁benefits	-3303
anced	-3304
▁Def	-3305
▁experts	-3306
ites	-3307
▁looked	-3308
▁capt	-3309
▁seeking	-3310
▁hopes	-3311
▁Tw	-3312
▁Sir	-3313
▁Georg	-3314
▁Treas	-3315
agh	-3316
▁vo	-3317
▁measures	-3318
BI	-3319
de	-3320
etimes	-3321
▁emergency	-3322
body	-3323
▁revenue	-3324
▁Research	-3325
▁paper	-3326
▁consumers	-3327
adem	-3328
▁bal	-3329
▁90	-3330
hire	-3331
reng	-3332
▁hearing	-3333
▁According	-3334
yc	-3335
ume	-3336
▁reporters	-3337
ino	-3338
light	-3339
▁toward	-3340
▁sil	-3341
▁coal	-3342
▁box	-3343
▁figure	-3344
▁respect	-3345
▁independent	-3346
▁jail	-3347
▁commission	-3348
▁brok	-3349
ding	-3350
acing	-3351
hib	-3352
▁Mal	-3353
▁felt	-3354
▁English	-3355
ashed	-3356
▁article	-3357
ishing	-3358
itiz	-3359
iction	-3360
▁trust	-3361
▁analysts	-3362
▁operating	-3363
oph	-3364
▁Bay	-3365
▁Som	-3366
▁army	-3367
▁favor	-3368
▁launched	-3369
ushed	-3370
arily	-3371
isters	-3372
▁decades	-3373
ams	-3374
ny	-3375
▁index	-3376
issions	-3377
▁Kar	-3378
▁victims	-3379
ki	-3380
right	-3381
employ	-3382
▁Alex	-3383
▁filed	-3384
▁Google	-3385
▁bail	-3386
iminal	-3387
▁avoid	-3388
run	-3389
▁Musl	-3390
yan	-3391
▁passed	-3392
▁legislation	-3393
▁Carol	-3394
▁pret	-3395
▁ways	-3396
▁piec	-3397
▁clean	-3398
▁injury	-3399
▁issued	-3400
-6	-3401
▁strik	-3402
▁addition	-3403
che	-3404
▁Kh	-3405
▁dism	-3406
▁autom	-3407
▁advert	-3408
▁recomm	-3409
▁expand	-3410
▁bab	-3411
isted	-3412
alls	-3413
illed	-3414
▁contro	-3415
icide	-3416
▁streng	-3417
ental	-3418
▁dig	-3419
▁crime	-3420
▁train	-3421
▁histor	-3422
▁website	-3423
gent	-3424
▁unf	-3425
▁missing	-3426
▁domestic	-3427
▁apparent	-3428
▁estimated	-3429
▁starting	-3430
▁restaur	-3431
▁centre	-3432
▁street	-3433
▁competition	-3434
▁provided	-3435
▁feet	-3436
▁immigr	-3437
ilty	-3438
▁Bur	-3439
▁jump	-3440
▁spread	-3441
▁seemed	-3442
▁designed	-3443
▁student	-3444
▁candidates	-3445
▁statements	-3446
▁wid	-3447
icks	-3448
▁dog	-3449
▁regard	-3450
▁driving	-3451
▁Security	-3452
▁highest	-3453
▁owners	-3454
▁opportunity	-3455
ifth	-3456
▁Rod	-3457
▁Prof	-3458
▁proposed	-3459
▁weapons	-3460
▁Val	-3461
▁Port	-3462
▁spend	-3463
20	-3464
▁fix	-3465
▁challenge	-3466
▁wonder	-3467
▁kept	-3468
▁guilty	-3469
▁natural	-3470
▁Martin	-3471
▁Williams	-3472
ban	-3473
▁brief	-3474
▁strike	-3475
▁sens	-3476
▁hotel	-3477
angu	-3478
▁sle	-3479
▁Treasury	-3480
▁obs	-3481
▁message	-3482
ique	-3483
▁insp	-3484
▁Since	-3485
▁heavy	-3486
▁2001	-3487
acts	-3488
ties	-3489
▁else	-3490
imately	-3491
▁guard	-3492
▁diplom	-3493
▁dollar	-3494
ems	-3495
▁sites	-3496
rey	-3497
ordon	-3498
OS	-3499
▁ep	-3500
▁letter	-3501
essor	-3502
▁inn	-3503
▁recovery	-3504
▁easy	-3505
▁perhaps	-3506
▁vehicles	-3507
▁subs	-3508
key	-3509
▁wat	-3510
▁date	-3511
▁advis	-3512
▁declined	-3513
▁sharp	-3514
▁college	-3515
▁quality	-3516
▁Then	-3517
▁partners	-3518
▁Day	-3519
urities	-3520
▁funding	-3521
▁Me	-3522
vent	-3523
yond	-3524
▁rob	-3525
▁Western	-3526
▁consult	-3527
▁crew	-3528
▁rival	-3529
▁Lou	-3530
aves	-3531
eek	-3532
book	-3533
pper	-3534
▁below	-3535
▁crowd	-3536
▁beyond	-3537
▁[	-3538
izing	-3539
▁Peter	-3540
▁fresh	-3541
▁restr	-3542
ashion	-3543
▁millions	-3544
▁Royal	-3545
0,000	-3546
▁scene	-3547
▁researchers	-3548
ma	-3549
▁goes	-3550
mar	-3551
▁commit	-3552
▁words	-3553
▁strategy	-3554
▁supporters	-3555
▁receive	-3556
▁penal	-3557
▁suggested	-3558
▁Post	-3559
▁bond	-3560
▁song	-3561
▁politic	-3562
▁planning	-3563
▁coast	-3564
▁Atlant	-3565
▁request	-3566
▁]	-3567
iger	-3568
▁moving	-3569
▁rap	-3570
▁carried	-3571
roy	-3572
▁measure	-3573
▁var	-3574
▁farm	-3575
▁blo	-3576
▁previously	-3577
care	-3578
▁minor	-3579
▁finished	-3580
▁offering	-3581
olf	-3582
round	-3583
▁whom	-3584
ager	-3585
▁overall	-3586
▁Army	-3587
▁screen	-3588
▁Franc	-3589
▁Under	-3590
▁complain	-3591
ecutive	-3592
useum	-3593
▁complete	-3594
▁knew	-3595
iring	-3596
▁arrived	-3597
▁trib	-3598
▁rule	-3599
▁ready	-3600
▁Invest	-3601
▁damage	-3602
▁pur	-3603
▁required	-3604
noon	-3605
▁southern	-3606
▁wel	-3607
▁operation	-3608
▁36	-3609
▁Manc	-3610
ources	-3611
▁yards	-3612
▁Champ	-3613
▁beg	-3614
▁speed	-3615
▁Oh	-3616
iously	-3617
▁flight	-3618
▁Sy	-3619
▁alone	-3620
▁comments	-3621
ression	-3622
▁bed	-3623
mas	-3624
▁corn	-3625
▁exam	-3626
enses	-3627
▁denied	-3628
▁losing	-3629
iny	-3630
ugg	-3631
▁cat	-3632
▁mix	-3633
▁joined	-3634
▁admitted	-3635
incip	-3636
▁bought	-3637
▁kick	-3638
▁served	-3639
owers	-3640
▁birth	-3641
fect	-3642
▁lay	-3643
▁primary	-3644
▁champion	-3645
▁block	-3646
▁Pri	-3647
ORK	-3648
▁computer	-3649
500	-3650
▁witness	-3651
▁Wales	-3652
erem	-3653
▁ful	-3654
▁union	-3655
▁unemploy	-3656
▁greater	-3657
▁decade	-3658
arant	-3659
▁department	-3660
▁Tod	-3661
fort	-3662
enders	-3663
▁Braz	-3664
holders	-3665
▁ensure	-3666
uth	-3667
ST	-3668
oms	-3669
ously	-3670
iling	-3671
▁true	-3672
▁33	-3673
▁300	-3674
▁secretary	-3675
▁broke	-3676
▁storm	-3677
▁finally	-3678
▁Miss	-3679
▁Mrs	-3680
ordin	-3681
clus	-3682
▁fat	-3683
▁YORK	-3684
▁Mac	-3685
gen	-3686
▁Inter	-3687
▁source	-3688
▁Justice	-3689
EL	-3690
▁hor	-3691
▁Pet	-3692
▁inqu	-3693
▁Su	-3694
▁offers	-3695
▁drink	-3696
▁demonstr	-3697
▁rare	-3698
mail	-3699
▁citiz	-3700
aed	-3701
▁withd	-3702
▁electric	-3703
▁model	-3704
▁determin	-3705
▁borrow	-3706
▁challeng	-3707
EN	-3708
▁remained	-3709
▁Sam	-3710
▁Gordon	-3711
▁ten	-3712
▁Brazil	-3713
▁cast	-3714
ils	-3715
▁tough	-3716
▁politics	-3717
igan	-3718
▁explos	-3719
▁tourn	-3720
-5	-3721
reland	-3722
owled	-3723
▁behav	-3724
▁throughout	-3725
DA	-3726
▁Mike	-3727
▁extrem	-3728
▁Law	-3729
▁ruling	-3730
▁Ir	-3731
asts	-3732
elled	-3733
▁amid	-3734
▁loan	-3735
▁afternoon	-3736
▁Mos	-3737
▁changed	-3738
▁mission	-3739
▁vehicle	-3740
▁defic	-3741
▁occur	-3742
▁Ireland	-3743
▁successful	-3744
alt	-3745
▁intelligence	-3746
sequ	-3747
▁modern	-3748
▁injuries	-3749
isation	-3750
eff	-3751
▁winner	-3752
▁prec	-3753
ibly	-3754
▁Cle	-3755
▁crash	-3756
▁holding	-3757
▁Asia	-3758
▁flood	-3759
cing	-3760
▁agree	-3761
ructure	-3762
▁safe	-3763
▁Both	-3764
▁specific	-3765
▁militants	-3766
▁subject	-3767
▁systems	-3768
▁beginning	-3769
▁positive	-3770
▁uns	-3771
IA	-3772
▁criminal	-3773
IC	-3774
▁fem	-3775
▁kid	-3776
▁Bel	-3777
▁throw	-3778
▁lawyer	-3779
▁conflic	-3780
▁controvers	-3781
▁arch	-3782
▁believes	-3783
isco	-3784
▁radio	-3785
▁twice	-3786
▁spokeswoman	-3787
▁decline	-3788
ointed	-3789
▁practice	-3790
▁Associated	-3791
lywood	-3792
▁fifth	-3793
▁signs	-3794
que	-3795
▁Jud	-3796
itter	-3797
▁construction	-3798
▁Wil	-3799
▁scheme	-3800
▁Fer	-3801
▁firms	-3802
▁Olympic	-3803
▁ordered	-3804
empor	-3805
enty	-3806
▁2002	-3807
▁users	-3808
▁illegal	-3809
ein	-3810
▁suppl	-3811
▁struck	-3812
▁nations	-3813
▁earnings	-3814
▁leadership	-3815
▁responsible	-3816
onn	-3817
▁Lord	-3818
▁Chief	-3819
▁communic	-3820
▁original	-3821
▁UN	-3822
▁Virginia	-3823
▁Manchester	-3824
iles	-3825
▁34	-3826
▁Hillary	-3827
imul	-3828
arian	-3829
▁Frank	-3830
▁faces	-3831
▁goals	-3832
▁Mot	-3833
▁pun	-3834
▁remark	-3835
▁selling	-3836
antage	-3837
▁Japanese	-3838
ctions	-3839
▁grad	-3840
▁princip	-3841
▁projects	-3842
▁Mass	-3843
▁bi	-3844
▁Del	-3845
▁speak	-3846
▁doctors	-3847
▁Bost	-3848
▁finance	-3849
▁meant	-3850
▁remov	-3851
▁et	-3852
▁looks	-3853
▁choice	-3854
idge	-3855
▁mobile	-3856
▁Rock	-3857
iscal	-3858
▁Mean	-3859
uted	-3860
west	-3861
▁cop	-3862
▁Another	-3863
▁clin	-3864
▁ver	-3865
▁Nor	-3866
▁fle	-3867
▁Mary	-3868
▁Matt	-3869
turn	-3870
▁books	-3871
▁sometimes	-3872
ha	-3873
ya	-3874
▁Service	-3875
▁joint	-3876
▁attend	-3877
▁shooting	-3878
van	-3879
ersey	-3880
▁wild	-3881
▁Jim	-3882
▁sem	-3883
fri	-3884
▁sports	-3885
▁calling	-3886
anch	-3887
▁sym	-3888
▁First	-3889
▁serve	-3890
oz	-3891
▁strateg	-3892
astic	-3893
▁delay	-3894
▁document	-3895
het	-3896
▁refused	-3897
▁liber	-3898
orter	-3899
▁Big	-3900
aches	-3901
▁mist	-3902
▁Conserv	-3903
▁District	-3904
▁Christmas	-3905
abin	-3906
▁veter	-3907
▁sound	-3908
▁Ah	-3909
▁Boston	-3910
ns	-3911
▁stopped	-3912
▁Italy	-3913
▁suicide	-3914
▁governor	-3915
AL	-3916
osure	-3917
▁2000	-3918
▁adop	-3919
▁spoke	-3920
ipment	-3921
icip	-3922
▁weather	-3923
ewhere	-3924
▁slight	-3925
▁benefit	-3926
agn	-3927
sych	-3928
▁ang	-3929
▁Canada	-3930
▁driver	-3931
inger	-3932
mad	-3933
▁lic	-3934
▁born	-3935
▁stimul	-3936
tr	-3937
▁gets	-3938
▁concerned	-3939
ological	-3940
▁Meanwhile	-3941
▁Bu	-3942
▁evening	-3943
▁programme	-3944
▁church	-3945
▁appears	-3946
▁towards	-3947
▁written	-3948
▁tight	-3949
▁traditional	-3950
▁banking	-3951
▁protest	-3952
▁Gar	-3953
▁subst	-3954
▁During	-3955
apt	-3956
▁Hall	-3957
▁vice	-3958
▁activity	-3959
▁door	-3960
▁domin	-3961
▁lose	-3962
▁adding	-3963
atively	-3964
▁confidence	-3965
▁Well	-3966
ortion	-3967
▁Those	-3968
▁caught	-3969
aza	-3970
▁AN	-3971
▁Micro	-3972
▁character	-3973
riage	-3974
ification	-3975
▁contributed	-3976
▁Tel	-3977
iller	-3978
▁qualif	-3979
▁package	-3980
▁posted	-3981
▁certainly	-3982
▁individual	-3983
asion	-3984
▁exact	-3985
▁league	-3986
▁brand	-3987
▁Paris	-3988
▁daily	-3989
▁powerful	-3990
▁plane	-3991
▁altern	-3992
▁Ac	-3993
▁owner	-3994
▁experi	-3995
▁related	-3996
▁protection	-3997
▁limited	-3998
▁facing	-3999
sea	-4000
▁purs	-4001
▁developing	-4002
▁Che	-4003
like	-4004
olic	-4005
▁Thomas	-4006
▁except	-4007
▁Cont	-4008
▁send	-4009
▁sport	-4010
▁talking	-4011
▁Cub	-4012
▁Open	-4013
▁increasingly	-4014
▁neighbor	-4015
rang	-4016
▁Ec	-4017
▁din	-4018
▁unit	-4019
▁helping	-4020
▁policies	-4021
iar	-4022
ica	-4023
rec	-4024
ux	-4025
ado	-4026
▁Ma	-4027
▁rat	-4028
arters	-4029
▁1,000	-4030
▁developed	-4031
ria	-4032
▁exchange	-4033
▁corporate	-4034
▁From	-4035
▁Despite	-4036
▁traffic	-4037
win	-4038
add	-4039
▁fraud	-4040
▁northern	-4041
▁Chris	-4042
agement	-4043
▁wide	-4044
SE	-4045
illing	-4046
▁alleg	-4047
▁Georgia	-4048
knowled	-4049
▁largely	-4050
▁argu	-4051
▁district	-4052
▁langu	-4053
▁partner	-4054
▁aw	-4055
▁kids	-4056
▁size	-4057
▁complex	-4058
▁bird	-4059
▁pled	-4060
▁approved	-4061
▁Lo	-4062
ustr	-4063
▁Commun	-4064
▁afford	-4065
▁acknowled	-4066
▁unp	-4067
▁Spain	-4068
▁software	-4069
▁transport	-4070
▁collect	-4071
▁Our	-4072
▁Over	-4073
▁_	-4074
▁38	-4075
▁Ari	-4076
▁industrial	-4077
▁nar	-4078
▁ult	-4079
▁secret	-4080
▁movement	-4081
▁island	-4082
▁failure	-4083
▁Hollywood	-4084
entially	-4085
▁pretty	-4086
▁ess	-4087
▁sources	-4088
▁necessary	-4089
▁Span	-4090
ero	-4091
apers	-4092
▁mach	-4093
▁holiday	-4094
▁critical	-4095
▁bag	-4096
▁barrel	-4097
▁streets	-4098
▁tournament	-4099
▁band	-4100
▁places	-4101
point	-4102
▁fiscal	-4103
▁happen	-4104
ears	-4105
▁ones	-4106
▁camer	-4107
▁willing	-4108
EC	-4109
▁fine	-4110
▁revealed	-4111
oper	-4112
▁Den	-4113
▁Author	-4114
▁prompt	-4115
▁airport	-4116
▁produce	-4117
pay	-4118
pool	-4119
▁arm	-4120
▁Tim	-4121
ville	-4122
▁estate	-4123
▁seconds	-4124
▁taxes	-4125
▁province	-4126
een	-4127
▁resign	-4128
eal	-4129
▁Yet	-4130
▁mostly	-4131
▁showing	-4132
▁proposal	-4133
▁37	-4134
▁deaths	-4135
▁prepared	-4136
▁ir	-4137
IS	-4138
▁Road	-4139
▁adj	-4140
▁basis	-4141
erc	-4142
▁eventually	-4143
rick	-4144
▁word	-4145
▁sides	-4146
▁century	-4147
adium	-4148
▁shown	-4149
▁pil	-4150
▁dark	-4151
▁inflation	-4152
▁san	-4153
soft	-4154
▁supply	-4155
▁assault	-4156
▁Institute	-4157
bre	-4158
▁giant	-4159
▁remember	-4160
▁lines	-4161
▁massive	-4162
ented	-4163
▁learn	-4164
▁Hum	-4165
▁Stan	-4166
▁retire	-4167
▁guarant	-4168
▁upd	-4169
▁sort	-4170
▁Islamic	-4171
▁Italian	-4172
▁contest	-4173
▁transfer	-4174
nel	-4175
▁votes	-4176
inson	-4177
▁remaining	-4178
do	-4179
gery	-4180
▁Louis	-4181
▁missed	-4182
▁floor	-4183
▁Jon	-4184
▁Lee	-4185
▁Every	-4186
▁Northern	-4187
▁equipment	-4188
▁Tor	-4189
▁Their	-4190
▁becoming	-4191
aeda	-4192
▁Jew	-4193
agon	-4194
asc	-4195
▁records	-4196
▁row	-4197
▁Chel	-4198
▁spir	-4199
▁perfect	-4200
▁emissions	-4201
TV	-4202
▁Tra	-4203
▁accom	-4204
▁Bern	-4205
▁euro	-4206
craft	-4207
▁Carolina	-4208
month	-4209
▁accident	-4210
▁crack	-4211
▁risks	-4212
▁scientists	-4213
▁agencies	-4214
inn	-4215
▁cities	-4216
▁Ag	-4217
rip	-4218
▁Mont	-4219
▁ship	-4220
▁documents	-4221
▁sav	-4222
▁About	-4223
▁standards	-4224
friend	-4225
▁highly	-4226
▁deg	-4227
▁coverage	-4228
ours	-4229
▁convicted	-4230
▁discovered	-4231
▁identified	-4232
burgh	-4233
andon	-4234
iment	-4235
▁iP	-4236
iest	-4237
▁bon	-4238
imum	-4239
ronic	-4240
▁initi	-4241
▁announcement	-4242
▁unemployment	-4243
▁freed	-4244
▁usually	-4245
oses	-4246
▁tim	-4247
▁medic	-4248
▁audience	-4249
▁separate	-4250
▁stake	-4251
▁tests	-4252
▁paying	-4253
▁produced	-4254
▁opin	-4255
▁Joe	-4256
▁Colle	-4257
▁advantage	-4258
▁Andrew	-4259
IT	-4260
▁Rec	-4261
▁Camp	-4262
well	-4263
▁managed	-4264
-7	-4265
▁various	-4266
▁Australian	-4267
▁assess	-4268
▁Microsoft	-4269
anks	-4270
▁noted	-4271
▁carbon	-4272
▁repeated	-4273
▁falling	-4274
▁Jos	-4275
▁snow	-4276
▁aware	-4277
▁Reg	-4278
▁putting	-4279
stead	-4280
▁lawmakers	-4281
▁enfor	-4282
▁stores	-4283
▁providing	-4284
▁2,	-4285
▁Bus	-4286
▁names	-4287
US	-4288
▁42	-4289
▁Prem	-4290
omes	-4291
▁happy	-4292
onents	-4293
▁resources	-4294
▁appl	-4295
▁fired	-4296
▁ign	-4297
▁1990	-4298
▁rain	-4299
▁curren	-4300
▁professional	-4301
▁earth	-4302
▁Bagh	-4303
▁dram	-4304
▁tack	-4305
born	-4306
▁Great	-4307
prof	-4308
▁urged	-4309
yal	-4310
▁Why	-4311
ables	-4312
idel	-4313
▁Penn	-4314
engers	-4315
works	-4316
▁Sant	-4317
dad	-4318
racy	-4319
▁fellow	-4320
▁content	-4321
▁religious	-4322
oked	-4323
▁provides	-4324
▁activities	-4325
30	-4326
▁har	-4327
▁spl	-4328
▁suit	-4329
▁tren	-4330
▁committed	-4331
hens	-4332
▁marg	-4333
▁rank	-4334
▁Financ	-4335
▁option	-4336
▁Central	-4337
▁rescue	-4338
▁achieve	-4339
▁dismiss	-4340
▁couldn	-4341
▁negotiations	-4342
▁44	-4343
▁buying	-4344
iven	-4345
▁psych	-4346
▁Bob	-4347
mine	-4348
▁Today	-4349
▁fashion	-4350
▁victim	-4351
▁lawyers	-4352
da	-4353
▁Sar	-4354
▁Ver	-4355
▁panel	-4356
azine	-4357
▁surf	-4358
yard	-4359
▁Liber	-4360
▁troub	-4361
▁existing	-4362
▁register	-4363
▁executives	-4364
uct	-4365
▁pet	-4366
▁Super	-4367
ruption	-4368
▁sought	-4369
iced	-4370
rawn	-4371
ground	-4372
▁environmental	-4373
going	-4374
▁10-	-4375
▁answer	-4376
▁allowing	-4377
▁governments	-4378
▁ruled	-4379
▁Iranian	-4380
▁waiting	-4381
▁pit	-4382
▁Three	-4383
▁clearly	-4384
bit	-4385
annel	-4386
▁ut	-4387
▁Toy	-4388
▁Ford	-4389
▁sust	-4390
▁equity	-4391
ials	-4392
▁400	-4393
▁Nov	-4394
▁regional	-4395
▁pulled	-4396
▁wealth	-4397
▁Nations	-4398
owl	-4399
▁Camer	-4400
▁Trans	-4401
▁culture	-4402
▁society	-4403
board	-4404
▁nearby	-4405
▁warning	-4406
▁Palestinian	-4407
▁+	-4408
▁sun	-4409
▁baby	-4410
ictions	-4411
▁carrying	-4412
ropri	-4413
▁motor	-4414
▁Its	-4415
▁grant	-4416
▁surgery	-4417
▁subsid	-4418
▁mention	-4419
rog	-4420
uals	-4421
▁older	-4422
▁Baghdad	-4423
▁balance	-4424
▁smaller	-4425
▁marriage	-4426
▁Que	-4427
▁Rad	-4428
▁effective	-4429
▁doubt	-4430
estival	-4431
▁discl	-4432
▁suspected	-4433
▁Il	-4434
▁Abd	-4435
▁defeat	-4436
▁bod	-4437
▁enter	-4438
▁sexual	-4439
▁display	-4440
▁Scottish	-4441
▁establish	-4442
yl	-4443
▁cas	-4444
▁affected	-4445
▁Financial	-4446
cohol	-4447
▁fears	-4448
▁worse	-4449
vention	-4450
▁Energy	-4451
▁48	-4452
▁Foreign	-4453
▁pair	-4454
ighters	-4455
▁normal	-4456
▁reality	-4457
▁Supreme	-4458
▁profits	-4459
ho	-4460
gn	-4461
bum	-4462
aith	-4463
▁Step	-4464
▁Church	-4465
▁wouldn	-4466
▁Ariz	-4467
ili	-4468
▁directly	-4469
▁Ol	-4470
iders	-4471
▁Muslim	-4472
▁favour	-4473
▁reserv	-4474
▁science	-4475
▁weight	-4476
▁conservative	-4477
▁organization	-4478
EO	-4479
▁God	-4480
▁Lat	-4481
▁abuse	-4482
▁Liver	-4483
▁university	-4484
AC	-4485
▁Cal	-4486
▁limit	-4487
▁Medic	-4488
▁seat	-4489
▁fully	-4490
▁rac	-4491
▁completed	-4492
uan	-4493
▁continues	-4494
▁Dub	-4495
▁obv	-4496
▁organiz	-4497
arden	-4498
▁gain	-4499
▁forecast	-4500
▁Ryan	-4501
▁Agency	-4502
ula	-4503
▁polls	-4504
▁responsibility	-4505
outs	-4506
▁vari	-4507
▁Mag	-4508
▁expert	-4509
▁voted	-4510
▁affect	-4511
▁deficit	-4512
▁Att	-4513
▁perm	-4514
▁hy	-4515
▁scr	-4516
▁blue	-4517
▁Canad	-4518
▁41	-4519
ribution	-4520
▁authority	-4521
owed	-4522
▁sleep	-4523
lor	-4524
long	-4525
▁citizens	-4526
▁payments	-4527
▁thinking	-4528
▁Gre	-4529
▁rally	-4530
▁cerem	-4531
▁summit	-4532
▁dangerous	-4533
▁CBS	-4534
BA	-4535
▁status	-4536
▁Hen	-4537
▁doctor	-4538
emen	-4539
▁lob	-4540
▁table	-4541
▁passengers	-4542
▁39	-4543
▁II	-4544
▁Kn	-4545
foot	-4546
▁Kenned	-4547
▁female	-4548
▁College	-4549
▁Cor	-4550
▁inquir	-4551
itals	-4552
itors	-4553
▁plat	-4554
▁page	-4555
▁rejected	-4556
▁log	-4557
egr	-4558
▁Jeff	-4559
▁aimed	-4560
▁married	-4561
▁protests	-4562
▁politicians	-4563
ena	-4564
▁bull	-4565
▁emot	-4566
▁aircraft	-4567
▁institutions	-4568
▁Rom	-4569
▁imag	-4570
▁voice	-4571
▁ministers	-4572
▁Hel	-4573
▁sea	-4574
ateg	-4575
etroit	-4576
▁Os	-4577
ulated	-4578
ios	-4579
▁Good	-4580
▁Hospital	-4581
acity	-4582
▁lived	-4583
▁Middle	-4584
▁gall	-4585
ancing	-4586
▁prefer	-4587
▁spring	-4588
ano	-4589
▁75	-4590
▁pounds	-4591
▁Detroit	-4592
fl	-4593
▁Admin	-4594
▁album	-4595
▁worldwide	-4596
abil	-4597
▁expenses	-4598
▁Liverpool	-4599
SA	-4600
▁43	-4601
ador	-4602
▁eye	-4603
▁seats	-4604
▁command	-4605
▁brain	-4606
▁defin	-4607
▁owned	-4608
▁Kennedy	-4609
-8	-4610
lig	-4611
utch	-4612
usted	-4613
▁Carl	-4614
▁apparently	-4615
▁Art	-4616
ysis	-4617
▁gra	-4618
▁Cath	-4619
▁Still	-4620
▁shots	-4621
▁rich	-4622
▁decide	-4623
▁defend	-4624
▁Chelsea	-4625
▁Instead	-4626
roll	-4627
▁hurt	-4628
▁reasons	-4629
▁promot	-4630
kins	-4631
▁der	-4632
▁Sing	-4633
▁renew	-4634
▁integr	-4635
▁picture	-4636
▁Services	-4637
▁uncertain	-4638
▁deals	-4639
▁items	-4640
▁overs	-4641
udd	-4642
▁difference	-4643
▁effic	-4644
▁Pakistani	-4645
▁decisions	-4646
▁east	-4647
▁rough	-4648
▁asking	-4649
ibr	-4650
apse	-4651
▁194	-4652
▁wall	-4653
agues	-4654
▁widely	-4655
▁allegations	-4656
▁Pre	-4657
▁championship	-4658
evin	-4659
resp	-4660
▁Irish	-4661
▁Ohio	-4662
▁deleg	-4663
▁keeping	-4664
▁criticism	-4665
emporary	-4666
▁stret	-4667
▁minute	-4668
▁knows	-4669
▁linked	-4670
▁threatened	-4671
▁Apple	-4672
▁girls	-4673
▁treated	-4674
▁Palin	-4675
▁conflict	-4676
AA	-4677
▁Steve	-4678
itation	-4679
▁suspect	-4680
rom	-4681
part	-4682
eless	-4683
▁accounts	-4684
▁simple	-4685
▁65	-4686
▁Ron	-4687
▁unable	-4688
▁Olympics	-4689
▁expressed	-4690
ois	-4691
ucks	-4692
▁faced	-4693
▁earned	-4694
▁compens	-4695
▁elected	-4696
aling	-4697
▁finding	-4698
▁MPs	-4699
itude	-4700
▁Jersey	-4701
ickets	-4702
▁AI	-4703
pson	-4704
▁Asian	-4705
▁image	-4706
ka	-4707
▁Fox	-4708
▁tem	-4709
▁comfort	-4710
▁reduced	-4711
hered	-4712
▁Tony	-4713
ols	-4714
▁55	-4715
▁secure	-4716
▁Face	-4717
▁placed	-4718
▁stimulus	-4719
▁Also	-4720
▁larger	-4721
▁destroy	-4722
OP	-4723
▁Sur	-4724
▁Home	-4725
astern	-4726
▁meth	-4727
▁depart	-4728
▁wearing	-4729
▁confident	-4730
▁influence	-4731
▁labor	-4732
▁houses	-4733
▁Ev	-4734
▁und	-4735
▁deploy	-4736
▁trouble	-4737
▁standard	-4738
▁advoc	-4739
isher	-4740
▁dire	-4741
▁fees	-4742
war	-4743
▁Ann	-4744
▁GMT	-4745
▁chem	-4746
▁jury	-4747
▁exerc	-4748
▁resol	-4749
▁facility	-4750
▁promised	-4751
umn	-4752
▁ice	-4753
ensions	-4754
▁Korean	-4755
iat	-4756
adel	-4757
▁justice	-4758
▁Ter	-4759
▁path	-4760
▁presence	-4761
▁expectations	-4762
omen	-4763
▁Dis	-4764
▁vacc	-4765
aked	-4766
▁note	-4767
abinet	-4768
▁Moham	-4769
ikely	-4770
▁origin	-4771
▁Child	-4772
▁piece	-4773
▁proper	-4774
▁buildings	-4775
▁neighborhood	-4776
za	-4777
order	-4778
▁effects	-4779
▁struggling	-4780
▁shareholders	-4781
▁stocks	-4782
▁gives	-4783
▁exactly	-4784
state	-4785
▁rail	-4786
uction	-4787
▁purp	-4788
▁focused	-4789
▁language	-4790
▁Sil	-4791
ections	-4792
▁actions	-4793
enger	-4794
▁patient	-4795
▁slightly	-4796
▁advertising	-4797
▁NH	-4798
gypt	-4799
▁Cameron	-4800
▁proceed	-4801
▁wounded	-4802
▁stars	-4803
▁suspic	-4804
▁marketing	-4805
hi	-4806
mes	-4807
raf	-4808
ican	-4809
▁reading	-4810
aks	-4811
▁views	-4812
▁options	-4813
▁expensive	-4814
▁virt	-4815
▁dream	-4816
▁Capital	-4817
▁Premier	-4818
▁Spanish	-4819
ato	-4820
▁penalty	-4821
▁Im	-4822
▁Direct	-4823
standing	-4824
▁Arizona	-4825
▁Christian	-4826
▁Ram	-4827
▁flat	-4828
▁convers	-4829
▁sup	-4830
▁meaning	-4831
▁immediate	-4832
▁taxpay	-4833
▁congress	-4834
▁unlikely	-4835
▁fort	-4836
asters	-4837
▁county	-4838
iot	-4839
▁Grand	-4840
▁conclud	-4841
▁involve	-4842
▁Gaza	-4843
▁generation	-4844
▁relatively	-4845
▁steps	-4846
▁academ	-4847
▁hits	-4848
▁dozen	-4849
exp	-4850
licop	-4851
▁broken	-4852
▁Ministry	-4853
▁broadcast	-4854
pet	-4855
▁Spe	-4856
▁Egypt	-4857
▁recru	-4858
▁arms	-4859
▁pitch	-4860
▁famous	-4861
▁multip	-4862
▁heav	-4863
▁helicop	-4864
▁coalition	-4865
rig	-4866
▁3-	-4867
▁46	-4868
▁Four	-4869
▁Among	-4870
▁terrorist	-4871
▁swe	-4872
▁hoping	-4873
▁Exchange	-4874
han	-4875
hand	-4876
sewhere	-4877
▁determined	-4878
▁1.5	-4879
▁overse	-4880
ias	-4881
▁Any	-4882
▁flag	-4883
looking	-4884
▁declared	-4885
otten	-4886
▁west	-4887
road	-4888
▁armed	-4889
▁initial	-4890
▁continuing	-4891
ulf	-4892
bury	-4893
▁ton	-4894
▁division	-4895
▁considering	-4896
▁novel	-4897
▁withdraw	-4898
▁prosecutors	-4899
ko	-4900
abor	-4901
▁Card	-4902
aped	-4903
ivals	-4904
tained	-4905
▁Met	-4906
▁fly	-4907
emocracy	-4908
▁alcohol	-4909
▁cutting	-4910
▁upon	-4911
▁Pac	-4912
▁write	-4913
▁Let	-4914
▁Michigan	-4915
▁magazine	-4916
▁sentence	-4917
▁professor	-4918
▁communities	-4919
ps	-4920
ansas	-4921
▁burn	-4922
▁plays	-4923
▁Econom	-4924
▁watching	-4925
▁Conn	-4926
▁hero	-4927
angers	-4928
quarter	-4929
▁fallen	-4930
▁session	-4931
▁frequ	-4932
▁territ	-4933
▁feeling	-4934
eban	-4935
ucky	-4936
▁exhib	-4937
▁features	-4938
▁youth	-4939
igg	-4940
▁49	-4941
▁finish	-4942
▁approval	-4943
▁Fre	-4944
▁eyes	-4945
▁Charles	-4946
▁onto	-4947
▁haven	-4948
▁teleph	-4949
▁allegedly	-4950
▁shel	-4951
▁Francisco	-4952
▁advice	-4953
▁suggests	-4954
▁type	-4955
met	-4956
anda	-4957
▁Vill	-4958
▁bodies	-4959
▁solution	-4960
▁150	-4961
▁Cur	-4962
▁shop	-4963
▁temper	-4964
▁bankrupt	-4965
awn	-4966
irt	-4967
ducing	-4968
▁rapid	-4969
▁serving	-4970
▁connection	-4971
▁Steven	-4972
▁Murray	-4973
▁TH	-4974
ivery	-4975
▁vent	-4976
▁raising	-4977
▁introduced	-4978
▁od	-4979
atever	-4980
▁emerged	-4981
▁village	-4982
▁Administration	-4983
▁Kim	-4984
▁Daniel	-4985
▁corner	-4986
▁flights	-4987
▁improved	-4988
eds	-4989
▁Are	-4990
▁estimates	-4991
▁AT	-4992
rect	-4993
▁rein	-4994
▁catch	-4995
▁surprise	-4996
▁Far	-4997
▁text	-4998
▁fewer	-4999
ini	-5000
▁bigger	-5001
▁easily	-5002
▁digital	-5003
▁collapse	-5004
▁alternative	-5005
▁Board	-5006
▁Journal	-5007
▁Stephen	-5008
gu	-5009
unte	-5010
▁Mah	-5011
▁hair	-5012
▁Island	-5013
▁Facebook	-5014
aint	-5015
▁Sud	-5016
▁Guard	-5017
▁clients	-5018
▁setting	-5019
▁2011	-5020
▁sixth	-5021
▁surge	-5022
▁plants	-5023
wise	-5024
gl	-5025
osen	-5026
elson	-5027
▁internet	-5028
▁involving	-5029
▁constitution	-5030
▁Ash	-5031
ront	-5032
uate	-5033
▁Toyota	-5034
▁restaurant	-5035
hlet	-5036
onym	-5037
▁aren	-5038
▁wood	-5039
▁closing	-5040
▁bringing	-5041
▁Hait	-5042
▁scen	-5043
▁Organ	-5044
▁aggress	-5045
▁1980	-5046
▁Star	-5047
▁deputy	-5048
▁interests	-5049
anging	-5050
▁strength	-5051
.-	-5052
▁Ten	-5053
▁critics	-5054
▁teach	-5055
edy	-5056
▁NAT	-5057
esters	-5058
ni	-5059
▁films	-5060
▁purchase	-5061
▁appearance	-5062
▁thr	-5063
▁pull	-5064
▁factors	-5065
▁studies	-5066
▁tend	-5067
▁picked	-5068
▁Sa	-5069
▁195	-5070
▁seeing	-5071
▁Win	-5072
▁tied	-5073
▁dress	-5074
▁Canadian	-5075
▁Reserve	-5076
▁combined	-5077
ales	-5078
aming	-5079
▁Corpor	-5080
▁bottom	-5081
▁creating	-5082
▁teachers	-5083
▁occup	-5084
▁Haw	-5085
▁Lew	-5086
▁climb	-5087
▁athlet	-5088
cri	-5089
▁Av	-5090
▁Ali	-5091
▁supposed	-5092
venue	-5093
▁attacked	-5094
▁Kent	-5095
▁tie	-5096
▁bench	-5097
▁opinion	-5098
▁liqu	-5099
▁draft	-5100
▁offices	-5101
▁suffering	-5102
hy	-5103
wan	-5104
▁BST	-5105
▁cruc	-5106
▁voting	-5107
known	-5108
▁allows	-5109
▁physical	-5110
▁implement	-5111
▁facilities	-5112
▁pregn	-5113
▁percentage	-5114
▁ded	-5115
▁Vict	-5116
▁47	-5117
▁gang	-5118
▁stuff	-5119
cow	-5120
urning	-5121
▁apart	-5122
▁worry	-5123
▁backed	-5124
▁established	-5125
eman	-5126
▁starts	-5127
▁completely	-5128
▁convention	-5129
▁argued	-5130
▁section	-5131
▁grew	-5132
▁nature	-5133
▁meetings	-5134
▁Gov	-5135
▁faith	-5136
▁suspended	-5137
▁Fort	-5138
▁spect	-5139
▁capacity	-5140
fol	-5141
ivity	-5142
▁diss	-5143
▁euros	-5144
▁htt	-5145
▁tom	-5146
▁Stand	-5147
▁intended	-5148
▁colleagues	-5149
▁52	-5150
embly	-5151
▁blow	-5152
▁Senator	-5153
phia	-5154
erate	-5155
▁Woods	-5156
▁pushed	-5157
▁savings	-5158
▁stories	-5159
▁possibility	-5160
put	-5161
▁boss	-5162
▁walked	-5163
▁delivery	-5164
ength	-5165
▁proced	-5166
▁animals	-5167
NA	-5168
dom	-5169
▁react	-5170
▁crimes	-5171
▁stress	-5172
quarters	-5173
▁underst	-5174
▁currency	-5175
▁speaking	-5176
▁Charl	-5177
adelphia	-5178
iami	-5179
▁Bec	-5180
▁goods	-5181
org	-5182
iable	-5183
ounger	-5184
-9	-5185
isf	-5186
▁http	-5187
▁Kevin	-5188
▁truth	-5189
▁platform	-5190
con	-5191
▁winter	-5192
▁expects	-5193
▁Philadelphia	-5194
▁investigators	-5195
▁cold	-5196
▁circum	-5197
▁drivers	-5198
▁Tour	-5199
related	-5200
▁presented	-5201
▁Sol	-5202
▁vast	-5203
▁hoped	-5204
▁relief	-5205
▁Defense	-5206
ua	-5207
ennis	-5208
▁Swed	-5209
▁mayor	-5210
▁unless	-5211
▁visitors	-5212
istics	-5213
▁combat	-5214
▁turning	-5215
▁entertain	-5216
ipping	-5217
▁actor	-5218
▁severe	-5219
▁abandon	-5220
▁shortly	-5221
▁recorded	-5222
usion	-5223
▁Only	-5224
▁Miami	-5225
▁blamed	-5226
▁entered	-5227
▁supported	-5228
▁Cit	-5229
▁photograph	-5230
▁Mem	-5231
rier	-5232
itzer	-5233
under	-5234
ansion	-5235
▁Found	-5236
owa	-5237
▁unus	-5238
▁Broad	-5239
▁civilians	-5240
ibet	-5241
▁prove	-5242
▁closer	-5243
dden	-5244
▁via	-5245
▁agent	-5246
▁headed	-5247
▁healthcare	-5248
▁Old	-5249
▁conducted	-5250
▁innov	-5251
iful	-5252
▁Tay	-5253
coming	-5254
▁River	-5255
▁Columb	-5256
▁learned	-5257
▁western	-5258
▁Business	-5259
▁bul	-5260
where	-5261
▁spark	-5262
pe	-5263
▁Mel	-5264
▁Turkey	-5265
▁advance	-5266
▁Brian	-5267
▁stood	-5268
▁standing	-5269
▁seriously	-5270
ledge	-5271
▁touchdown	-5272
▁Public	-5273
▁arrang	-5274
▁object	-5275
▁resident	-5276
▁fit	-5277
▁generally	-5278
▁recommend	-5279
▁bills	-5280
▁consist	-5281
▁proposals	-5282
▁gay	-5283
andal	-5284
ingly	-5285
fficient	-5286
▁supplies	-5287
pir	-5288
▁gains	-5289
mond	-5290
antly	-5291
▁Nick	-5292
ospitals	-5293
▁violent	-5294
kin	-5295
acked	-5296
▁airline	-5297
▁insisted	-5298
ocal	-5299
▁testing	-5300
▁substant	-5301
▁innings	-5302
▁removed	-5303
▁writing	-5304
ores	-5305
▁Moscow	-5306
▁occurred	-5307
▁terrorism	-5308
ola	-5309
▁Medical	-5310
▁Like	-5311
▁Somal	-5312
▁Parliament	-5313
▁collection	-5314
enez	-5315
▁plus	-5316
▁crude	-5317
▁van	-5318
▁captain	-5319
▁defence	-5320
▁web	-5321
▁task	-5322
▁ties	-5323
rich	-5324
irates	-5325
▁debut	-5326
▁Earlier	-5327
▁Yank	-5328
▁corruption	-5329
din	-5330
▁Stud	-5331
▁singer	-5332
▁sudden	-5333
▁reporting	-5334
▁CEO	-5335
▁spons	-5336
▁younger	-5337
▁extended	-5338
gar	-5339
▁challenges	-5340
ipe	-5341
▁gather	-5342
▁pension	-5343
ani	-5344
▁batter	-5345
▁stations	-5346
urd	-5347
▁51	-5348
▁NAS	-5349
▁Rog	-5350
ining	-5351
▁Stock	-5352
▁ceremony	-5353
▁individuals	-5354
yr	-5355
▁Brad	-5356
▁Life	-5357
▁NATO	-5358
▁glass	-5359
▁stick	-5360
▁Lu	-5361
▁pra	-5362
▁pace	-5363
▁familiar	-5364
▁Games	-5365
▁boys	-5366
▁lands	-5367
▁playoff	-5368
▁commander	-5369
▁manufactur	-5370
▁shr	-5371
▁heads	-5372
▁frustr	-5373
rep	-5374
chen	-5375
▁Roman	-5376
▁Prince	-5377
DS	-5378
▁Hamas	-5379
▁squad	-5380
▁possibly	-5381
▁interested	-5382
azz	-5383
tar	-5384
aska	-5385
▁harm	-5386
▁editor	-5387
▁household	-5388
▁sentenced	-5389
▁Rel	-5390
▁contain	-5391
▁revenues	-5392
▁style	-5393
▁contracts	-5394
mo	-5395
sex	-5396
▁eat	-5397
▁agents	-5398
▁orders	-5399
▁covered	-5400
▁absol	-5401
▁recon	-5402
▁powers	-5403
▁feature	-5404
▁lending	-5405
▁retired	-5406
olit	-5407
▁Tibet	-5408
▁healthy	-5409
▁surround	-5410
oles	-5411
usal	-5412
▁aged	-5413
▁recover	-5414
▁analysis	-5415
▁increases	-5416
▁Before	-5417
▁judges	-5418
hour	-5419
▁nor	-5420
ilton	-5421
▁Saud	-5422
▁acquis	-5423
OU	-5424
▁1999	-5425
▁wire	-5426
▁reflect	-5427
▁telephone	-5428
LA	-5429
▁assum	-5430
▁images	-5431
▁anticip	-5432
▁batt	-5433
▁museum	-5434
▁herself	-5435
▁ideas	-5436
▁Jer	-5437
▁determine	-5438
rie	-5439
▁adults	-5440
▁univers	-5441
▁commitment	-5442
▁Anal	-5443
ighter	-5444
▁gained	-5445
gers	-5446
▁Iowa	-5447
▁units	-5448
ader	-5449
amin	-5450
▁vul	-5451
▁volunte	-5452
▁Coll	-5453
▁Jul	-5454
▁Hamp	-5455
▁worried	-5456
hew	-5457
▁optim	-5458
▁Because	-5459
▁positions	-5460
cean	-5461
▁Morgan	-5462
▁compar	-5463
▁appoint	-5464
▁*	-5465
▁Dun	-5466
place	-5467
▁pool	-5468
▁rivals	-5469
▁offensive	-5470
▁Bol	-5471
stein	-5472
▁feed	-5473
▁Brook	-5474
▁McG	-5475
▁Fire	-5476
▁lobby	-5477
▁inquiry	-5478
▁electricity	-5479
vis	-5480
▁Up	-5481
▁Hot	-5482
▁suc	-5483
▁Food	-5484
▁Techn	-5485
▁device	-5486
▁partnership	-5487
▁Nas	-5488
▁Saf	-5489
▁cru	-5490
▁hal	-5491
▁cool	-5492
ologies	-5493
▁replace	-5494
▁Southern	-5495
▁NY	-5496
▁Blair	-5497
▁Young	-5498
AG	-5499
▁Daily	-5500
▁active	-5501
▁Bet	-5502
▁fan	-5503
▁Club	-5504
▁sending	-5505
▁multiple	-5506
OL	-5507
▁ABC	-5508
▁Str	-5509
▁method	-5510
orial	-5511
▁heavily	-5512
▁yield	-5513
▁collaps	-5514
▁initially	-5515
pects	-5516
▁Fund	-5517
called	-5518
▁prospect	-5519
▁applications	-5520
▁Hou	-5521
▁auction	-5522
▁fal	-5523
▁Davis	-5524
▁senator	-5525
▁maintain	-5526
urb	-5527
▁gar	-5528
▁Fred	-5529
atically	-5530
▁fish	-5531
▁findings	-5532
▁Prot	-5533
▁Earth	-5534
▁Illin	-5535
▁breat	-5536
ube	-5537
▁Long	-5538
▁maybe	-5539
▁charity	-5540
▁closely	-5541
▁Mount	-5542
▁quiet	-5543
▁telling	-5544
▁customer	-5545
▁knowledge	-5546
▁cart	-5547
▁Judge	-5548
▁wa	-5549
gment	-5550
▁oblig	-5551
▁belong	-5552
▁securities	-5553
▁controversial	-5554
abb	-5555
▁Dow	-5556
maker	-5557
mates	-5558
orrow	-5559
▁cards	-5560
▁regime	-5561
▁causing	-5562
▁protesters	-5563
town	-5564
▁Shi	-5565
▁Catholic	-5566
▁approx	-5567
▁advanced	-5568
▁hasn	-5569
▁tort	-5570
▁reput	-5571
▁depend	-5572
▁driven	-5573
burg	-5574
iary	-5575
▁Die	-5576
▁bask	-5577
▁crucial	-5578
▁Conference	-5579
rative	-5580
▁choose	-5581
▁perman	-5582
RA	-5583
▁custody	-5584
▁Illinois	-5585
▁downturn	-5586
▁Dou	-5587
▁male	-5588
▁Atlanta	-5589
loom	-5590
▁Beck	-5591
▁Here	-5592
▁complic	-5593
▁shopping	-5594
▁assistant	-5595
tle	-5596
▁Work	-5597
▁ending	-5598
▁sister	-5599
▁returning	-5600
▁54	-5601
▁Six	-5602
▁roads	-5603
▁truck	-5604
▁elimin	-5605
▁dispute	-5606
▁succeed	-5607
▁publicly	-5608
▁elsewhere	-5609
quare	-5610
▁basic	-5611
amil	-5612
▁Hong	-5613
▁targeted	-5614
▁extremely	-5615
▁sanctions	-5616
ius	-5617
▁Lewis	-5618
▁confirm	-5619
▁reportedly	-5620
ien	-5621
oma	-5622
ridge	-5623
▁Human	-5624
▁suspects	-5625
▁ho	-5626
▁Rev	-5627
heast	-5628
▁opposed	-5629
▁Argent	-5630
TA	-5631
any	-5632
▁Sudan	-5633
▁rebels	-5634
▁Develop	-5635
▁visiting	-5636
▁Ars	-5637
▁Swiss	-5638
▁potentially	-5639
▁Gra	-5640
▁Cast	-5641
▁none	-5642
▁civilian	-5643
▁enforcement	-5644
▁opportunities	-5645
▁Kong	-5646
▁replaced	-5647
▁waste	-5648
▁Jac	-5649
▁accepted	-5650
oured	-5651
▁Rober	-5652
ropriate	-5653
▁devices	-5654
▁bat	-5655
▁scale	-5656
▁Taylor	-5657
▁targets	-5658
▁Foundation	-5659
▁fee	-5660
▁detect	-5661
▁settlement	-5662
▁Dev	-5663
▁ethn	-5664
▁shift	-5665
▁chances	-5666
lick	-5667
▁Real	-5668
▁plot	-5669
market	-5670
▁split	-5671
▁vulner	-5672
▁failing	-5673
▁delivered	-5674
CC	-5675
FL	-5676
etic	-5677
▁die	-5678
▁diagn	-5679
▁buyers	-5680
▁spirit	-5681
▁solid	-5682
▁species	-5683
nam	-5684
▁GOP	-5685
▁Ahmad	-5686
▁historic	-5687
▁Der	-5688
inals	-5689
▁announce	-5690
▁negative	-5691
▁Who	-5692
▁virus	-5693
▁Du	-5694
ogue	-5695
▁Put	-5696
▁Sher	-5697
▁banned	-5698
▁length	-5699
abe	-5700
▁liter	-5701
▁visited	-5702
▁watched	-5703
sey	-5704
ograp	-5705
ullah	-5706
▁Play	-5707
▁lawsuit	-5708
▁hospitals	-5709
▁Boy	-5710
▁Eric	-5711
▁begun	-5712
resents	-5713
rys	-5714
hone	-5715
allas	-5716
icated	-5717
▁proved	-5718
▁bankruptcy	-5719
hatt	-5720
▁notes	-5721
▁compensation	-5722
minute	-5723
▁ticket	-5724
▁sitting	-5725
oe	-5726
▁Int	-5727
▁Pit	-5728
▁chain	-5729
▁decre	-5730
▁models	-5731
▁circumst	-5732
▁Bas	-5733
▁NBC	-5734
▁Out	-5735
▁Teh	-5736
eline	-5737
▁Show	-5738
▁epis	-5739
▁Sever	-5740
▁anonym	-5741
iants	-5742
ighth	-5743
▁entry	-5744
look	-5745
▁heat	-5746
▁Clark	-5747
▁Gates	-5748
▁Trust	-5749
game	-5750
▁syn	-5751
inent	-5752
ancell	-5753
▁teacher	-5754
▁direction	-5755
▁Comp	-5756
▁retirement	-5757
▁53	-5758
▁shock	-5759
▁liquid	-5760
▁thanks	-5761
▁Next	-5762
▁acting	-5763
▁guy	-5764
▁degree	-5765
▁resist	-5766
▁edge	-5767
▁Force	-5768
▁pictures	-5769
▁flow	-5770
apping	-5771
▁skills	-5772
▁networks	-5773
▁consecutive	-5774
verse	-5775
▁emph	-5776
▁artist	-5777
▁Houston	-5778
▁tradition	-5779
▁blog	-5780
Americ	-5781
▁animal	-5782
▁freedom	-5783
▁investigating	-5784
▁Jr	-5785
▁Officials	-5786
▁Lt	-5787
▁10,000	-5788
▁dozens	-5789
▁narrow	-5790
▁receiving	-5791
▁Kat	-5792
▁wed	-5793
▁print	-5794
▁trend	-5795
▁attended	-5796
▁approximately	-5797
▁apartment	-5798
▁surprising	-5799
▁800	-5800
▁disaster	-5801
▁represents	-5802
▁ble	-5803
orders	-5804
▁grown	-5805
▁highlight	-5806
rif	-5807
▁Ins	-5808
empts	-5809
▁Jewish	-5810
bl	-5811
load	-5812
▁Lyn	-5813
osite	-5814
respond	-5815
▁Former	-5816
▁liberal	-5817
rison	-5818
▁depos	-5819
▁drove	-5820
▁maker	-5821
hab	-5822
▁Ke	-5823
▁Saudi	-5824
▁missile	-5825
LE	-5826
▁mic	-5827
▁mand	-5828
urance	-5829
expected	-5830
life	-5831
rant	-5832
power	-5833
▁unve	-5834
▁exclus	-5835
▁transform	-5836
ounced	-5837
essions	-5838
▁cyc	-5839
uster	-5840
▁tact	-5841
▁Color	-5842
▁persu	-5843
▁route	-5844
▁Tehran	-5845
▁explain	-5846
▁manufacturing	-5847
▁categ	-5848
▁therap	-5849
▁experienced	-5850
▁max	-5851
▁Once	-5852
ala	-5853
▁hun	-5854
▁desper	-5855
▁warming	-5856
ca	-5857
elly	-5858
▁bare	-5859
▁wins	-5860
hattan	-5861
ette	-5862
class	-5863
▁install	-5864
▁investments	-5865
iana	-5866
▁2012	-5867
▁Chair	-5868
▁Society	-5869
▁questioned	-5870
▁seized	-5871
▁managers	-5872
▁Ell	-5873
▁outs	-5874
▁Venez	-5875
▁cells	-5876
▁Victor	-5877
▁master	-5878
▁Attorney	-5879
▁changing	-5880
▁Manhattan	-5881
athan	-5882
▁core	-5883
▁Phill	-5884
▁blast	-5885
▁headquarters	-5886
▁€	-5887
oviet	-5888
▁coff	-5889
▁trav	-5890
▁Sarah	-5891
▁Social	-5892
▁Valley	-5893
▁marked	-5894
▁significantly	-5895
ozy	-5896
fire	-5897
▁Exp	-5898
▁100,000	-5899
MA	-5900
rill	-5901
agers	-5902
▁Sark	-5903
▁zone	-5904
▁Dubai	-5905
▁plenty	-5906
irk	-5907
othing	-5908
▁sevent	-5909
▁internal	-5910
▁rebounds	-5911
▁associated	-5912
▁tiny	-5913
▁Global	-5914
▁Miller	-5915
▁eastern	-5916
assy	-5917
▁lux	-5918
▁writer	-5919
▁Di	-5920
etts	-5921
icing	-5922
mouth	-5923
owned	-5924
▁Spec	-5925
▁Leban	-5926
▁cheap	-5927
▁pleaded	-5928
▁satell	-5929
▁pointed	-5930
▁Venezuel	-5931
▁solutions	-5932
ae	-5933
▁Lib	-5934
▁knee	-5935
▁easier	-5936
▁indicated	-5937
▁otherwise	-5938
▁territory	-5939
rast	-5940
▁sick	-5941
ossible	-5942
▁shared	-5943
▁Nob	-5944
▁Sus	-5945
centr	-5946
erous	-5947
▁consequ	-5948
▁alongside	-5949
▁Management	-5950
▁acknowledged	-5951
ensus	-5952
▁impress	-5953
▁Er	-5954
etary	-5955
▁matches	-5956
▁returns	-5957
▁emerging	-5958
lvan	-5959
ellow	-5960
▁courts	-5961
▁immigration	-5962
ulate	-5963
▁satisf	-5964
▁appointed	-5965
▁Ray	-5966
▁moves	-5967
▁opponents	-5968
▁Osc	-5969
▁dial	-5970
▁smart	-5971
▁condem	-5972
▁quoted	-5973
arr	-5974
aval	-5975
▁kit	-5976
uated	-5977
▁blame	-5978
▁reputation	-5979
eded	-5980
▁auto	-5981
▁warm	-5982
▁veteran	-5983
▁Securities	-5984
amm	-5985
oor	-5986
idency	-5987
iences	-5988
▁movies	-5989
▁phones	-5990
▁Edwards	-5991
▁FBI	-5992
▁rub	-5993
▁location	-5994
▁Year	-5995
▁Feder	-5996
▁overseas	-5997
▁AF	-5998
,500	-5999
▁600	-6000
▁pump	-6001
ancellor	-6002
▁predict	-6003
▁nomination	-6004
auc	-6005
dog	-6006
▁Down	-6007
▁devast	-6008
▁handed	-6009
▁mortgages	-6010
▁Championship	-6011
▁circumstances	-6012
▁Dutch	-6013
▁ethnic	-6014
▁messages	-6015
inth	-6016
▁uses	-6017
▁correct	-6018
▁viewers	-6019
▁ministry	-6020
▁journalists	-6021
▁wake	-6022
▁please	-6023
ih	-6024
▁tow	-6025
▁1970	-6026
▁Serb	-6027
sylvan	-6028
▁Coast	-6029
▁argument	-6030
▁concentr	-6031
▁struggle	-6032
writ	-6033
▁Harry	-6034
▁Report	-6035
▁welcome	-6036
▁predicted	-6037
▁organizations	-6038
pc	-6039
era	-6040
enda	-6041
▁settle	-6042
▁Several	-6043
▁tickets	-6044
▁exercise	-6045
cks	-6046
▁Oper	-6047
▁Pros	-6048
▁toll	-6049
▁flying	-6050
▁myself	-6051
▁58	-6052
▁Nic	-6053
▁casual	-6054
▁producer	-6055
▁Pennsylvan	-6056
equ	-6057
▁scoring	-6058
▁walking	-6059
▁attempts	-6060
▁democracy	-6061
▁competitive	-6062
▁Niger	-6063
▁drawn	-6064
▁usual	-6065
▁allies	-6066
▁repeatedly	-6067
▁Es	-6068
erved	-6069
enh	-6070
othes	-6071
▁Andy	-6072
▁lowest	-6073
▁variety	-6074
▁Colorado	-6075
ED	-6076
rehens	-6077
▁resort	-6078
▁Pan	-6079
▁Diego	-6080
▁billions	-6081
▁Radio	-6082
▁leaves	-6083
▁scandal	-6084
uild	-6085
▁Mush	-6086
▁duty	-6087
▁holds	-6088
▁endors	-6089
▁mainly	-6090
IV	-6091
more	-6092
achus	-6093
ashes	-6094
▁surve	-6095
▁Howard	-6096
▁behavi	-6097
▁illness	-6098
▁entertainment	-6099
▁56	-6100
▁eth	-6101
▁gat	-6102
▁fill	-6103
▁wine	-6104
▁Pacific	-6105
▁USA	-6106
▁rid	-6107
▁leads	-6108
▁whatever	-6109
▁owns	-6110
▁seventh	-6111
▁Gulf	-6112
▁tast	-6113
▁rural	-6114
▁fol	-6115
rysler	-6116
▁excess	-6117
▁premium	-6118
operation	-6119
hem	-6120
▁64	-6121
▁Minnes	-6122
▁notice	-6123
▁square	-6124
▁earthqu	-6125
▁farmers	-6126
▁pledged	-6127
▁Yah	-6128
autiful	-6129
▁passing	-6130
▁Pennsylvania	-6131
▁mut	-6132
worth	-6133
▁journ	-6134
▁wides	-6135
▁dismissed	-6136
▁surrounding	-6137
▁Zeal	-6138
▁drinking	-6139
▁interesting	-6140
season	-6141
▁complaints	-6142
igned	-6143
▁Bang	-6144
▁Qaeda	-6145
achusetts	-6146
▁Top	-6147
pread	-6148
▁symb	-6149
ifying	-6150
▁actress	-6151
▁identify	-6152
oen	-6153
abul	-6154
▁Yemen	-6155
▁Yankees	-6156
▁writers	-6157
▁claiming	-6158
▁Minnesota	-6159
SP	-6160
otic	-6161
▁ast	-6162
water	-6163
▁Sand	-6164
▁Henry	-6165
▁actual	-6166
▁mental	-6167
▁Sarkozy	-6168
va	-6169
▁favorite	-6170
▁supporting	-6171
▁Mu	-6172
▁Abb	-6173
arraf	-6174
▁migr	-6175
▁drama	-6176
▁belief	-6177
star	-6178
▁Dod	-6179
▁Van	-6180
stone	-6181
▁values	-6182
raig	-6183
▁basket	-6184
iversary	-6185
▁heading	-6186
▁pushing	-6187
▁Palestinians	-6188
▁festival	-6189
▁Massachusetts	-6190
▁archit	-6191
▁filled	-6192
fall	-6193
▁ven	-6194
▁threw	-6195
▁Chrysler	-6196
▁function	-6197
▁personnel	-6198
argo	-6199
chang	-6200
▁Bell	-6201
▁located	-6202
▁becomes	-6203
▁ongoing	-6204
▁impossible	-6205
ching	-6206
▁Bowl	-6207
▁apply	-6208
▁songs	-6209
▁Though	-6210
▁Analyst	-6211
▁Hug	-6212
▁Test	-6213
▁hall	-6214
▁photos	-6215
▁affairs	-6216
▁distribut	-6217
▁widespread	-6218
▁•	-6219
▁golf	-6220
▁rent	-6221
rastructure	-6222
illy	-6223
▁Hur	-6224
▁Viet	-6225
▁2,000	-6226
▁manage	-6227
▁margin	-6228
▁window	-6229
▁chemical	-6230
▁emphas	-6231
▁troubled	-6232
▁1.4	-6233
▁enh	-6234
▁earn	-6235
▁contrast	-6236
zai	-6237
▁62	-6238
▁Ok	-6239
icon	-6240
▁Shar	-6241
▁Zimb	-6242
▁remove	-6243
▁behavior	-6244
▁activists	-6245
10	-6246
▁Det	-6247
▁magn	-6248
▁Colomb	-6249
▁1998	-6250
▁Turk	-6251
orough	-6252
abwe	-6253
▁1.2	-6254
▁1997	-6255
▁argue	-6256
▁clubs	-6257
▁seasons	-6258
yo	-6259
▁59	-6260
▁Tai	-6261
▁tackle	-6262
▁Zimbabwe	-6263
▁attempted	-6264
▁independence	-6265
acle	-6266
▁Bry	-6267
▁Soviet	-6268
▁dinner	-6269
▁identity	-6270
▁practices	-6271
▁application	-6272
ais	-6273
▁Add	-6274
▁skin	-6275
▁Allen	-6276
-10	-6277
▁Corn	-6278
ulture	-6279
▁Arsenal	-6280
▁happens	-6281
▁assistance	-6282
▁Chen	-6283
▁stands	-6284
aire	-6285
▁Dal	-6286
▁era	-6287
itely	-6288
▁parent	-6289
▁Musharraf	-6290
ship	-6291
▁factor	-6292
▁requires	-6293
▁regulators	-6294
▁rol	-6295
style	-6296
▁equal	-6297
▁Dallas	-6298
▁tested	-6299
▁Zealand	-6300
▁Robinson	-6301
▁properties	-6302
▁Corporation	-6303
away	-6304
eing	-6305
haul	-6306
iency	-6307
▁memory	-6308
▁prompted	-6309
▁Id	-6310
▁pal	-6311
▁camera	-6312
▁Executive	-6313
▁registered	-6314
▁57	-6315
▁Us	-6316
▁stro	-6317
ivision	-6318
▁bright	-6319
▁greatest	-6320
▁encourage	-6321
hus	-6322
▁sad	-6323
▁drew	-6324
▁Simon	-6325
▁excell	-6326
▁neither	-6327
▁surprised	-6328
sters	-6329
▁matters	-6330
▁Chairman	-6331
▁expansion	-6332
▁strategic	-6333
▁ped	-6334
▁Gall	-6335
▁monit	-6336
▁jumped	-6337
▁72	-6338
▁Pent	-6339
▁roll	-6340
▁ring	-6341
atures	-6342
rators	-6343
▁adviser	-6344
▁learning	-6345
▁destroyed	-6346
▁Ky	-6347
inct	-6348
▁Sea	-6349
apped	-6350
adow	-6351
abled	-6352
acement	-6353
ao	-6354
▁Ox	-6355
rain	-6356
▁Hay	-6357
utely	-6358
▁boat	-6359
encing	-6360
▁pilot	-6361
ords	-6362
▁gap	-6363
▁Gi	-6364
▁sy	-6365
▁Gib	-6366
▁anniversary	-6367
CO	-6368
DP	-6369
acks	-6370
▁yen	-6371
▁Major	-6372
▁accompan	-6373
imp	-6374
etime	-6375
veland	-6376
▁Enter	-6377
▁stronger	-6378
rist	-6379
▁Wat	-6380
▁calc	-6381
▁nurs	-6382
▁sets	-6383
▁express	-6384
echan	-6385
▁Jose	-6386
▁arts	-6387
▁threats	-6388
▁employee	-6389
onent	-6390
▁Yahoo	-6391
▁agenda	-6392
▁Eastern	-6393
▁payment	-6394
▁rooms	-6395
▁Academ	-6396
▁unusual	-6397
▁restaurants	-6398
▁congressional	-6399
ked	-6400
▁CD	-6401
▁bom	-6402
▁Barb	-6403
▁roughly	-6404
▁Children	-6405
▁reduction	-6406
▁discussion	-6407
▁Vol	-6408
▁bound	-6409
▁witnesses	-6410
uts	-6411
▁Env	-6412
▁Alan	-6413
▁Museum	-6414
▁Indones	-6415
ece	-6416
ovic	-6417
▁Leg	-6418
eland	-6419
▁aside	-6420
▁eighth	-6421
▁artists	-6422
▁compete	-6423
▁u	-6424
jad	-6425
▁Bh	-6426
▁Such	-6427
▁sand	-6428
▁cable	-6429
▁parliamentary	-6430
▁swim	-6431
▁demands	-6432
▁promote	-6433
▁cultural	-6434
▁electronic	-6435
▁2.5	-6436
▁subm	-6437
▁portfol	-6438
▁mountain	-6439
▁Ross	-6440
▁angry	-6441
▁fixed	-6442
ologist	-6443
▁66	-6444
▁adopt	-6445
▁bonds	-6446
▁System	-6447
▁Twitter	-6448
egas	-6449
▁dil	-6450
ordan	-6451
▁Cleveland	-6452
agen	-6453
reek	-6454
▁tun	-6455
merce	-6456
tered	-6457
▁fled	-6458
▁switch	-6459
▁collapsed	-6460
▁Conservative	-6461
▁newly	-6462
▁unique	-6463
▁stepped	-6464
▁correspond	-6465
agged	-6466
▁forecl	-6467
▁Maryland	-6468
▁estimate	-6469
mate	-6470
▁Sum	-6471
▁hed	-6472
▁lit	-6473
abbed	-6474
▁promise	-6475
▁dramatic	-6476
▁regulation	-6477
▁Ty	-6478
▁McD	-6479
▁responded	-6480
▁NFL	-6481
▁hole	-6482
▁priority	-6483
▁infrastructure	-6484
▁700	-6485
▁Cuba	-6486
▁Time	-6487
▁Pitts	-6488
▁Taiwan	-6489
▁abroad	-6490
izes	-6491
rell	-6492
▁Fair	-6493
ribute	-6494
▁Elect	-6495
▁vital	-6496
▁remarks	-6497
▁soldier	-6498
▁Analysts	-6499
omet	-6500
▁Las	-6501
▁trees	-6502
▁client	-6503
▁minority	-6504
AP	-6505
IL	-6506
bro	-6507
cle	-6508
▁Cop	-6509
eller	-6510
▁Queen	-6511
▁dance	-6512
▁false	-6513
▁concert	-6514
▁reducing	-6515
▁understanding	-6516
can	-6517
cont	-6518
hman	-6519
ishes	-6520
itable	-6521
ricane	-6522
▁Haiti	-6523
▁deeply	-6524
▁comprom	-6525
▁radical	-6526
▁preparing	-6527
▁Uk	-6528
▁NHS	-6529
▁Latin	-6530
▁insist	-6531
▁damaged	-6532
▁introdu	-6533
▁technical	-6534
week	-6535
oster	-6536
▁apprec	-6537
▁conver	-6538
▁listen	-6539
election	-6540
▁constit	-6541
▁beautiful	-6542
11	-6543
▁cy	-6544
half	-6545
▁patrol	-6546
▁lenders	-6547
▁prisoners	-6548
▁effectively	-6549
boy	-6550
gus	-6551
▁empt	-6552
▁nice	-6553
▁invent	-6554
▁quarterback	-6555
▁Fil	-6556
▁semi	-6557
ups	-6558
▁Sk	-6559
aven	-6560
whel	-6561
itage	-6562
▁honor	-6563
▁iPhone	-6564
▁machine	-6565
iner	-6566
▁gro	-6567
▁theat	-6568
▁awarded	-6569
▁vulnerable	-6570
▁incent	-6571
▁administ	-6572
▁baseball	-6573
▁temporary	-6574
nd	-6575
▁listed	-6576
▁stream	-6577
▁vision	-6578
▁Development	-6579
▁Sl	-6580
▁tank	-6581
▁beating	-6582
iano	-6583
▁wish	-6584
▁begins	-6585
▁modest	-6586
▁Seattle	-6587
▁journey	-6588
aze	-6589
▁63	-6590
▁1.3	-6591
▁bear	-6592
▁pray	-6593
▁sect	-6594
▁wave	-6595
▁Beach	-6596
▁Wilson	-6597
▁sharply	-6598
▁structure	-6599
anes	-6600
▁Abu	-6601
▁dogs	-6602
▁myst	-6603
▁alive	-6604
▁hitting	-6605
▁Atlantic	-6606
▁discussed	-6607
,7	-6608
iate	-6609
olen	-6610
organ	-6611
▁remind	-6612
▁Goldman	-6613
▁equival	-6614
▁Anderson	-6615
▁materials	-6616
▁Anth	-6617
▁NASA	-6618
▁Craig	-6619
▁prize	-6620
▁proud	-6621
▁thinks	-6622
▁performed	-6623
▁kil	-6624
▁feels	-6625
▁detain	-6626
▁Camb	-6627
▁roof	-6628
▁accel	-6629
▁franch	-6630
▁sustain	-6631
▁00	-6632
Call	-6633
ureau	-6634
▁evac	-6635
overty	-6636
▁surface	-6637
▁luxury	-6638
▁monthly	-6639
▁occasion	-6640
▁improving	-6641
die	-6642
▁slump	-6643
▁gathered	-6644
▁originally	-6645
▁cry	-6646
fur	-6647
rees	-6648
icken	-6649
▁photo	-6650
▁swine	-6651
▁superv	-6652
▁plastic	-6653
▁Pittsburgh	-6654
▁Hu	-6655
▁Dem	-6656
▁spr	-6657
grade	-6658
▁paint	-6659
▁Wright	-6660
▁outcome	-6661
▁breaking	-6662
▁Nev	-6663
▁worker	-6664
▁obvious	-6665
▁67	-6666
▁68	-6667
aken	-6668
isan	-6669
▁Bir	-6670
▁Dam	-6671
icial	-6672
▁Blue	-6673
▁Care	-6674
▁Navy	-6675
▁stem	-6676
▁dealing	-6677
▁reaction	-6678
▁nationwide	-6679
poin	-6680
vant	-6681
▁Vice	-6682
amples	-6683
▁Mexican	-6684
▁backing	-6685
▁Transport	-6686
▁fundament	-6687
▁speculation	-6688
ET	-6689
▁THE	-6690
▁rush	-6691
▁Roberts	-6692
▁Director	-6693
▁survived	-6694
▁behaviour	-6695
▁understood	-6696
OND	-6697
ita	-6698
▁Way	-6699
gents	-6700
▁Crown	-6701
oration	-6702
▁counts	-6703
▁garden	-6704
▁edition	-6705
▁musical	-6706
▁computers	-6707
▁diplomatic	-6708
▁earthquake	-6709
olas	-6710
▁limits	-6711
▁unclear	-6712
▁Columbia	-6713
▁detained	-6714
▁militant	-6715
▁Hampshire	-6716
▁ultimately	-6717
la	-6718
▁lie	-6719
owners	-6720
▁beach	-6721
▁river	-6722
▁formal	-6723
▁Thompson	-6724
,2	-6725
GEL	-6726
lyn	-6727
▁Luc	-6728
▁gross	-6729
▁Kansas	-6730
▁scientific	-6731
▁Tok	-6732
▁unn	-6733
First	-6734
ography	-6735
▁improvement	-6736
lets	-6737
▁sch	-6738
▁Marc	-6739
▁Second	-6740
▁granted	-6741
OT	-6742
▁250	-6743
▁rum	-6744
amber	-6745
eeper	-6746
igation	-6747
▁LOS	-6748
▁Karzai	-6749
▁stadium	-6750
▁tomorrow	-6751
▁Environment	-6752
▁Bru	-6753
▁Stew	-6754
▁Wind	-6755
▁ends	-6756
▁Indust	-6757
▁Michel	-6758
▁extend	-6759
idelines	-6760
▁Profile	-6761
▁economies	-6762
▁relatives	-6763
ova	-6764
rad	-6765
ocol	-6766
▁accur	-6767
▁diver	-6768
▁elder	-6769
▁Brother	-6770
▁letters	-6771
ello	-6772
▁string	-6773
▁collabor	-6774
▁schedule	-6775
▁trail	-6776
▁suffer	-6777
abilities	-6778
▁concluded	-6779
▁recovered	-6780
ram	-6781
▁5,000	-6782
▁Vegas	-6783
▁Stanley	-6784
▁bailout	-6785
▁captured	-6786
▁overwhel	-6787
rim	-6788
irts	-6789
▁anc	-6790
riers	-6791
▁Ever	-6792
▁Your	-6793
▁partly	-6794
▁instance	-6795
▁Authority	-6796
oral	-6797
▁DNA	-6798
▁Stadium	-6799
▁Pentagon	-6800
▁communications	-6801
▁sees	-6802
▁stun	-6803
▁ANGEL	-6804
▁Ut	-6805
essed	-6806
ports	-6807
▁sweet	-6808
▁upset	-6809
▁chosen	-6810
▁venture	-6811
▁employment	-6812
▁resolution	-6813
olis	-6814
pass	-6815
weight	-6816
▁turns	-6817
▁forest	-6818
▁overnight	-6819
▁initiative	-6820
▁Ian	-6821
inder	-6822
inejad	-6823
unction	-6824
▁dry	-6825
▁Media	-6826
▁badly	-6827
▁clothes	-6828
▁reaching	-6829
▁laid	-6830
▁struggled	-6831
▁Authorities	-6832
profit	-6833
▁Jordan	-6834
▁Academy	-6835
▁Anthony	-6836
▁trillion	-6837
▁immigrants	-6838
ails	-6839
▁Hond	-6840
▁file	-6841
▁guys	-6842
▁mixed	-6843
▁Consum	-6844
▁Ronald	-6845
agan	-6846
arsh	-6847
▁Wild	-6848
▁divor	-6849
▁bonuses	-6850
▁financing	-6851
▁Ant	-6852
▁Educ	-6853
▁links	-6854
▁subsequ	-6855
FirstCall	-6856
▁presidency	-6857
▁regulatory	-6858
oned	-6859
third	-6860
▁shif	-6861
▁multi	-6862
▁Rights	-6863
▁breast	-6864
▁managing	-6865
▁strongly	-6866
▁prin	-6867
▁entirely	-6868
▁forg	-6869
▁helps	-6870
▁vaccine	-6871
▁satellite	-6872
▁helicopter	-6873
▁discussions	-6874
▁Cro	-6875
▁1960	-6876
▁enem	-6877
▁fought	-6878
▁papers	-6879
▁Ahmadinejad	-6880
rav	-6881
▁Land	-6882
▁Lind	-6883
▁Labor	-6884
▁tells	-6885
▁comedy	-6886
▁streak	-6887
▁ANGELES	-6888
▁permanent	-6889
osis	-6890
▁193	-6891
assador	-6892
▁rocket	-6893
▁explained	-6894
▁regulations	-6895
▁truly	-6896
▁coin	-6897
▁Mayor	-6898
▁causes	-6899
▁minimum	-6900
▁Champions	-6901
fe	-6902
arch	-6903
▁Gal	-6904
break	-6905
ielder	-6906
stream	-6907
itarian	-6908
▁combination	-6909
▁pin	-6910
▁fant	-6911
▁harder	-6912
daq	-6913
▁code	-6914
▁Romney	-6915
▁termin	-6916
▁insurgents	-6917
▁Mir	-6918
▁pen	-6919
▁asset	-6920
▁lunch	-6921
▁recall	-6922
▁factory	-6923
▁futures	-6924
▁regarding	-6925
▁Form	-6926
▁Lloy	-6927
▁canc	-6928
▁loyal	-6929
▁bridge	-6930
▁pieces	-6931
▁unions	-6932
▁defensive	-6933
▁requirements	-6934
▁restrictions	-6935
asy	-6936
itary	-6937
▁Orle	-6938
▁mine	-6939
▁Quote	-6940
▁Tokyo	-6941
▁Nasdaq	-6942
,6	-6943
PA	-6944
PS	-6945
▁sky	-6946
▁Joseph	-6947
▁talent	-6948
▁shoulder	-6949
▁85	-6950
▁FT	-6951
American	-6952
▁delegates	-6953
▁guarantee	-6954
▁passenger	-6955
▁producers	-6956
▁71	-6957
iser	-6958
ppers	-6959
▁hired	-6960
▁apolog	-6961
▁indeed	-6962
rehensive	-6963
uits	-6964
oline	-6965
▁ninth	-6966
▁remote	-6967
▁operate	-6968
▁fighters	-6969
▁criticized	-6970
▁Sn	-6971
▁sac	-6972
▁Each	-6973
▁Jason	-6974
▁anger	-6975
cription	-6976
▁pattern	-6977
▁Professor	-6978
▁extraordin	-6979
,3	-6980
▁PC	-6981
enny	-6982
▁Ros	-6983
▁anx	-6984
▁Greg	-6985
▁busy	-6986
▁tree	-6987
▁passes	-6988
▁numerous	-6989
▁prominent	-6990
▁61	-6991
▁Jam	-6992
▁Jay	-6993
▁sear	-6994
▁seed	-6995
▁vess	-6996
▁medal	-6997
▁intent	-6998
oes	-6999
▁eval	-7000
backed	-7001
▁stayed	-7002
▁Prosecut	-7003
lers	-7004
uous	-7005
▁ment	-7006
uations	-7007
▁honest	-7008
▁distribution	-7009
ella	-7010
▁tor	-7011
▁Turn	-7012
▁shops	-7013
▁Orleans	-7014
▁involvement	-7015
orry	-7016
▁Rio	-7017
▁cha	-7018
▁pip	-7019
▁pup	-7020
▁Greece	-7021
▁punish	-7022
▁creation	-7023
▁acquisition	-7024
dy	-7025
izz	-7026
▁Cross	-7027
▁Disney	-7028
▁escape	-7029
▁studio	-7030
▁democrat	-7031
▁Independ	-7032
emic	-7033
owell	-7034
▁alert	-7035
▁shape	-7036
▁Berlin	-7037
▁invited	-7038
izon	-7039
▁tab	-7040
▁ride	-7041
eeping	-7042
▁Alaska	-7043
▁behalf	-7044
▁conclus	-7045
▁directed	-7046
▁essential	-7047
▁equivalent	-7048
aya	-7049
▁mel	-7050
casts	-7051
▁loved	-7052
▁jailed	-7053
aida	-7054
▁Motor	-7055
▁divid	-7056
▁citing	-7057
▁Standard	-7058
amo	-7059
olds	-7060
force	-7061
▁copy	-7062
▁ease	-7063
▁peak	-7064
▁wing	-7065
▁scores	-7066
▁stolen	-7067
▁joining	-7068
▁ge	-7069
▁fro	-7070
▁Jean	-7071
▁Mand	-7072
▁color	-7073
▁bombing	-7074
▁founded	-7075
▁20-	-7076
▁Rick	-7077
▁directors	-7078
▁Did	-7079
▁meat	-7080
▁Santa	-7081
▁Fergus	-7082
▁Channel	-7083
▁Stewart	-7084
hat	-7085
law	-7086
▁Whe	-7087
▁ballot	-7088
▁formed	-7089
▁poverty	-7090
EA	-7091
rage	-7092
▁Yes	-7093
▁Staff	-7094
▁discip	-7095
▁enthus	-7096
▁typically	-7097
▁appropriate	-7098
mosp	-7099
▁15-	-7100
▁cert	-7101
▁crop	-7102
▁saved	-7103
▁awards	-7104
▁handle	-7105
▁silver	-7106
▁Rangers	-7107
▁exports	-7108
▁grounds	-7109
▁Lank	-7110
▁sympt	-7111
▁eating	-7112
▁testim	-7113
▁instruct	-7114
,8	-7115
aret	-7116
chest	-7117
▁Tory	-7118
▁keen	-7119
▁Water	-7120
▁types	-7121
▁export	-7122
▁waters	-7123
▁welcom	-7124
▁moments	-7125
▁IP	-7126
▁Sri	-7127
▁Putin	-7128
▁emotional	-7129
▁characters	-7130
▁Oil	-7131
▁Pot	-7132
▁ordin	-7133
▁Square	-7134
▁hardly	-7135
▁mechan	-7136
▁coordin	-7137
▁strikes	-7138
▁deadline	-7139
ba	-7140
sen	-7141
uez	-7142
▁DV	-7143
isers	-7144
▁lots	-7145
▁adult	-7146
▁faster	-7147
▁counsel	-7148
▁enjoyed	-7149
▁detailed	-7150
▁architect	-7151
▁absolutely	-7152
▁rom	-7153
▁Bull	-7154
▁Perhaps	-7155
▁30-	-7156
▁isol	-7157
luding	-7158
▁displ	-7159
▁Federer	-7160
▁ratings	-7161
▁overhaul	-7162
▁explosion	-7163
▁interviews	-7164
lus	-7165
▁69	-7166
wing	-7167
▁hang	-7168
▁Series	-7169
▁beaten	-7170
▁classic	-7171
▁contained	-7172
free	-7173
real	-7174
▁native	-7175
▁talked	-7176
ga	-7177
icy	-7178
▁toug	-7179
▁cited	-7180
▁Airlines	-7181
▁complained	-7182
▁revolution	-7183
then	-7184
▁ads	-7185
▁Balt	-7186
▁Switzer	-7187
ses	-7188
heim	-7189
▁Has	-7190
▁Sony	-7191
▁innoc	-7192
▁Denver	-7193
▁CH	-7194
▁Shiite	-7195
▁desire	-7196
▁Patrick	-7197
▁follows	-7198
ugby	-7199
▁stable	-7200
▁founder	-7201
▁updated	-7202
▁primarily	-7203
▁regularly	-7204
▁retailers	-7205
iden	-7206
mingham	-7207
▁Matthew	-7208
▁Get	-7209
▁Mug	-7210
▁spin	-7211
▁Oscar	-7212
▁steel	-7213
▁trick	-7214
▁institution	-7215
▁ham	-7216
opher	-7217
ernand	-7218
▁Kelly	-7219
▁Centre	-7220
▁delayed	-7221
▁regions	-7222
▁Switzerland	-7223
dr	-7224
▁Music	-7225
▁mistake	-7226
▁airlines	-7227
odes	-7228
ollar	-7229
▁cancel	-7230
▁transl	-7231
▁publ	-7232
▁empty	-7233
▁exposure	-7234
▁Represent	-7235
▁78	-7236
▁Mun	-7237
▁lift	-7238
ception	-7239
▁commod	-7240
▁inning	-7241
▁intens	-7242
▁Lar	-7243
▁Class	-7244
▁wound	-7245
▁newspapers	-7246
ads	-7247
▁Ball	-7248
▁restruct	-7249
▁dedicated	-7250
▁representing	-7251
▁hyp	-7252
idden	-7253
▁Walk	-7254
▁stretch	-7255
▁controlled	-7256
▁Ts	-7257
ectic	-7258
▁fier	-7259
▁nominee	-7260
▁celebrity	-7261
▁aggressive	-7262
▁outstanding	-7263
ONDON	-7264
▁Foot	-7265
▁Lake	-7266
▁Women	-7267
▁metal	-7268
▁LONDON	-7269
▁maximum	-7270
▁teenager	-7271
kes	-7272
eting	-7273
▁3,000	-7274
▁Hotel	-7275
▁pharm	-7276
,4	-7277
eren	-7278
▁Arm	-7279
▁1994	-7280
igroup	-7281
▁Anton	-7282
▁adjust	-7283
formation	-7284
▁selected	-7285
▁impressive	-7286
▁egg	-7287
ailand	-7288
▁Program	-7289
▁tourists	-7290
level	-7291
▁bath	-7292
▁Where	-7293
▁Gh	-7294
▁sight	-7295
▁Hamilton	-7296
▁investor	-7297
▁73	-7298
▁Hus	-7299
▁bol	-7300
▁outlook	-7301
▁abortion	-7302
▁importance	-7303
▁Hy	-7304
▁Cole	-7305
▁chose	-7306
▁fields	-7307
▁struct	-7308
▁Vietnam	-7309
▁portfolio	-7310
▁differences	-7311
pm	-7312
▁hat	-7313
▁Game	-7314
▁Shan	-7315
▁embr	-7316
▁rall	-7317
▁tens	-7318
▁amounts	-7319
▁Ferguson	-7320
▁association	-7321
▁represented	-7322
GA	-7323
LC	-7324
uma	-7325
▁Ow	-7326
▁CIA	-7327
▁Sub	-7328
ortunately	-7329
▁Citigroup	-7330
onz	-7331
abet	-7332
▁12-	-7333
▁Fla	-7334
▁label	-7335
▁brings	-7336
ications	-7337
▁cabinet	-7338
▁reforms	-7339
▁terrorists	-7340
▁substantial	-7341
▁IS	-7342
bell	-7343
▁Five	-7344
▁Muslims	-7345
ati	-7346
▁af	-7347
▁Aff	-7348
▁Back	-7349
▁Wels	-7350
▁neck	-7351
olitan	-7352
usalem	-7353
▁Portug	-7354
▁Thailand	-7355
vy	-7356
ikh	-7357
bery	-7358
▁Ren	-7359
▁Adam	-7360
▁Burn	-7361
▁handling	-7362
▁obtained	-7363
▁Jerusalem	-7364
aden	-7365
▁diet	-7366
▁height	-7367
▁demanding	-7368
▁unw	-7369
cious	-7370
▁Best	-7371
▁Rand	-7372
ashing	-7373
▁deliber	-7374
▁imposed	-7375
▁stability	-7376
▁recommended	-7377
▁76	-7378
▁Li	-7379
▁guns	-7380
▁guests	-7381
▁yourself	-7382
▁meanwhile	-7383
kel	-7384
▁Nad	-7385
▁phil	-7386
arrass	-7387
▁Warner	-7388
▁trials	-7389
car	-7390
▁Deb	-7391
▁ing	-7392
▁boom	-7393
▁urban	-7394
ulations	-7395
▁intense	-7396
uls	-7397
umes	-7398
▁Ban	-7399
▁instru	-7400
▁kitchen	-7401
▁teaching	-7402
▁excellent	-7403
▁IT	-7404
▁mir	-7405
ptions	-7406
▁conce	-7407
▁motiv	-7408
▁reward	-7409
▁comfortable	-7410
▁controversy	-7411
▁Ku	-7412
▁1995	-7413
▁Maybe	-7414
▁deadly	-7415
▁cameras	-7416
▁prosecution	-7417
▁Edin	-7418
▁lies	-7419
▁thrown	-7420
▁signing	-7421
▁employers	-7422
ibb	-7423
iro	-7424
▁Gary	-7425
▁Rice	-7426
active	-7427
iamond	-7428
iveness	-7429
▁Prov	-7430
▁plun	-7431
▁complaint	-7432
▁specialist	-7433
▁IM	-7434
▁Mod	-7435
orage	-7436
inking	-7437
piracy	-7438
▁Bloom	-7439
▁surviv	-7440
UR	-7441
▁Max	-7442
▁SEC	-7443
▁coc	-7444
▁rig	-7445
ishop	-7446
▁consequences	-7447
▁Bab	-7448
▁fed	-7449
▁extent	-7450
▁titles	-7451
▁Jonathan	-7452
▁incidents	-7453
onto	-7454
▁McL	-7455
▁yes	-7456
▁agric	-7457
▁reserves	-7458
▁embarrass	-7459
▁testimony	-7460
▁Birmingham	-7461
▁coffee	-7462
▁drawing	-7463
ded	-7464
▁tum	-7465
prise	-7466
▁Hart	-7467
▁Mugabe	-7468
▁output	-7469
▁Commons	-7470
▁passion	-7471
struction	-7472
▁demanded	-7473
▁Edinburgh	-7474
▁bin	-7475
Qaeda	-7476
▁trop	-7477
ibrary	-7478
▁solar	-7479
▁weren	-7480
▁atmosp	-7481
▁theory	-7482
▁designer	-7483
▁challenging	-7484
azing	-7485
▁Guant	-7486
▁doors	-7487
▁legit	-7488
▁tribal	-7489
▁economists	-7490
▁officially	-7491
rd	-7492
▁AIG	-7493
▁occas	-7494
ultural	-7495
▁Avenue	-7496
▁striker	-7497
▁constitu	-7498
▁sensitive	-7499
log	-7500
beat	-7501
vard	-7502
▁Lis	-7503
abeth	-7504
apore	-7505
▁weapon	-7506
▁participants	-7507
▁1996	-7508
▁Celt	-7509
▁Glas	-7510
▁brands	-7511
▁dealers	-7512
▁Education	-7513
▁Ret	-7514
rence	-7515
earing	-7516
▁Milan	-7517
▁forms	-7518
▁hotels	-7519
▁survive	-7520
▁intention	-7521
▁taxpayers	-7522
▁Doc	-7523
▁Khan	-7524
▁disag	-7525
▁sounds	-7526
▁adopted	-7527
▁provider	-7528
▁takeover	-7529
▁selection	-7530
▁exhibition	-7531
▁threatening	-7532
▁comprehensive	-7533
▁manufacturers	-7534
▁TM	-7535
▁Plan	-7536
▁milk	-7537
▁tall	-7538
▁wheel	-7539
▁Poland	-7540
▁reluct	-7541
▁salary	-7542
▁Nik	-7543
making	-7544
▁Giants	-7545
▁Cz	-7546
lobe	-7547
▁elig	-7548
▁classes	-7549
▁cleared	-7550
▁crashed	-7551
▁prepare	-7552
▁Division	-7553
▁Medicare	-7554
▁acquired	-7555
▁economist	-7556
▁1.6	-7557
ollah	-7558
▁acts	-7559
▁horse	-7560
▁accompl	-7561
▁prosecutor	-7562
▁Prop	-7563
▁winners	-7564
▁Argentina	-7565
▁Singapore	-7566
bar	-7567
▁AFP	-7568
castle	-7569
▁Turkish	-7570
▁rapidly	-7571
▁unveiled	-7572
▁anonymity	-7573
▁franchise	-7574
▁photograp	-7575
▁principal	-7576
▁1.1	-7577
▁Hun	-7578
▁cul	-7579
▁Polit	-7580
▁Motors	-7581
▁expense	-7582
▁forcing	-7583
gow	-7584
▁Bud	-7585
▁firef	-7586
▁marks	-7587
▁Madrid	-7588
▁barely	-7589
▁column	-7590
▁blocked	-7591
▁industries	-7592
▁monitoring	-7593
▁Ho	-7594
Qaida	-7595
rapped	-7596
▁purpose	-7597
▁alliance	-7598
▁pregnant	-7599
▁participate	-7600
rett	-7601
▁Supp	-7602
▁lock	-7603
▁pleas	-7604
▁guardian	-7605
▁abandoned	-7606
▁Mill	-7607
▁aver	-7608
▁enorm	-7609
▁wider	-7610
▁Conservatives	-7611
otal	-7612
iques	-7613
▁flex	-7614
▁episode	-7615
▁greenhouse	-7616
▁AC	-7617
▁Fel	-7618
▁Kos	-7619
▁Linc	-7620
▁discount	-7621
▁opposite	-7622
▁recalled	-7623
▁locations	-7624
▁suggesting	-7625
xic	-7626
imal	-7627
iform	-7628
▁nerv	-7629
▁smoke	-7630
▁telec	-7631
▁rating	-7632
▁volume	-7633
▁Toronto	-7634
,9	-7635
apolis	-7636
▁Barcl	-7637
▁Space	-7638
▁stuck	-7639
▁conven	-7640
▁exceed	-7641
▁welcomed	-7642
▁suspicion	-7643
▁encouraged	-7644
▁Raf	-7645
▁Belg	-7646
▁kidn	-7647
▁Lehman	-7648
▁technologies	-7649
OM	-7650
ums	-7651
ouri	-7652
▁3.5	-7653
▁Syria	-7654
▁exposed	-7655
▁trained	-7656
▁controls	-7657
▁defending	-7658
▁ST	-7659
amily	-7660
▁select	-7661
▁Guardian	-7662
▁distance	-7663
▁suddenly	-7664
▁extraordinary	-7665
-19	-7666
rors	-7667
▁Pel	-7668
aders	-7669
▁Dick	-7670
▁puts	-7671
▁interp	-7672
▁gasoline	-7673
▁Christopher	-7674
ommod	-7675
▁cler	-7676
▁publish	-7677
▁achieved	-7678
▁therefore	-7679
aug	-7680
zen	-7681
▁74	-7682
irty	-7683
▁bow	-7684
igers	-7685
▁frag	-7686
holder	-7687
▁wireless	-7688
▁detention	-7689
▁verd	-7690
▁forget	-7691
▁implic	-7692
▁treaty	-7693
▁campaigns	-7694
awa	-7695
ura	-7696
5,000	-7697
▁....	-7698
▁imagine	-7699
auty	-7700
iece	-7701
ouch	-7702
oenix	-7703
▁laugh	-7704
▁foundation	-7705
AM	-7706
lah	-7707
lan	-7708
rah	-7709
inem	-7710
▁Near	-7711
▁quit	-7712
▁Kenya	-7713
▁grass	-7714
▁knock	-7715
▁encoun	-7716
▁restructuring	-7717
aki	-7718
how	-7719
▁Mit	-7720
▁Buff	-7721
alling	-7722
icking	-7723
▁Roger	-7724
▁Harris	-7725
▁Indiana	-7726
▁entering	-7727
▁1992	-7728
▁centers	-7729
▁delight	-7730
▁properly	-7731
▁referring	-7732
▁possession	-7733
▁strengthen	-7734
▁disappointed	-7735
obs	-7736
▁reass	-7737
▁tools	-7738
▁caution	-7739
▁inspired	-7740
ID	-7741
▁McK	-7742
ronics	-7743
▁walls	-7744
▁universities	-7745
▁IN	-7746
▁Gil	-7747
▁Men	-7748
▁NBA	-7749
ockey	-7750
▁Welsh	-7751
▁accus	-7752
▁Airport	-7753
▁channel	-7754
▁veterans	-7755
anke	-7756
olph	-7757
▁Bal	-7758
▁jet	-7759
ether	-7760
rible	-7761
▁Tories	-7762
▁Glasgow	-7763
▁resulted	-7764
iki	-7765
▁tap	-7766
▁iron	-7767
▁Trade	-7768
▁pound	-7769
▁Carter	-7770
▁invasion	-7771
▁jur	-7772
▁bombs	-7773
▁winds	-7774
▁feared	-7775
▁planet	-7776
▁visits	-7777
▁readers	-7778
hill	-7779
iani	-7780
itar	-7781
▁Sox	-7782
▁dict	-7783
ateral	-7784
egraph	-7785
lining	-7786
▁landsc	-7787
▁inspect	-7788
▁assessment	-7789
▁unexpected	-7790
▁consumption	-7791
▁la	-7792
▁DVD	-7793
▁Rome	-7794
▁hedge	-7795
▁slowly	-7796
▁transp	-7797
▁featured	-7798
ta	-7799
▁entit	-7800
▁veget	-7801
▁Phoenix	-7802
▁Science	-7803
ker	-7804
▁Ha	-7805
▁mail	-7806
▁fatal	-7807
▁racing	-7808
▁smoking	-7809
▁Newcastle	-7810
▁accounting	-7811
▁AM	-7812
▁Bor	-7813
▁ships	-7814
▁unpre	-7815
▁affair	-7816
▁campus	-7817
▁Network	-7818
▁academic	-7819
▁accommod	-7820
▁happening	-7821
▁successfully	-7822
▁BA	-7823
▁mal	-7824
umber	-7825
▁Biden	-7826
▁risen	-7827
ache	-7828
▁signal	-7829
cedented	-7830
▁relative	-7831
▁basketball	-7832
▁engineering	-7833
greg	-7834
unior	-7835
▁Gill	-7836
▁Town	-7837
▁volat	-7838
▁guards	-7839
ropolitan	-7840
▁medicine	-7841
▁symptoms	-7842
▁efficient	-7843
▁conspiracy	-7844
▁appointment	-7845
oln	-7846
▁Oxford	-7847
▁reporter	-7848
▁99	-7849
burn	-7850
sein	-7851
▁Terry	-7852
▁inches	-7853
▁physic	-7854
▁traded	-7855
▁applied	-7856
▁producing	-7857
bul	-7858
▁UC	-7859
rene	-7860
▁120	-7861
aints	-7862
ancer	-7863
uable	-7864
▁Reid	-7865
ouring	-7866
▁divided	-7867
▁pending	-7868
▁anywhere	-7869
▁organisation	-7870
▁unprecedented	-7871
▁calm	-7872
▁thank	-7873
▁delays	-7874
▁Somalia	-7875
▁ordinary	-7876
▁encouraging	-7877
▁Naz	-7878
▁bac	-7879
▁Bhut	-7880
▁amend	-7881
▁rarely	-7882
▁reveal	-7883
▁Tenness	-7884
▁friendly	-7885
ooth	-7886
▁Bond	-7887
▁Others	-7888
▁background	-7889
rooms	-7890
abetes	-7891
▁Having	-7892
▁weekly	-7893
▁promises	-7894
upp	-7895
▁Az	-7896
high	-7897
▁bes	-7898
▁Awards	-7899
▁wedding	-7900
▁expanded	-7901
▁Indonesia	-7902
▁homeowners	-7903
▁permission	-7904
▁investigate	-7905
▁representatives	-7906
▁Bre	-7907
▁Huck	-7908
▁pock	-7909
▁tent	-7910
▁Barclays	-7911
▁providers	-7912
inations	-7913
▁birthday	-7914
▁brothers	-7915
▁downtown	-7916
▁mos	-7917
strong	-7918
▁resolve	-7919
▁Assembly	-7920
fast	-7921
▁holes	-7922
▁towns	-7923
▁20,000	-7924
▁Bernanke	-7925
▁clinical	-7926
uro	-7927
istol	-7928
▁Moore	-7929
▁Sunni	-7930
▁scrut	-7931
▁prepar	-7932
▁tracks	-7933
▁elderly	-7934
▁restore	-7935
▁staying	-7936
▁uniform	-7937
▁Alexander	-7938
▁connected	-7939
▁cooperation	-7940
▁beer	-7941
▁upper	-7942
▁Rodrig	-7943
▁assass	-7944
▁offset	-7945
▁stabil	-7946
▁77	-7947
▁95	-7948
uties	-7949
▁halt	-7950
▁arrive	-7951
▁planes	-7952
▁absence	-7953
▁approached	-7954
pat	-7955
▁Dur	-7956
▁likes	-7957
▁50,000	-7958
▁Darling	-7959
▁capable	-7960
▁defeated	-7961
▁Venezuela	-7962
▁Information	-7963
EI	-7964
don	-7965
avez	-7966
cott	-7967
▁nut	-7968
▁Arch	-7969
ez	-7970
oks	-7971
▁WH	-7972
elect	-7973
imore	-7974
▁king	-7975
▁soph	-7976
▁Czech	-7977
▁mouth	-7978
▁tennis	-7979
▁Officer	-7980
▁arrival	-7981
▁warrant	-7982
▁confront	-7983
▁Brazilian	-7984
vin	-7985
▁ju	-7986
antic	-7987
rance	-7988
▁Hold	-7989
▁volunt	-7990
uce	-7991
okes	-7992
▁dump	-7993
▁gift	-7994
▁explo	-7995
▁Sports	-7996
▁Lincoln	-7997
▁Telegraph	-7998
▁sufficient	-7999
▁conversation	-8000
di	-8001
▁falls	-8002
▁guess	-8003
▁crunch	-8004
orkshire	-8005
▁tensions	-8006
▁Tennessee	-8007
▁obviously	-8008
▁prospects	-8009
▁resulting	-8010
▁journalist	-8011
▁performances	-8012
▁Py	-8013
▁Rose	-8014
utical	-8015
▁maint	-8016
▁broader	-8017
▁extreme	-8018
▁taxpayer	-8019
,1	-8020
Tube	-8021
oded	-8022
stal	-8023
▁jack	-8024
▁Scient	-8025
▁parking	-8026
▁informed	-8027
▁gathering	-8028
br	-8029
▁Was	-8030
▁exit	-8031
itious	-8032
▁Marsh	-8033
▁privacy	-8034
▁procedures	-8035
itol	-8036
erald	-8037
▁Cost	-8038
▁Trib	-8039
▁hung	-8040
▁vowed	-8041
▁videos	-8042
▁Cabinet	-8043
▁Mohammed	-8044
▁Tiger	-8045
▁Carlos	-8046
ovo	-8047
ione	-8048
▁Ark	-8049
orted	-8050
ource	-8051
▁Sach	-8052
▁inev	-8053
▁error	-8054
▁strict	-8055
▁Campbell	-8056
▁ownership	-8057
net	-8058
▁Stat	-8059
▁guide	-8060
▁Chavez	-8061
▁Golden	-8062
▁Marine	-8063
▁replacement	-8064
urt	-8065
ewhat	-8066
raine	-8067
▁Local	-8068
▁finds	-8069
▁saving	-8070
rows	-8071
child	-8072
ecticut	-8073
▁Lebanon	-8074
▁typical	-8075
▁athletes	-8076
▁detainees	-8077
mann	-8078
▁Week	-8079
▁camps	-8080
actions	-8081
▁YouTube	-8082
▁striking	-8083
▁agreements	-8084
agu	-8085
arks	-8086
eign	-8087
backs	-8088
▁Writ	-8089
▁fault	-8090
▁Arabia	-8091
▁landed	-8092
▁secured	-8093
▁Economic	-8094
▁conviction	-8095
▁FA	-8096
larg	-8097
rolled	-8098
▁protected	-8099
▁quarterly	-8100
col	-8101
▁Kurd	-8102
inding	-8103
▁consol	-8104
▁makers	-8105
▁pupils	-8106
▁provision	-8107
rete	-8108
▁Gri	-8109
▁fate	-8110
▁weigh	-8111
▁Bridge	-8112
▁filing	-8113
▁profile	-8114
▁religion	-8115
▁borrowers	-8116
▁relationships	-8117
alo	-8118
dro	-8119
▁JP	-8120
▁Vis	-8121
▁NYSE	-8122
▁rape	-8123
▁Given	-8124
▁bonus	-8125
▁settled	-8126
aceutical	-8127
▁moderate	-8128
▁champions	-8129
▁crackdown	-8130
▁Ba	-8131
tery	-8132
than	-8133
anked	-8134
eding	-8135
▁facts	-8136
▁Edward	-8137
▁Indeed	-8138
▁Liberal	-8139
▁pleased	-8140
▁historical	-8141
25	-8142
tic	-8143
▁1993	-8144
▁repay	-8145
▁schol	-8146
▁subur	-8147
iminary	-8148
▁Sweden	-8149
▁refuge	-8150
▁choices	-8151
▁somewhat	-8152
▁dominated	-8153
offs	-8154
western	-8155
▁Little	-8156
▁trucks	-8157
▁unfair	-8158
▁connect	-8159
▁Connecticut	-8160
▁uncertainty	-8161
▁Jess	-8162
▁Nich	-8163
▁flew	-8164
▁mile	-8165
▁scar	-8166
▁viewed	-8167
▁normally	-8168
▁Baltimore	-8169
▁temperatures	-8170
▁Ay	-8171
▁Cow	-8172
anamo	-8173
acking	-8174
▁Power	-8175
illance	-8176
▁Govern	-8177
▁scenes	-8178
▁assists	-8179
asp	-8180
▁Rh	-8181
▁HIV	-8182
▁rot	-8183
▁Field	-8184
▁aides	-8185
▁pages	-8186
winning	-8187
▁packed	-8188
▁extensive	-8189
▁compromise	-8190
▁definitely	-8191
▁Oak	-8192
▁Ven	-8193
agger	-8194
▁1991	-8195
▁Euro	-8196
▁Free	-8197
umbled	-8198
▁roles	-8199
▁actors	-8200
▁bitter	-8201
▁concept	-8202
▁cricket	-8203
▁handful	-8204
▁Partners	-8205
▁promising	-8206
▁atmosphere	-8207
80	-8208
bal	-8209
▁Ko	-8210
door	-8211
▁Bos	-8212
▁mob	-8213
▁vet	-8214
iture	-8215
▁Buck	-8216
▁Thanks	-8217
▁2-1	-8218
▁Eliz	-8219
▁Norm	-8220
▁bags	-8221
▁forth	-8222
▁tries	-8223
▁Darfur	-8224
▁Graham	-8225
▁worries	-8226
▁disorder	-8227
▁frequently	-8228
sec	-8229
zed	-8230
ampton	-8231
▁burst	-8232
million	-8233
ointing	-8234
▁tonight	-8235
▁momentum	-8236
▁odd	-8237
▁briefly	-8238
▁teenage	-8239
▁everybody	-8240
▁Guantanamo	-8241
▁volunteers	-8242
plus	-8243
range	-8244
▁mood	-8245
▁Barry	-8246
▁obser	-8247
▁trips	-8248
▁Huckab	-8249
▁incred	-8250
▁motion	-8251
▁pursue	-8252
▁engaged	-8253
▁rebuild	-8254
▁virtually	-8255
phy	-8256
acre	-8257
illa	-8258
▁GDP	-8259
▁soc	-8260
eared	-8261
▁sons	-8262
▁Yorkshire	-8263
▁desperate	-8264
oub	-8265
rate	-8266
▁18-	-8267
chell	-8268
▁brut	-8269
▁manner	-8270
▁fishing	-8271
▁torture	-8272
▁collected	-8273
▁departure	-8274
▁expecting	-8275
OC	-8276
inter	-8277
▁Drug	-8278
▁bankers	-8279
▁carefully	-8280
▁Technology	-8281
prime	-8282
▁Sean	-8283
▁ages	-8284
▁aims	-8285
▁Greek	-8286
▁birds	-8287
▁repair	-8288
▁Finance	-8289
▁couples	-8290
▁footage	-8291
▁Rodriguez	-8292
▁childhood	-8293
▁efficiency	-8294
▁Giul	-8295
▁Love	-8296
▁adds	-8297
iatric	-8298
▁Capitol	-8299
▁featuring	-8300
▁Chancellor	-8301
▁fundamental	-8302
▁id	-8303
anium	-8304
▁brill	-8305
▁distr	-8306
ologists	-8307
▁sparked	-8308
▁resigned	-8309
▁mentioned	-8310
▁statistics	-8311
▁Sad	-8312
redit	-8313
▁Mahm	-8314
profile	-8315
▁serves	-8316
▁steady	-8317
▁symbol	-8318
▁doubled	-8319
▁routine	-8320
▁Speaking	-8321
▁interrog	-8322
▁criticised	-8323
mile	-8324
▁barg	-8325
▁Andre	-8326
▁races	-8327
▁yellow	-8328
▁attractive	-8329
ora	-8330
emble	-8331
rical	-8332
▁Mail	-8333
▁habit	-8334
▁Nation	-8335
outheast	-8336
▁sustained	-8337
ele	-8338
▁86	-8339
held	-8340
▁tail	-8341
▁Which	-8342
▁rebel	-8343
ductions	-8344
▁pirates	-8345
▁unknown	-8346
▁clothing	-8347
▁improvements	-8348
xy	-8349
▁@	-8350
anny	-8351
▁Bon	-8352
inced	-8353
orous	-8354
▁symp	-8355
▁analy	-8356
▁royal	-8357
▁Hughes	-8358
▁default	-8359
▁funeral	-8360
▁wonderful	-8361
▁FDA	-8362
▁Leon	-8363
▁thin	-8364
▁Hawai	-8365
▁wealthy	-8366
▁referred	-8367
▁Bloomberg	-8368
▁preferred	-8369
▁teenagers	-8370
▁TO	-8371
▁Cat	-8372
▁Country	-8373
▁Kentucky	-8374
▁heritage	-8375
oir	-8376
azon	-8377
ules	-8378
▁cig	-8379
▁bars	-8380
▁sequ	-8381
▁lying	-8382
rive	-8383
▁shout	-8384
▁Spring	-8385
▁beauty	-8386
▁Brothers	-8387
▁Huckabee	-8388
▁Michelle	-8389
▁operator	-8390
▁retailer	-8391
▁expanding	-8392
▁anticipated	-8393
▁politically	-8394
oard	-8395
▁Mets	-8396
▁raid	-8397
▁Evans	-8398
▁humans	-8399
▁degrees	-8400
▁windows	-8401
▁celebrate	-8402
RC	-8403
hua	-8404
cons	-8405
▁Cru	-8406
▁steep	-8407
▁30,000	-8408
▁Bureau	-8409
▁cooper	-8410
▁totally	-8411
▁representative	-8412
rob	-8413
▁84	-8414
▁Tro	-8415
▁Utah	-8416
▁zero	-8417
estyle	-8418
▁Cardiff	-8419
▁Ukraine	-8420
▁republic	-8421
▁convinced	-8422
▁AL	-8423
mand	-8424
▁Hom	-8425
▁Ker	-8426
▁Cook	-8427
▁Whit	-8428
▁icon	-8429
▁Shares	-8430
▁conced	-8431
▁lifted	-8432
▁stroke	-8433
▁kilomet	-8434
▁license	-8435
▁therapy	-8436
▁category	-8437
▁weakness	-8438
▁attempting	-8439
▁depression	-8440
▁MS	-8441
▁prel	-8442
▁moral	-8443
▁swing	-8444
▁Safety	-8445
▁appeals	-8446
▁premier	-8447
ibilities	-8448
▁defender	-8449
▁Investors	-8450
▁remarkable	-8451
▁Organization	-8452
oto	-8453
oric	-8454
▁hip	-8455
▁thus	-8456
aughters	-8457
▁enormous	-8458
▁throwing	-8459
▁predecess	-8460
▁ambassador	-8461
ami	-8462
cut	-8463
ras	-8464
wall	-8465
▁Xin	-8466
▁Oklah	-8467
▁eager	-8468
▁relax	-8469
attered	-8470
fielder	-8471
▁Bhutto	-8472
▁landing	-8473
▁upcoming	-8474
▁Elizabeth	-8475
ira	-8476
omp	-8477
▁Lev	-8478
▁Ocean	-8479
▁toxic	-8480
ito	-8481
▁Ul	-8482
▁dyn	-8483
▁Bear	-8484
ronaut	-8485
▁useful	-8486
▁sharing	-8487
▁attracted	-8488
▁donations	-8489
ghai	-8490
wick	-8491
zone	-8492
▁Cam	-8493
shore	-8494
MI	-8495
ahu	-8496
osi	-8497
▁Bow	-8498
▁Hear	-8499
▁Myan	-8500
▁Award	-8501
▁praised	-8502
▁82	-8503
▁88	-8504
▁je	-8505
gger	-8506
acher	-8507
▁Hard	-8508
pective	-8509
▁observ	-8510
▁extension	-8511
▁searching	-8512
athy	-8513
case	-8514
umph	-8515
wich	-8516
elfare	-8517
▁elite	-8518
▁revel	-8519
▁elements	-8520
▁contributions	-8521
eted	-8522
▁ank	-8523
uting	-8524
▁Fernand	-8525
▁Myanmar	-8526
▁covering	-8527
▁deterior	-8528
▁constitutional	-8529
▁1.8	-8530
▁6-4	-8531
▁Ast	-8532
▁ramp	-8533
▁crews	-8534
▁assert	-8535
▁lights	-8536
▁verdict	-8537
▁defended	-8538
▁machines	-8539
▁24-	-8540
▁Nelson	-8541
▁Nevada	-8542
▁babies	-8543
▁shadow	-8544
▁Philipp	-8545
▁Russell	-8546
▁Colombia	-8547
▁eligible	-8548
▁favourite	-8549
▁documentary	-8550
UL	-8551
unes	-8552
igger	-8553
ulous	-8554
▁Lock	-8555
▁Patri	-8556
▁trigg	-8557
▁Lakers	-8558
▁checks	-8559
▁arguing	-8560
▁Mitchell	-8561
▁Oklahoma	-8562
▁guidelines	-8563
ela	-8564
▁fu	-8565
oren	-8566
▁Equ	-8567
▁SAN	-8568
▁ally	-8569
▁bases	-8570
▁fruit	-8571
▁broker	-8572
▁Without	-8573
▁shuttle	-8574
▁creative	-8575
▁discovery	-8576
▁overwhelming	-8577
bus	-8578
ila	-8579
▁Ltd	-8580
▁Sky	-8581
anche	-8582
owing	-8583
▁clar	-8584
▁shed	-8585
tering	-8586
▁keeps	-8587
▁merely	-8588
▁Special	-8589
▁slipped	-8590
▁investigations	-8591
▁1.7	-8592
▁qual	-8593
nation	-8594
▁Abbas	-8595
century	-8596
▁recruit	-8597
USNewswire	-8598
▁ski	-8599
▁blind	-8600
▁colon	-8601
▁theme	-8602
ambling	-8603
enhagen	-8604
▁knowing	-8605
▁Shanghai	-8606
▁borrowing	-8607
▁transition	-8608
▁photographs	-8609
▁350	-8610
scale	-8611
▁Pier	-8612
idance	-8613
▁fairly	-8614
▁Commerce	-8615
▁reference	-8616
▁Copenhagen	-8617
▁democratic	-8618
▁girlfriend	-8619
▁surveillance	-8620
angel	-8621
▁Crit	-8622
▁homer	-8623
▁stamp	-8624
▁advent	-8625
▁ancient	-8626
▁Abdullah	-8627
▁Brooklyn	-8628
▁Football	-8629
▁discover	-8630
▁homeless	-8631
▁referend	-8632
▁du	-8633
esty	-8634
▁6-3	-8635
▁map	-8636
anded	-8637
▁legs	-8638
▁reop	-8639
▁Abdul	-8640
▁funded	-8641
▁shouldn	-8642
▁assembly	-8643
▁generate	-8644
▁outbreak	-8645
▁stressed	-8646
▁attending	-8647
▁Independent	-8648
▁professionals	-8649
200	-8650
▁81	-8651
▁Sab	-8652
▁erup	-8653
▁flaw	-8654
▁postp	-8655
▁Barcel	-8656
▁Family	-8657
▁bomber	-8658
▁revers	-8659
▁disappear	-8660
▁membership	-8661
erb	-8662
isp	-8663
vez	-8664
▁jew	-8665
▁surr	-8666
▁tourism	-8667
▁deployed	-8668
▁dialogue	-8669
-20	-8670
ampa	-8671
▁16-	-8672
final	-8673
▁Mick	-8674
▁plea	-8675
▁rugby	-8676
▁Nether	-8677
▁buried	-8678
▁benchmark	-8679
▁performing	-8680
▁complicated	-8681
aro	-8682
aved	-8683
▁Marg	-8684
▁Amazon	-8685
▁uranium	-8686
▁affordable	-8687
▁recognition	-8688
▁tone	-8689
▁user	-8690
▁writes	-8691
▁monitor	-8692
▁reserve	-8693
▁forecasts	-8694
▁Congressional	-8695
RAN	-8696
ext	-8697
iox	-8698
abad	-8699
uana	-8700
▁Les	-8701
▁Right	-8702
▁phase	-8703
▁Market	-8704
▁Senior	-8705
▁nights	-8706
▁trains	-8707
▁tactics	-8708
▁watchdog	-8709
▁maintained	-8710
▁transportation	-8711
90	-8712
▁reck	-8713
▁tons	-8714
▁Kabul	-8715
▁uncom	-8716
ogether	-8717
▁branch	-8718
▁capture	-8719
▁renewed	-8720
▁Giuliani	-8721
▁traveling	-8722
EM	-8723
okie	-8724
▁rely	-8725
▁Sachs	-8726
▁burned	-8727
▁unders	-8728
▁Festival	-8729
▁diabetes	-8730
▁longtime	-8731
▁popularity	-8732
▁NC	-8733
▁ru	-8734
ifer	-8735
ixon	-8736
eries	-8737
▁Ferr	-8738
▁dust	-8739
tenance	-8740
ulating	-8741
▁insists	-8742
▁outrage	-8743
▁Barcelona	-8744
▁construct	-8745
▁survivors	-8746
ek	-8747
▁tip	-8748
▁tool	-8749
▁Heath	-8750
▁enable	-8751
▁mining	-8752
▁disputed	-8753
▁graduate	-8754
▁opponent	-8755
▁supports	-8756
▁difficulties	-8757
▁respectively	-8758
ayed	-8759
olly	-8760
▁Adv	-8761
▁Key	-8762
▁gre	-8763
olved	-8764
▁Priv	-8765
▁Orange	-8766
▁cheaper	-8767
▁generated	-8768
▁infection	-8769
raid	-8770
▁Fur	-8771
▁fasc	-8772
incial	-8773
▁Watch	-8774
▁shoes	-8775
changed	-8776
reprene	-8777
▁Boeing	-8778
▁intervention	-8779
emed	-8780
▁dub	-8781
▁greet	-8782
▁refin	-8783
▁Tigers	-8784
▁medium	-8785
▁tourist	-8786
▁Stanford	-8787
▁operates	-8788
▁targeting	-8789
▁preliminary	-8790
▁residential	-8791
▁specifically	-8792
▁Circ	-8793
▁desk	-8794
▁hate	-8795
▁Bruce	-8796
▁sover	-8797
▁squee	-8798
▁Murphy	-8799
▁ranked	-8800
▁carries	-8801
▁arguments	-8802
▁neighbors	-8803
NP	-8804
no	-8805
mers	-8806
yang	-8807
▁McN	-8808
▁genu	-8809
▁ideal	-8810
▁strip	-8811
▁desert	-8812
▁orchest	-8813
▁requests	-8814
▁Insurance	-8815
▁reasonable	-8816
▁necessarily	-8817
▁Ly	-8818
brid	-8819
gets	-8820
ques	-8821
zing	-8822
▁Aud	-8823
▁Est	-8824
▁Civil	-8825
▁Sales	-8826
▁chest	-8827
▁cycle	-8828
▁thick	-8829
▁breaks	-8830
▁cocaine	-8831
▁escaped	-8832
▁Officers	-8833
umin	-8834
▁Eth	-8835
▁fundra	-8836
▁stages	-8837
▁stated	-8838
▁Consumer	-8839
▁innocent	-8840
▁judgment	-8841
▁recording	-8842
▁sovereign	-8843
▁submitted	-8844
avi	-8845
ario	-8846
▁Mat	-8847
▁hadn	-8848
▁Light	-8849
▁prohib	-8850
▁Merrill	-8851
▁intellect	-8852
▁operators	-8853
▁87	-8854
acco	-8855
▁Fri	-8856
▁Rub	-8857
eback	-8858
oping	-8859
rated	-8860
▁chap	-8861
onnell	-8862
▁ranks	-8863
▁swept	-8864
▁aboard	-8865
▁anyway	-8866
▁advised	-8867
▁advisers	-8868
▁contains	-8869
rum	-8870
oner	-8871
▁Lady	-8872
▁Take	-8873
thirds	-8874
▁spoken	-8875
▁element	-8876
▁bombings	-8877
▁exciting	-8878
iti	-8879
mont	-8880
▁0.2	-8881
▁lapt	-8882
ijuana	-8883
▁cinem	-8884
▁memor	-8885
▁kicked	-8886
▁consensus	-8887
▁casualties	-8888
▁referendum	-8889
▁commissioner	-8890
iac	-8891
list	-8892
▁RBI	-8893
▁wre	-8894
idays	-8895
▁Merc	-8896
▁repeat	-8897
▁unlike	-8898
iability	-8899
▁Verizon	-8900
▁embassy	-8901
▁contacted	-8902
▁communication	-8903
▁IC	-8904
▁Head	-8905
▁Poor	-8906
orious	-8907
▁Laure	-8908
▁acted	-8909
▁quake	-8910
▁taste	-8911
▁portray	-8912
▁storage	-8913
▁download	-8914
IM	-8915
moil	-8916
▁bub	-8917
ective	-8918
▁Project	-8919
▁appealed	-8920
▁concrete	-8921
▁Lie	-8922
▁Wayne	-8923
▁london	-8924
▁carrier	-8925
▁divorce	-8926
▁noticed	-8927
▁indicate	-8928
▁peaceful	-8929
▁exclusive	-8930
▁Netherlands	-8931
▁essentially	-8932
▁transaction	-8933
▁Rem	-8934
▁vig	-8935
aware	-8936
borne	-8937
ework	-8938
oting	-8939
▁Emer	-8940
▁wars	-8941
▁Lions	-8942
▁Hispan	-8943
▁Kosovo	-8944
▁legend	-8945
uj	-8946
idd	-8947
▁Jenn	-8948
▁deny	-8949
▁dise	-8950
▁drunk	-8951
▁affili	-8952
▁breach	-8953
▁guidance	-8954
▁recommendations	-8955
▁Rey	-8956
▁alt	-8957
▁gif	-8958
▁Nancy	-8959
▁Never	-8960
▁guest	-8961
▁fastest	-8962
▁theater	-8963
▁describe	-8964
▁valuable	-8965
▁diplomats	-8966
oca	-8967
front	-8968
▁Girl	-8969
▁Kate	-8970
▁Live	-8971
▁obst	-8972
▁Again	-8973
▁Nearly	-8974
▁indict	-8975
▁retain	-8976
▁offense	-8977
▁turmoil	-8978
▁finances	-8979
▁vacation	-8980
▁ambitious	-8981
▁mo	-8982
azir	-8983
▁Raj	-8984
▁Gonz	-8985
▁Stra	-8986
▁toler	-8987
▁update	-8988
▁reverse	-8989
▁triumph	-8990
▁missiles	-8991
▁survival	-8992
▁Community	-8993
▁Prosecutors	-8994
lu	-8995
atar	-8996
▁Pop	-8997
▁Duke	-8998
▁Lynch	-8999
▁Tampa	-9000
▁opens	-9001
▁trigger	-9002
▁dividend	-9003
zy	-9004
abama	-9005
armed	-9006
ounce	-9007
▁Build	-9008
▁posts	-9009
▁firing	-9010
▁Harvard	-9011
▁invested	-9012
▁dramatically	-9013
ctic	-9014
ture	-9015
▁Hist	-9016
▁Until	-9017
▁dates	-9018
▁Univers	-9019
▁burning	-9020
▁relevant	-9021
▁astronaut	-9022
▁competing	-9023
▁daughters	-9024
▁governing	-9025
▁recognize	-9026
▁households	-9027
RO	-9028
▁08	-9029
ikes	-9030
omed	-9031
▁Gas	-9032
rific	-9033
lights	-9034
▁Nadal	-9035
▁hidden	-9036
▁genetic	-9037
▁hopeful	-9038
▁questioning	-9039
appy	-9040
bank	-9041
hors	-9042
▁Fab	-9043
ricts	-9044
▁Larry	-9045
▁harsh	-9046
▁Forest	-9047
▁dating	-9048
▁merger	-9049
▁nobody	-9050
▁Masters	-9051
▁realize	-9052
▁slowdown	-9053
▁brilliant	-9054
kh	-9055
box	-9056
▁Cy	-9057
▁UBS	-9058
bor	-9059
▁17-	-9060
▁tea	-9061
▁lady	-9062
▁Domin	-9063
through	-9064
▁regarded	-9065
▁organized	-9066
▁maintenance	-9067
eld	-9068
▁Bul	-9069
▁Kirk	-9070
▁Pres	-9071
▁moon	-9072
ibbean	-9073
▁relie	-9074
▁accord	-9075
▁timing	-9076
▁traged	-9077
▁urging	-9078
▁200,000	-9079
▁Alabama	-9080
▁barrels	-9081
▁pulling	-9082
▁Alliance	-9083
▁killings	-9084
▁advocates	-9085
▁withdrawal	-9086
15	-9087
aux	-9088
▁2-	-9089
alks	-9090
bing	-9091
▁Len	-9092
▁lucky	-9093
▁locked	-9094
▁presum	-9095
▁resistance	-9096
▁destruction	-9097
asey	-9098
▁Does	-9099
▁Pope	-9100
▁odds	-9101
▁soil	-9102
▁approve	-9103
▁methods	-9104
▁dropping	-9105
▁diagnosed	-9106
IP	-9107
St	-9108
iy	-9109
akh	-9110
shot	-9111
▁Inf	-9112
▁ric	-9113
▁Aber	-9114
▁Chap	-9115
▁answers	-9116
▁qualify	-9117
▁entitled	-9118
▁humanitarian	-9119
bel	-9120
ells	-9121
▁Neil	-9122
▁chat	-9123
▁slam	-9124
ussels	-9125
▁Lanka	-9126
▁admit	-9127
▁quant	-9128
▁sugar	-9129
▁lender	-9130
▁resume	-9131
onna	-9132
▁aide	-9133
▁loud	-9134
▁touc	-9135
▁Medved	-9136
▁proportion	-9137
▁disappeared	-9138
▁helicopters	-9139
▁ce	-9140
▁Opp	-9141
▁Dave	-9142
▁chef	-9143
▁tape	-9144
▁Leices	-9145
▁Through	-9146
▁dressed	-9147
▁portion	-9148
▁provincial	-9149
lad	-9150
icts	-9151
▁End	-9152
selling	-9153
▁Follow	-9154
▁gallon	-9155
▁knocked	-9156
▁Revolution	-9157
anted	-9158
▁Holl	-9159
▁rand	-9160
▁Susan	-9161
▁flash	-9162
▁junior	-9163
▁equally	-9164
▁interim	-9165
▁rebound	-9166
▁comeback	-9167
▁diseases	-9168
▁flooding	-9169
▁quarters	-9170
government	-9171
▁Caribbean	-9172
▁developments	-9173
ippi	-9174
▁IMF	-9175
iated	-9176
orses	-9177
▁negl	-9178
▁pure	-9179
▁ankle	-9180
▁cease	-9181
▁theft	-9182
▁philos	-9183
▁undert	-9184
▁Freddie	-9185
▁clashes	-9186
▁welfare	-9187
▁Medvedev	-9188
▁airports	-9189
▁qualified	-9190
▁reflected	-9191
acc	-9192
isk	-9193
▁Hud	-9194
▁pir	-9195
▁unh	-9196
hetic	-9197
caster	-9198
▁Griff	-9199
▁email	-9200
▁ocean	-9201
▁breath	-9202
▁finals	-9203
▁Charlie	-9204
▁requested	-9205
▁politician	-9206
▁appearances	-9207
▁initiatives	-9208
▁legislative	-9209
tha	-9210
made	-9211
▁Pen	-9212
▁1950	-9213
▁foul	-9214
icious	-9215
▁Bryant	-9216
▁Antonio	-9217
▁arrests	-9218
▁studied	-9219
▁Investig	-9220
▁triggered	-9221
▁bra	-9222
regon	-9223
▁Much	-9224
▁recyc	-9225
▁licens	-9226
▁Phillips	-9227
▁thousand	-9228
▁screening	-9229
▁recognized	-9230
def	-9231
aser	-9232
coni	-9233
▁Dougl	-9234
▁plate	-9235
▁Netany	-9236
▁condemned	-9237
▁contribute	-9238
aly	-9239
esc	-9240
▁pig	-9241
▁pand	-9242
▁adapt	-9243
iration	-9244
minster	-9245
▁Iraqis	-9246
▁Nigeria	-9247
▁climbed	-9248
▁swimming	-9249
▁conservatives	-9250
▁Hills	-9251
▁proof	-9252
▁reject	-9253
▁attitude	-9254
TS	-9255
▁79	-9256
▁14-	-9257
▁etc	-9258
▁furn	-9259
▁Pelosi	-9260
▁obtain	-9261
▁amazing	-9262
▁robbery	-9263
▁Netanyahu	-9264
▁disclosed	-9265
▁networking	-9266
▁optimistic	-9267
▁techniques	-9268
▁vs	-9269
anna	-9270
ument	-9271
▁Lanc	-9272
▁caut	-9273
▁impl	-9274
▁finger	-9275
▁rushed	-9276
▁Mahmoud	-9277
▁Systems	-9278
▁persuade	-9279
▁warnings	-9280
▁landscape	-9281
▁innovative	-9282
▁Ju	-9283
dale	-9284
▁temp	-9285
▁Exper	-9286
▁probe	-9287
▁sheet	-9288
▁surely	-9289
▁formally	-9290
▁Hurricane	-9291
▁intercept	-9292
mun	-9293
▁0.1	-9294
▁Jen	-9295
finals	-9296
▁Jerry	-9297
▁lessons	-9298
▁finishing	-9299
▁pollution	-9300
▁surrounded	-9301
,5	-9302
▁1-0	-9303
▁hire	-9304
▁solo	-9305
dollar	-9306
seeded	-9307
▁Villa	-9308
▁chann	-9309
▁Affairs	-9310
▁Express	-9311
▁tougher	-9312
▁attorneys	-9313
▁installed	-9314
ardo	-9315
atab	-9316
gate	-9317
▁2.2	-9318
▁hide	-9319
person	-9320
▁Chile	-9321
▁debts	-9322
▁Common	-9323
▁memorial	-9324
▁experiences	-9325
▁transferred	-9326
12	-9327
iffs	-9328
stan	-9329
▁1989	-9330
▁Jane	-9331
▁Ahmed	-9332
▁Deputy	-9333
ima	-9334
▁Nap	-9335
lando	-9336
phone	-9337
▁dying	-9338
▁engage	-9339
▁borders	-9340
▁mothers	-9341
iere	-9342
▁Dean	-9343
▁Doct	-9344
▁beef	-9345
▁phen	-9346
▁merch	-9347
jection	-9348
▁racial	-9349
▁revised	-9350
▁compound	-9351
▁decrease	-9352
▁disabled	-9353
▁exception	-9354
▁correspondent	-9355
gun	-9356
▁Pa	-9357
Mart	-9358
osures	-9359
▁stone	-9360
▁Assist	-9361
▁Oregon	-9362
▁oldest	-9363
▁chronic	-9364
▁traders	-9365
▁trapped	-9366
▁penalties	-9367
▁foreclosure	-9368
bu	-9369
largest	-9370
▁burden	-9371
▁mountains	-9372
▁provisions	-9373
▁accusations	-9374
▁shore	-9375
▁unrest	-9376
▁Louisiana	-9377
▁awareness	-9378
▁personally	-9379
▁protecting	-9380
eway	-9381
▁0.5	-9382
▁Team	-9383
▁tear	-9384
▁Eight	-9385
▁Nobel	-9386
▁craft	-9387
▁enemy	-9388
▁afraid	-9389
▁covers	-9390
▁impose	-9391
▁Speaker	-9392
▁distinct	-9393
▁projected	-9394
▁developers	-9395
▁contribution	-9396
▁Ple	-9397
▁blocks	-9398
▁copies	-9399
▁freeze	-9400
▁Victoria	-9401
▁reluctant	-9402
▁explosives	-9403
▁travelling	-9404
▁2-0	-9405
onsin	-9406
▁Hous	-9407
lusconi	-9408
▁Lloyds	-9409
▁Rodham	-9410
▁clinic	-9411
▁nonprofit	-9412
▁observers	-9413
▁consistent	-9414
mans	-9415
▁bip	-9416
isons	-9417
▁frozen	-9418
▁polling	-9419
▁involves	-9420
▁reconcil	-9421
▁Berlusconi	-9422
▁suspension	-9423
osa	-9424
ingu	-9425
▁Nat	-9426
aults	-9427
isive	-9428
party	-9429
▁fert	-9430
▁1,500	-9431
issippi	-9432
▁rounds	-9433
▁purchased	-9434
▁celebrated	-9435
▁entreprene	-9436
▁investigated	-9437
Ch	-9438
ye	-9439
oker	-9440
▁Spr	-9441
▁Wisc	-9442
acular	-9443
▁fleet	-9444
▁hosts	-9445
▁landmark	-9446
▁ourselves	-9447
▁influential	-9448
▁Arts	-9449
▁Pass	-9450
▁caps	-9451
▁cope	-9452
▁Parker	-9453
▁hosted	-9454
▁Bristol	-9455
▁Control	-9456
▁oversee	-9457
▁pricing	-9458
▁proceedings	-9459
▁raw	-9460
▁spac	-9461
▁wore	-9462
ardens	-9463
▁coinc	-9464
▁Should	-9465
▁legacy	-9466
▁shareholder	-9467
40	-9468
hr	-9469
▁pill	-9470
lessly	-9471
▁envoy	-9472
▁funny	-9473
▁donors	-9474
▁explan	-9475
▁poison	-9476
▁500,000	-9477
▁Orlando	-9478
▁overtime	-9479
▁introduce	-9480
▁testified	-9481
▁incentives	-9482
▁principles	-9483
▁resignation	-9484
oice	-9485
page	-9486
▁192	-9487
onald	-9488
▁Insp	-9489
▁4,000	-9490
▁Bened	-9491
▁recip	-9492
▁smugg	-9493
▁Credit	-9494
▁random	-9495
▁taught	-9496
▁Hussein	-9497
▁courses	-9498
▁organis	-9499
▁spotted	-9500
▁Broadway	-9501
▁constant	-9502
▁Wisconsin	-9503
elta	-9504
▁Tech	-9505
▁Ports	-9506
▁citizen	-9507
▁schemes	-9508
rimination	-9509
▁principle	-9510
▁disappointing	-9511
▁83	-9512
upid	-9513
▁nav	-9514
oning	-9515
▁elev	-9516
father	-9517
▁knife	-9518
▁Leader	-9519
▁Malays	-9520
▁killer	-9521
strators	-9522
▁sophistic	-9523
▁experiment	-9524
▁Commissioner	-9525
ags	-9526
ken	-9527
▁HB	-9528
▁ty	-9529
▁Tan	-9530
arted	-9531
intend	-9532
▁Jerem	-9533
▁drinks	-9534
▁strain	-9535
▁longest	-9536
▁Brussels	-9537
▁districts	-9538
45	-9539
ss	-9540
ilder	-9541
▁cock	-9542
▁Pyong	-9543
▁Thous	-9544
▁assume	-9545
▁rolled	-9546
▁conclusion	-9547
▁consultant	-9548
▁BM	-9549
▁Fe	-9550
hall	-9551
iors	-9552
ested	-9553
▁Beat	-9554
▁Mumb	-9555
▁rhet	-9556
ackers	-9557
▁acres	-9558
▁spots	-9559
▁Hawaii	-9560
▁250,000	-9561
▁audiences	-9562
▁Mississippi	-9563
60	-9564
onic	-9565
rets	-9566
ript	-9567
▁Lam	-9568
inely	-9569
overs	-9570
▁AIDS	-9571
▁bowl	-9572
▁fulf	-9573
aiting	-9574
▁decor	-9575
▁folks	-9576
▁Intell	-9577
▁Unlike	-9578
▁acceler	-9579
▁Pyongyang	-9580
▁procedure	-9581
▁interviewed	-9582
▁conventional	-9583
▁ow	-9584
laim	-9585
▁Unf	-9586
▁bike	-9587
▁defl	-9588
▁soul	-9589
▁Walker	-9590
▁Nicolas	-9591
▁illustr	-9592
▁channels	-9593
▁electoral	-9594
▁temperature	-9595
bec	-9596
dney	-9597
eria	-9598
▁6-1	-9599
▁sed	-9600
▁Base	-9601
▁Brun	-9602
▁Hope	-9603
▁Laur	-9604
render	-9605
▁valid	-9606
▁Albert	-9607
▁Queens	-9608
▁Turner	-9609
▁gotten	-9610
▁Austria	-9611
▁hanging	-9612
▁virtual	-9613
▁firefighters	-9614
lif	-9615
otte	-9616
▁cos	-9617
▁mad	-9618
▁Cond	-9619
▁Film	-9620
▁minds	-9621
▁routes	-9622
▁ignored	-9623
▁rescued	-9624
▁attached	-9625
FA	-9626
erg	-9627
▁Ap	-9628
▁CO	-9629
iety	-9630
ourne	-9631
▁Cust	-9632
▁cauc	-9633
▁lean	-9634
▁fires	-9635
▁Garden	-9636
▁Silver	-9637
ortheast	-9638
▁excited	-9639
▁playoffs	-9640
▁villages	-9641
▁conservation	-9642
▁CC	-9643
▁Had	-9644
▁Pay	-9645
▁Call	-9646
▁Vanc	-9647
▁torn	-9648
▁Delta	-9649
▁balls	-9650
▁troop	-9651
▁ingred	-9652
▁Barbara	-9653
▁Interior	-9654
▁Islamist	-9655
▁painting	-9656
▁successor	-9657
▁devastating	-9658
km	-9659
▁Vik	-9660
▁seeks	-9661
▁Serbia	-9662
▁stance	-9663
▁trends	-9664
▁Sheriff	-9665
▁picking	-9666
▁addressed	-9667
▁suppliers	-9668
othy	-9669
▁FTSE	-9670
rowing	-9671
▁Maria	-9672
▁Wells	-9673
▁adequ	-9674
▁pilots	-9675
▁consolid	-9676
▁studying	-9677
AD	-9678
▁EC	-9679
▁Maj	-9680
▁Hend	-9681
▁bone	-9682
▁echo	-9683
▁Douglas	-9684
▁Simpson	-9685
▁frequent	-9686
▁liquidity	-9687
▁Fle	-9688
▁Sav	-9689
▁cup	-9690
liest	-9691
▁Poll	-9692
▁luck	-9693
▁stir	-9694
▁Later	-9695
▁Metro	-9696
▁Night	-9697
▁escal	-9698
▁intim	-9699
▁Philip	-9700
▁credits	-9701
▁ranging	-9702
▁singing	-9703
▁disappoint	-9704
▁punishment	-9705
▁aer	-9706
▁salt	-9707
atican	-9708
ithner	-9709
▁foods	-9710
▁Fisher	-9711
▁tradem	-9712
▁plunged	-9713
▁samples	-9714
▁employed	-9715
▁treatments	-9716
agg	-9717
itched	-9718
▁Peace	-9719
▁datab	-9720
▁deeper	-9721
▁transm	-9722
▁tragedy	-9723
▁Geithner	-9724
▁scrutiny	-9725
▁thoughts	-9726
▁boyfriend	-9727
▁containing	-9728
▁Eag	-9729
▁Wol	-9730
▁Zel	-9731
ailed	-9732
▁Nash	-9733
▁buzz	-9734
▁scrap	-9735
▁wreck	-9736
▁latter	-9737
▁oppose	-9738
▁underw	-9739
▁subjects	-9740
▁attacking	-9741
▁negotiate	-9742
▁subsequent	-9743
▁demonstrated	-9744
inge	-9745
urse	-9746
▁Rac	-9747
▁Stu	-9748
ourse	-9749
▁Juan	-9750
▁fare	-9751
rorism	-9752
▁Chase	-9753
▁crown	-9754
▁pione	-9755
leading	-9756
▁Vatican	-9757
▁enhance	-9758
▁letting	-9759
▁carriers	-9760
▁pipeline	-9761
ifications	-9762
▁Constitution	-9763
omic	-9764
icked	-9765
▁Bron	-9766
▁Mort	-9767
▁lung	-9768
▁Click	-9769
▁Madoff	-9770
▁denies	-9771
▁segment	-9772
▁Benedict	-9773
▁explains	-9774
▁mistakes	-9775
▁promoting	-9776
▁negotiating	-9777
Gen	-9778
▁OK	-9779
▁UA	-9780
▁Wi	-9781
aron	-9782
iang	-9783
annie	-9784
ouver	-9785
▁Icel	-9786
▁proven	-9787
▁Governor	-9788
▁terrible	-9789
▁communist	-9790
▁announcing	-9791
haw	-9792
irm	-9793
rator	-9794
▁pron	-9795
▁Mumbai	-9796
▁robust	-9797
▁Iceland	-9798
▁Revenue	-9799
▁Swedish	-9800
▁crossing	-9801
▁offshore	-9802
▁Westminster	-9803
RE	-9804
▁0.3	-9805
▁Ted	-9806
▁Benn	-9807
▁Sadd	-9808
▁bure	-9809
▁Sydney	-9810
▁autumn	-9811
▁accurate	-9812
▁privately	-9813
▁victories	-9814
▁6-	-9815
gged	-9816
mith	-9817
▁Gun	-9818
▁Meh	-9819
▁nom	-9820
▁Lane	-9821
▁misc	-9822
rystal	-9823
▁Prize	-9824
▁Seven	-9825
▁saves	-9826
▁noting	-9827
▁Beckham	-9828
▁charter	-9829
▁utility	-9830
▁employer	-9831
▁listening	-9832
▁purchases	-9833
▁defendants	-9834
▁impression	-9835
rac	-9836
thur	-9837
▁CIT	-9838
▁Cheney	-9839
▁Cooper	-9840
▁painful	-9841
▁focusing	-9842
▁broadband	-9843
▁comparison	-9844
▁neighboring	-9845
,0	-9846
▁Va	-9847
cill	-9848
athon	-9849
▁boxes	-9850
▁crowds	-9851
▁emerge	-9852
▁hiring	-9853
▁sectors	-9854
▁annually	-9855
▁pregnancy	-9856
▁93	-9857
▁Emb	-9858
▁Sot	-9859
rupted	-9860
▁Morris	-9861
▁Reagan	-9862
▁Warren	-9863
▁Defence	-9864
▁experim	-9865
▁library	-9866
▁periods	-9867
▁guaranteed	-9868
▁contractors	-9869
hop	-9870
▁LA	-9871
▁25-	-9872
▁900	-9873
▁Cas	-9874
▁Farm	-9875
▁brown	-9876
▁loose	-9877
▁bottle	-9878
▁horses	-9879
▁pledge	-9880
▁Station	-9881
▁strange	-9882
▁Egyptian	-9883
▁senators	-9884
▁sessions	-9885
▁Vancouver	-9886
▁sentiment	-9887
▁indictment	-9888
▁Slo	-9889
iesel	-9890
ledon	-9891
▁cook	-9892
▁gent	-9893
▁Keith	-9894
ocation	-9895
▁closure	-9896
▁Missouri	-9897
▁sponsors	-9898
▁depending	-9899
▁scientist	-9900
▁voluntary	-9901
▁challenged	-9902
▁suspicious	-9903
▁educational	-9904
▁Representatives	-9905
zb	-9906
▁Gw	-9907
serv	-9908
▁11-	-9909
▁Hor	-9910
▁Budd	-9911
▁diox	-9912
▁scre	-9913
▁Jamie	-9914
▁solve	-9915
▁Budget	-9916
▁tension	-9917
▁Portugal	-9918
▁interior	-9919
▁shoppers	-9920
▁Protection	-9921
▁Anne	-9922
▁sail	-9923
▁Sport	-9924
▁depth	-9925
▁sorry	-9926
▁shocked	-9927
▁memories	-9928
▁converted	-9929
▁regulator	-9930
▁mainstream	-9931
gt	-9932
cia	-9933
▁Low	-9934
acted	-9935
▁dynam	-9936
▁treas	-9937
umbling	-9938
▁Twenty	-9939
imbledon	-9940
▁Whether	-9941
▁careful	-9942
▁Arkansas	-9943
▁practical	-9944
▁Portsmouth	-9945
▁midfielder	-9946
70	-9947
inch	-9948
▁Arn	-9949
atched	-9950
▁Grant	-9951
▁absor	-9952
▁lined	-9953
▁Fannie	-9954
▁Totten	-9955
ographic	-9956
▁Collins	-9957
▁activist	-9958
▁lifestyle	-9959
▁delivering	-9960
▁considerable	-9961
.50	-9962
▁Ur	-9963
▁gym	-9964
▁Jews	-9965
rities	-9966
▁ambul	-9967
▁clash	-9968
▁parks	-9969
▁divers	-9970
▁checked	-9971
▁reflects	-9972
▁Thousands	-9973
▁violations	-9974
▁demonstrators	-9975
aver	-9976
mind	-9977
bound	-9978
▁Bernard	-9979
▁imports	-9980
▁shelter	-9981
▁surrender	-9982
▁innovation	-9983
▁Metropolitan	-9984
▁manufacturer	-9985
▁Transportation	-9986
abs	-9987
▁Imp	-9988
▁LLC	-9989
▁fake	-9990
screen	-9991
▁Saddam	-9992
▁enrich	-9993
▁smooth	-9994
▁authors	-9995
▁somehow	-9996
▁marijuana	-9997
▁Investment	-9998
king	-9999
▁Kaz	-10000
aping	-10001
▁1979	-10002
▁Mous	-10003
▁Robin	-10004
▁blank	-10005
▁traff	-10006
▁Norway	-10007
▁coastal	-10008
▁nervous	-10009
▁Unfortunately	-10010
RI	-10011
▁ED	-10012
hips	-10013
onia	-10014
ulpt	-10015
▁Chad	-10016
▁Adams	-10017
▁Perry	-10018
▁Price	-10019
▁waves	-10020
▁decent	-10021
▁speaker	-10022
▁operated	-10023
▁troubles	-10024
▁Entertain	-10025
▁economics	-10026
▁sustainable	-10027
▁contemporary	-10028
AF	-10029
.99	-10030
VER	-10031
ienn	-10032
▁Han	-10033
▁Jes	-10034
▁Sat	-10035
▁cow	-10036
inces	-10037
▁sits	-10038
▁Coach	-10039
▁solic	-10040
▁swift	-10041
ilateral	-10042
▁Workers	-10043
▁petition	-10044
▁sexually	-10045
▁Universal	-10046
▁Wimbledon	-10047
▁subsidiary	-10048
▁accompanied	-10049
▁destination	-10050
GH	-10051
▁Zh	-10052
orld	-10053
▁19-	-10054
▁mph	-10055
▁dish	-10056
▁trem	-10057
▁skept	-10058
ighting	-10059
▁bullet	-10060
▁guitar	-10061
▁lineup	-10062
▁Hundred	-10063
▁aspects	-10064
▁deciding	-10065
▁automaker	-10066
▁somewhere	-10067
▁Environmental	-10068
EP	-10069
eli	-10070
leg	-10071
▁ID	-10072
▁ON	-10073
teen	-10074
▁Bes	-10075
▁Rud	-10076
▁Sgt	-10077
ication	-10078
perform	-10079
▁crimin	-10080
▁Airways	-10081
▁damages	-10082
▁recovering	-10083
▁underground	-10084
▁92	-10085
▁Fal	-10086
▁Jets	-10087
▁Singh	-10088
▁rises	-10089
duction	-10090
▁Donald	-10091
▁Policy	-10092
▁convert	-10093
▁overcome	-10094
▁tracking	-10095
▁offenders	-10096
▁perfectly	-10097
▁transactions	-10098
▁IR	-10099
▁outf	-10100
▁riot	-10101
▁Kings	-10102
▁cargo	-10103
▁cream	-10104
▁liked	-10105
▁lists	-10106
▁declar	-10107
▁hybrid	-10108
▁cooking	-10109
▁organic	-10110
▁visible	-10111
▁purposes	-10112
▁travelers	-10113
▁businessman	-10114
▁predecessor	-10115
OX	-10116
ION	-10117
cot	-10118
fers	-10119
iley	-10120
pace	-10121
▁Mae	-10122
▁Tax	-10123
▁phr	-10124
▁meal	-10125
anches	-10126
ceived	-10127
uccess	-10128
▁annum	-10129
▁cheer	-10130
▁venue	-10131
ocolate	-10132
▁staged	-10133
▁stupid	-10134
▁seemingly	-10135
▁spiritual	-10136
▁difficulty	-10137
▁insurgency	-10138
▁Ra	-10139
fund	-10140
▁2.4	-10141
▁Hal	-10142
itate	-10143
▁hunt	-10144
▁mild	-10145
▁toil	-10146
▁Baker	-10147
▁manip	-10148
▁preced	-10149
▁earning	-10150
▁Communist	-10151
▁describes	-10152
▁existence	-10153
▁subsidies	-10154
▁personality	-10155
ivan	-10156
icate	-10157
▁buck	-10158
▁math	-10159
▁melt	-10160
▁Jimmy	-10161
▁Petro	-10162
▁buyer	-10163
▁Travel	-10164
▁exclud	-10165
▁Notting	-10166
▁context	-10167
▁fitness	-10168
▁associate	-10169
▁execution	-10170
▁underlying	-10171
▁publication	-10172
asty	-10173
ongh	-10174
▁Bra	-10175
▁gear	-10176
▁Laden	-10177
▁Stone	-10178
▁dealt	-10179
▁doubts	-10180
▁Jennifer	-10181
▁thorough	-10182
▁Following	-10183
▁Tottenham	-10184
▁eliminate	-10185
▁everywhere	-10186
arms	-10187
gage	-10188
lett	-10189
oser	-10190
▁13-	-10191
▁6-2	-10192
▁RBS	-10193
▁bust	-10194
▁mini	-10195
income	-10196
▁blaze	-10197
▁Change	-10198
▁Schwar	-10199
▁battery	-10200
▁coaches	-10201
▁rallied	-10202
▁Medicine	-10203
▁legitimate	-10204
▁frustration	-10205
▁spectacular	-10206
ayor	-10207
▁Bah	-10208
▁Belf	-10209
▁Hezb	-10210
▁Pers	-10211
ocated	-10212
▁Seoul	-10213
heastern	-10214
▁Paulson	-10215
▁holidays	-10216
▁traveled	-10217
▁organised	-10218
▁competitors	-10219
▁distributed	-10220
mir	-10221
ype	-10222
▁SP	-10223
▁21-	-10224
▁Fat	-10225
▁Tit	-10226
estone	-10227
iciary	-10228
istent	-10229
lington	-10230
▁riding	-10231
friendly	-10232
▁Helmand	-10233
▁enthusi	-10234
▁appealing	-10235
▁consulting	-10236
▁1.9	-10237
▁Gay	-10238
▁JPM	-10239
▁1988	-10240
▁Roll	-10241
▁fing	-10242
▁fierce	-10243
▁lesson	-10244
▁meters	-10245
▁versus	-10246
▁legally	-10247
▁Hundreds	-10248
▁Mountain	-10249
▁hearings	-10250
▁insurers	-10251
▁philosoph	-10252
▁3-1	-10253
▁Cad	-10254
▁hub	-10255
▁unt	-10256
▁Hung	-10257
▁Move	-10258
▁Wolf	-10259
mother	-10260
▁40,000	-10261
▁duties	-10262
▁sacrif	-10263
▁Stevens	-10264
▁avoided	-10265
▁imprison	-10266
▁realized	-10267
▁consideration	-10268
.75	-10269
nan	-10270
▁clock	-10271
▁cloud	-10272
▁march	-10273
▁plain	-10274
▁drives	-10275
▁Critics	-10276
▁Schwarz	-10277
▁defined	-10278
▁offences	-10279
▁northwest	-10280
▁establishment	-10281
but	-10282
unal	-10283
▁Non	-10284
▁nic	-10285
stage	-10286
▁Horn	-10287
▁rang	-10288
ration	-10289
▁triple	-10290
▁engines	-10291
▁prosper	-10292
▁deposits	-10293
▁occupied	-10294
▁ultimate	-10295
▁Richardson	-10296
▁highlighted	-10297
low	-10298
rina	-10299
rous	-10300
▁Sin	-10301
▁Cold	-10302
▁Steel	-10303
▁Dennis	-10304
▁Duncan	-10305
▁Palace	-10306
▁Stuart	-10307
▁parade	-10308
▁Neither	-10309
▁signals	-10310
▁midnight	-10311
▁breakfast	-10312
▁Scientists	-10313
▁authorized	-10314
iop	-10315
▁BP	-10316
▁rif	-10317
▁spo	-10318
igious	-10319
▁grade	-10320
▁Rafael	-10321
▁argues	-10322
▁deemed	-10323
▁inject	-10324
▁versions	-10325
▁GP	-10326
asks	-10327
dles	-10328
ints	-10329
▁Row	-10330
▁Tam	-10331
▁Crist	-10332
▁catal	-10333
▁teens	-10334
▁opener	-10335
▁vessel	-10336
▁Kurdish	-10337
▁intends	-10338
▁answered	-10339
▁subprime	-10340
▁nominated	-10341
▁indication	-10342
aka	-10343
gom	-10344
udes	-10345
▁2.3	-10346
▁Lut	-10347
esity	-10348
▁Lama	-10349
▁hill	-10350
▁rice	-10351
▁slip	-10352
▁micro	-10353
▁tempt	-10354
▁tribute	-10355
▁adjusted	-10356
▁secondary	-10357
▁operational	-10358
▁Entertainment	-10359
oa	-10360
atri	-10361
elli	-10362
▁hij	-10363
urred	-10364
▁eggs	-10365
arents	-10366
▁Kerry	-10367
▁brutal	-10368
▁Private	-10369
▁bureauc	-10370
▁scholars	-10371
▁Sometimes	-10372
jan	-10373
▁0.4	-10374
▁22-	-10375
adesh	-10376
▁Corps	-10377
▁Somali	-10378
▁notion	-10379
▁raises	-10380
▁stabbed	-10381
▁explosive	-10382
▁prevented	-10383
▁substance	-10384
▁campaigning	-10385
dd	-10386
eva	-10387
▁Bad	-10388
▁Clem	-10389
▁Vlad	-10390
▁Ward	-10391
▁bulk	-10392
▁chaos	-10393
▁frame	-10394
▁shirt	-10395
▁throws	-10396
▁Tibetan	-10397
▁Campaign	-10398
▁foreigners	-10399
▁celebrities	-10400
▁arrangements	-10401
▁pharmaceutical	-10402
▁fet	-10403
▁Pear	-10404
▁curb	-10405
▁poet	-10406
▁script	-10407
▁crossed	-10408
▁highway	-10409
▁Hezbollah	-10410
▁headlines	-10411
▁qualifying	-10412
▁reductions	-10413
▁prescription	-10414
▁demonstrations	-10415
▁Cu	-10416
face	-10417
step	-10418
▁See	-10419
▁bio	-10420
▁bloc	-10421
agging	-10422
▁immun	-10423
▁Mobile	-10424
▁sculpt	-10425
▁wounds	-10426
▁Belfast	-10427
▁disturb	-10428
▁arriving	-10429
ja	-10430
Star	-10431
▁gri	-10432
igent	-10433
▁nose	-10434
handed	-10435
▁Dalai	-10436
▁fract	-10437
▁goalk	-10438
sharing	-10439
▁devoted	-10440
▁dioxide	-10441
▁drilling	-10442
▁discrimination	-10443
egu	-10444
▁ITV	-10445
▁tar	-10446
▁Bren	-10447
▁Idol	-10448
▁fined	-10449
▁inaug	-10450
▁Davies	-10451
▁easing	-10452
▁confron	-10453
▁mandate	-10454
▁interven	-10455
▁pressing	-10456
▁volatile	-10457
▁declining	-10458
▁factories	-10459
▁#	-10460
▁SU	-10461
▁130	-10462
▁Gab	-10463
▁posed	-10464
▁labour	-10465
▁Georgian	-10466
▁reliable	-10467
▁generations	-10468
pts	-10469
▁89	-10470
▁97	-10471
▁4.5	-10472
▁Vick	-10473
▁grip	-10474
▁Clear	-10475
▁boats	-10476
▁risky	-10477
▁sells	-10478
▁Almost	-10479
▁Further	-10480
▁chicken	-10481
▁slowing	-10482
▁Armstrong	-10483
▁expertise	-10484
▁traditionally	-10485
razy	-10486
inary	-10487
▁Shah	-10488
▁soci	-10489
rition	-10490
▁bread	-10491
▁forum	-10492
▁teeth	-10493
▁Mother	-10494
▁Montgom	-10495
▁diverse	-10496
▁retreat	-10497
▁reviews	-10498
▁soaring	-10499
▁Everyone	-10500
▁isolated	-10501
▁prompting	-10502
▁regardless	-10503
▁sophisticated	-10504
TC	-10505
▁neut	-10506
cribed	-10507
▁Cuban	-10508
▁imper	-10509
evision	-10510
▁25,000	-10511
▁Hondur	-10512
▁errors	-10513
▁gunmen	-10514
▁300,000	-10515
▁convince	-10516
▁stunning	-10517
▁Charlotte	-10518
▁presidents	-10519
▁perspective	-10520
bat	-10521
urg	-10522
▁pa	-10523
▁190	-10524
▁Dor	-10525
▁Hans	-10526
▁files	-10527
▁kinds	-10528
▁ridic	-10529
▁spell	-10530
▁tired	-10531
▁Rooney	-10532
aturally	-10533
▁Windows	-10534
▁McDonald	-10535
▁illegally	-10536
▁oversight	-10537
aria	-10538
▁mud	-10539
found	-10540
▁wages	-10541
▁Polish	-10542
▁cruise	-10543
▁grants	-10544
▁tempor	-10545
▁canceled	-10546
▁pointing	-10547
▁refugees	-10548
▁restored	-10549
▁achievement	-10550
▁reconciliation	-10551
eath	-10552
feld	-10553
otes	-10554
▁Ped	-10555
▁Sac	-10556
▁Tob	-10557
▁emp	-10558
piece	-10559
▁fool	-10560
▁Alban	-10561
▁overd	-10562
▁sweep	-10563
▁voter	-10564
casters	-10565
▁gender	-10566
▁deserve	-10567
▁Portland	-10568
▁sleeping	-10569
▁launching	-10570
▁residence	-10571
▁spreading	-10572
▁commanders	-10573
▁examination	-10574
▁Dj	-10575
▁Bart	-10576
▁Reds	-10577
▁reun	-10578
▁Cancer	-10579
▁Employ	-10580
▁Watson	-10581
▁harass	-10582
▁Current	-10583
▁mystery	-10584
▁counties	-10585
▁rhetoric	-10586
▁romantic	-10587
▁researcher	-10588
▁cro	-10589
▁Yang	-10590
▁anch	-10591
aching	-10592
▁Freed	-10593
▁posting	-10594
▁Cambridge	-10595
▁Islamabad	-10596
▁situations	-10597
▁electronics	-10598
-11	-10599
ete	-10600
ori	-10601
▁Pu	-10602
cies	-10603
imir	-10604
▁Run	-10605
angir	-10606
▁2020	-10607
▁tang	-10608
vation	-10609
▁unity	-10610
▁Contin	-10611
▁butter	-10612
▁perpet	-10613
▁scream	-10614
▁overturn	-10615
▁preserve	-10616
▁salaries	-10617
▁requiring	-10618
▁inevitable	-10619
▁surprisingly	-10620
▁Communications	-10621
▁wis	-10622
▁pays	-10623
▁Would	-10624
▁buses	-10625
▁comed	-10626
▁centres	-10627
▁ranking	-10628
▁Building	-10629
▁cautious	-10630
▁exploded	-10631
▁workforce	-10632
tax	-10633
-200	-10634
lock	-10635
osex	-10636
rien	-10637
▁Ill	-10638
▁haz	-10639
▁mun	-10640
▁wet	-10641
usive	-10642
▁desc	-10643
▁plum	-10644
ellers	-10645
▁button	-10646
▁Buffalo	-10647
▁beneath	-10648
▁relating	-10649
▁sporting	-10650
▁respected	-10651
▁Nottingham	-10652
▁presentation	-10653
dam	-10654
eus	-10655
yer	-10656
▁Wy	-10657
▁Inn	-10658
▁Ton	-10659
charg	-10660
▁Hind	-10661
▁asks	-10662
astrop	-10663
▁Const	-10664
▁Dream	-10665
▁Honda	-10666
▁Petra	-10667
▁graph	-10668
▁Zelaya	-10669
▁runner	-10670
▁Natural	-10671
▁anybody	-10672
▁diamond	-10673
▁margins	-10674
▁Lawrence	-10675
▁mounting	-10676
▁renewable	-10677
sk	-10678
.25	-10679
des	-10680
empl	-10681
ihad	-10682
rics	-10683
▁lad	-10684
chair	-10685
▁bold	-10686
▁vary	-10687
heimer	-10688
▁hydro	-10689
▁15,000	-10690
▁admits	-10691
▁muscle	-10692
▁nursing	-10693
▁singles	-10694
▁lifetime	-10695
▁celebration	-10696
▁OF	-10697
▁2.1	-10698
▁Agr	-10699
▁mol	-10700
▁blew	-10701
▁rear	-10702
▁slide	-10703
▁costly	-10704
▁wholes	-10705
▁emotion	-10706
▁explore	-10707
▁pitched	-10708
▁privile	-10709
▁silence	-10710
▁starter	-10711
▁engineers	-10712
▁commitments	-10713
▁corporations	-10714
▁intellectual	-10715
▁neighborhoods	-10716
AAP	-10717
LAN	-10718
erto	-10719
▁luc	-10720
▁tob	-10721
berry	-10722
▁exha	-10723
▁hell	-10724
▁valued	-10725
▁courage	-10726
▁attribut	-10727
▁roadside	-10728
▁criminals	-10729
▁violation	-10730
▁discussing	-10731
▁touchdowns	-10732
▁breakthrough	-10733
uz	-10734
tra	-10735
elle	-10736
▁Fut	-10737
▁Hat	-10738
▁Hit	-10739
eling	-10740
bourne	-10741
▁Banks	-10742
▁shall	-10743
▁uncon	-10744
uration	-10745
▁Angels	-10746
▁Castro	-10747
tershire	-10748
▁Ronaldo	-10749
▁deposit	-10750
▁examine	-10751
▁motorcy	-10752
▁collision	-10753
▁frustrated	-10754
kee	-10755
ouses	-10756
▁Gore	-10757
▁meets	-10758
▁noise	-10759
▁ratio	-10760
derland	-10761
▁Reform	-10762
▁Xinhua	-10763
▁exempt	-10764
▁peacek	-10765
▁portra	-10766
▁Thomson	-10767
▁battles	-10768
▁depends	-10769
▁entrance	-10770
▁youngest	-10771
▁provinces	-10772
▁reception	-10773
▁strategies	-10774
▁Investigators	-10775
Mal	-10776
ews	-10777
uzz	-10778
▁Ak	-10779
▁fo	-10780
iped	-10781
▁Fav	-10782
▁Pad	-10783
omach	-10784
orate	-10785
▁Rail	-10786
▁iPod	-10787
▁sued	-10788
▁Total	-10789
▁opera	-10790
▁Hudson	-10791
▁bedroom	-10792
▁Patriots	-10793
▁feelings	-10794
▁proceeds	-10795
▁resolved	-10796
▁scenario	-10797
▁shipping	-10798
▁websites	-10799
▁excessive	-10800
▁sentences	-10801
▁technique	-10802
▁Convention	-10803
mert	-10804
ught	-10805
▁Crow	-10806
▁Thai	-10807
▁gest	-10808
onduct	-10809
ranked	-10810
reated	-10811
▁Quest	-10812
▁resum	-10813
▁stops	-10814
▁grabbed	-10815
▁Fernando	-10816
▁engineer	-10817
▁severely	-10818
▁Leicester	-10819
▁signature	-10820
▁temporarily	-10821
FC	-10822
yt	-10823
▁110	-10824
▁Tun	-10825
▁NCAA	-10826
▁fame	-10827
▁pact	-10828
ishers	-10829
▁Early	-10830
▁Index	-10831
▁Small	-10832
▁boards	-10833
▁inmates	-10834
▁islands	-10835
▁transpl	-10836
▁damaging	-10837
▁generous	-10838
▁Intelligence	-10839
TO	-10840
ls	-10841
▁Vin	-10842
aying	-10843
opard	-10844
▁Cinc	-10845
▁Josh	-10846
▁joke	-10847
▁lect	-10848
essing	-10849
▁Front	-10850
▁Walter	-10851
earchers	-10852
▁chamber	-10853
▁Marshall	-10854
▁modified	-10855
▁paintings	-10856
▁strongest	-10857
▁guarantees	-10858
▁collaboration	-10859
wa	-10860
odge	-10861
otive	-10862
parts	-10863
▁Fact	-10864
▁Snow	-10865
▁Wals	-10866
▁obsc	-10867
▁wage	-10868
▁ward	-10869
imited	-10870
inated	-10871
▁meals	-10872
▁tears	-10873
▁bipart	-10874
▁rookie	-10875
▁acquire	-10876
▁diluted	-10877
▁hostile	-10878
▁matched	-10879
▁JPMorgan	-10880
▁treating	-10881
▁colleague	-10882
▁suggestion	-10883
▁4-	-10884
▁Ye	-10885
▁140	-10886
▁fab	-10887
▁Mars	-10888
▁upgr	-10889
▁Aaron	-10890
▁Bobby	-10891
▁Brand	-10892
▁farms	-10893
▁Celtic	-10894
▁Spears	-10895
▁bloody	-10896
▁Theater	-10897
▁erupted	-10898
▁tobacco	-10899
▁compliance	-10900
aus	-10901
▁HS	-10902
izer	-10903
▁BEI	-10904
▁Have	-10905
▁Trop	-10906
▁fest	-10907
▁crops	-10908
▁dimin	-10909
▁passage	-10910
▁lobbying	-10911
▁monetary	-10912
▁somebody	-10913
▁developer	-10914
▁processing	-10915
BM	-10916
▁Po	-10917
atre	-10918
▁1984	-10919
▁Benj	-10920
▁Ivan	-10921
▁span	-10922
▁stead	-10923
▁mutual	-10924
▁Climate	-10925
▁promoted	-10926
▁replacing	-10927
▁enterprise	-10928
▁programmes	-10929
▁5-	-10930
▁Dig	-10931
▁Tsv	-10932
▁fel	-10933
▁Todd	-10934
elihood	-10935
▁Merkel	-10936
▁grocer	-10937
▁praise	-10938
▁waited	-10939
▁designs	-10940
▁disrupt	-10941
▁notably	-10942
▁stomach	-10943
▁incorpor	-10944
▁Federation	-10945
awi	-10946
hal	-10947
eled	-10948
▁Amb	-10949
▁bot	-10950
▁que	-10951
mails	-10952
▁Cher	-10953
▁tale	-10954
remlin	-10955
▁shake	-10956
▁Saints	-10957
▁boosted	-10958
▁gallery	-10959
▁rolling	-10960
▁Israelis	-10961
▁restrict	-10962
▁investing	-10963
▁appreciate	-10964
▁championships	-10965
▁|	-10966
-12	-10967
fare	-10968
tech	-10969
▁0.0	-10970
▁Kir	-10971
iband	-10972
▁flav	-10973
▁porn	-10974
billion	-10975
▁Aberde	-10976
▁weaker	-10977
▁holders	-10978
▁licence	-10979
▁charging	-10980
▁executed	-10981
▁premiere	-10982
▁pursuing	-10983
▁centuries	-10984
▁chocolate	-10985
▁delighted	-10986
▁Television	-10987
idal	-10988
▁0.6	-10989
▁3-0	-10990
▁Alf	-10991
▁bump	-10992
▁sher	-10993
innati	-10994
▁Gibbs	-10995
▁Stein	-10996
▁Lauren	-10997
▁fisher	-10998
▁handled	-10999
▁diplomat	-11000
▁undermin	-11001
▁neighbour	-11002
▁integrated	-11003
▁medication	-11004
▁explanation	-11005
▁96	-11006
boys	-11007
▁27-	-11008
▁Pict	-11009
▁toys	-11010
▁Leeds	-11011
▁chart	-11012
▁inher	-11013
▁overt	-11014
viously	-11015
▁Jeremy	-11016
▁bacter	-11017
▁urgent	-11018
▁Indians	-11019
▁dancing	-11020
▁inquest	-11021
▁Reporting	-11022
▁goalkeeper	-11023
▁obligation	-11024
▁consultation	-11025
▁uncertainties	-11026
uv	-11027
olt	-11028
▁Gro	-11029
▁Kyi	-11030
▁sole	-11031
member	-11032
▁shield	-11033
▁visual	-11034
▁formula	-11035
▁intimid	-11036
▁Tsvangir	-11037
▁formerly	-11038
▁commodity	-11039
▁evolution	-11040
▁promotion	-11041
▁Cincinnati	-11042
▁exploration	-11043
▁requirement	-11044
▁administrative	-11045
AGO	-11046
▁180	-11047
▁23-	-11048
eches	-11049
issue	-11050
▁trim	-11051
▁Laura	-11052
▁stero	-11053
▁ousted	-11054
stitutes	-11055
▁Tribune	-11056
▁separat	-11057
▁eurozone	-11058
▁infected	-11059
▁searched	-11060
▁breathing	-11061
▁Tsvangirai	-11062
▁introduction	-11063
oli	-11064
▁50-	-11065
▁Mas	-11066
▁Sid	-11067
▁lav	-11068
onies	-11069
rimin	-11070
speed	-11071
▁globe	-11072
▁panic	-11073
▁pride	-11074
▁Butler	-11075
atherine	-11076
▁Liberty	-11077
▁accusing	-11078
▁stopping	-11079
▁suburban	-11080
▁primaries	-11081
▁components	-11082
▁eliminated	-11083
▁demonstrate	-11084
▁organisations	-11085
▁Amy	-11086
▁Bou	-11087
▁sty	-11088
▁Resc	-11089
▁glad	-11090
▁veto	-11091
▁Treat	-11092
▁grave	-11093
▁Sharif	-11094
children	-11095
▁Vladimir	-11096
▁database	-11097
▁Mandelson	-11098
▁agricultural	-11099
▁occasionally	-11100
Bay	-11101
▁191	-11102
▁Kil	-11103
icism	-11104
▁Brew	-11105
▁CHIC	-11106
▁Notes	-11107
▁gifts	-11108
▁reign	-11109
▁Knight	-11110
▁Olmert	-11111
▁calend	-11112
▁Finally	-11113
▁Friends	-11114
▁Oakland	-11115
▁crowded	-11116
▁declines	-11117
▁detectives	-11118
etta	-11119
▁Bey	-11120
▁1982	-11121
▁kiss	-11122
uality	-11123
▁Congo	-11124
▁appet	-11125
▁Austin	-11126
▁Rather	-11127
▁extrad	-11128
▁stakes	-11129
▁CHICAGO	-11130
▁obesity	-11131
▁lawsuits	-11132
▁opinions	-11133
▁refusing	-11134
▁publisher	-11135
▁universal	-11136
▁celebrating	-11137
▁participating	-11138
orer	-11139
▁Hon	-11140
▁Seb	-11141
sized	-11142
store	-11143
throp	-11144
▁cycl	-11145
▁Bangl	-11146
▁alarm	-11147
▁peers	-11148
▁smile	-11149
▁soccer	-11150
▁Industry	-11151
▁battling	-11152
▁offerings	-11153
▁spotlight	-11154
▁infections	-11155
EG	-11156
▁98	-11157
▁1.0	-11158
▁hug	-11159
napped	-11160
ternal	-11161
▁bottles	-11162
▁fortune	-11163
▁permits	-11164
▁Miliband	-11165
▁optimism	-11166
▁engagement	-11167
▁publishing	-11168
▁consistently	-11169
arre	-11170
engu	-11171
▁Look	-11172
▁Owen	-11173
▁scan	-11174
▁twin	-11175
▁Arthur	-11176
▁Easter	-11177
▁circle	-11178
▁tonnes	-11179
▁pitcher	-11180
▁endorsed	-11181
▁starring	-11182
▁catastrop	-11183
▁displaced	-11184
zes	-11185
bits	-11186
wind	-11187
riving	-11188
▁flour	-11189
▁renov	-11190
▁roots	-11191
▁extending	-11192
▁fantastic	-11193
▁conducting	-11194
hit	-11195
▁40-	-11196
▁Exc	-11197
▁NOT	-11198
▁vit	-11199
gging	-11200
▁Aren	-11201
ancies	-11202
icipal	-11203
▁Jesus	-11204
▁nurse	-11205
▁scope	-11206
rington	-11207
▁Clarke	-11208
▁Justin	-11209
▁colour	-11210
▁Islands	-11211
▁Members	-11212
▁budgets	-11213
▁jobless	-11214
▁militia	-11215
▁wanting	-11216
▁receiver	-11217
▁surveyed	-11218
▁delegation	-11219
▁implemented	-11220
▁preparation	-11221
vo	-11222
pin	-11223
▁HM	-11224
▁Ath	-11225
▁cub	-11226
Brien	-11227
ighed	-11228
▁Line	-11229
▁Sure	-11230
▁warn	-11231
giving	-11232
urches	-11233
▁shame	-11234
▁spare	-11235
istered	-11236
ressing	-11237
▁Anyone	-11238
▁genuine	-11239
▁Lebanese	-11240
▁packages	-11241
▁resource	-11242
▁reviewed	-11243
▁sweeping	-11244
▁constantly	-11245
▁availability	-11246
▁participation	-11247
OW	-11248
▁Nep	-11249
▁joy	-11250
▁pose	-11251
▁snap	-11252
▁yard	-11253
ortium	-11254
▁semif	-11255
▁endang	-11256
▁golden	-11257
▁honour	-11258
▁sample	-11259
▁Marines	-11260
▁anxiety	-11261
▁touched	-11262
▁kidnapped	-11263
▁pressures	-11264
utt	-11265
▁MD	-11266
acht	-11267
isms	-11268
▁oun	-11269
ommun	-11270
▁Nazi	-11271
▁mate	-11272
▁thro	-11273
▁prest	-11274
▁Garcia	-11275
▁immune	-11276
▁Embassy	-11277
▁Everton	-11278
▁closest	-11279
▁quietly	-11280
▁disputes	-11281
▁measured	-11282
▁publicity	-11283
▁disclosure	-11284
▁Researchers	-11285
▁declaration	-11286
▁counterparts	-11287
del	-11288
jud	-11289
▁reh	-11290
ersen	-11291
▁Flin	-11292
▁belt	-11293
▁gases	-11294
▁lasted	-11295
▁apology	-11296
▁heating	-11297
▁instant	-11298
▁Petraeus	-11299
▁designers	-11300
▁kidnapping	-11301
▁departments	-11302
host	-11303
▁sin	-11304
▁Buzz	-11305
▁Fall	-11306
arency	-11307
▁compr	-11308
▁dreams	-11309
▁regret	-11310
breaking	-11311
▁Hispanic	-11312
▁violated	-11313
▁automatic	-11314
▁determination	-11315
top	-11316
ahar	-11317
otti	-11318
oved	-11319
▁2.6	-11320
▁III	-11321
▁Jar	-11322
▁Suu	-11323
arest	-11324
▁chip	-11325
▁proc	-11326
ambers	-11327
▁Jacob	-11328
▁genoc	-11329
▁Winter	-11330
▁dispos	-11331
▁hammer	-11332
▁hiding	-11333
▁ballots	-11334
▁vessels	-11335
▁examined	-11336
▁judicial	-11337
▁indicates	-11338
▁interpret	-11339
▁unchanged	-11340
▁unemployed	-11341
▁disappointment	-11342
.30	-11343
▁Ki	-11344
anim	-11345
yers	-11346
▁1-1	-11347
▁3.6	-11348
▁Advis	-11349
▁Spurs	-11350
▁Strip	-11351
▁Third	-11352
▁medals	-11353
▁tables	-11354
▁circuit	-11355
▁donated	-11356
▁hunting	-11357
▁supporter	-11358
▁suggestions	-11359
▁conversations	-11360
35	-11361
mal	-11362
itis	-11363
vely	-11364
inted	-11365
ipper	-11366
▁Book	-11367
▁Holy	-11368
▁Mess	-11369
▁pink	-11370
itated	-11371
wealth	-11372
▁Maine	-11373
▁alter	-11374
▁redund	-11375
▁Alexand	-11376
▁gaining	-11377
▁councils	-11378
▁affecting	-11379
▁lucrative	-11380
▁extremists	-11381
▁instrument	-11382
▁supermarket	-11383
▁capabilities	-11384
▁confirmation	-11385
▁demonstration	-11386
olk	-11387
▁3-2	-11388
amble	-11389
▁Gray	-11390
▁Agric	-11391
▁Derby	-11392
▁fence	-11393
▁Powell	-11394
▁speaks	-11395
▁Schools	-11396
▁theatre	-11397
▁Holdings	-11398
▁releases	-11399
▁ambitions	-11400
▁encounter	-11401
▁highlights	-11402
▁automatically	-11403
▁Roc	-11404
▁Sep	-11405
▁Cash	-11406
▁Conf	-11407
▁tips	-11408
▁Devon	-11409
▁Serge	-11410
▁array	-11411
▁shell	-11412
enegger	-11413
▁Angela	-11414
▁Within	-11415
▁fighter	-11416
▁disclose	-11417
▁amendment	-11418
▁evacuated	-11419
▁instruments	-11420
ethe	-11421
mons	-11422
ailey	-11423
▁Lang	-11424
▁evil	-11425
▁unac	-11426
▁Asked	-11427
▁Short	-11428
▁comic	-11429
▁safer	-11430
theless	-11431
▁Engine	-11432
▁refuse	-11433
istrates	-11434
▁flowers	-11435
▁painted	-11436
▁referee	-11437
▁Benjamin	-11438
▁articles	-11439
▁aviation	-11440
▁branches	-11441
▁choosing	-11442
▁unnecess	-11443
▁wildlife	-11444
▁appearing	-11445
▁recognised	-11446
▁substitute	-11447
400	-11448
▁CS	-11449
▁Om	-11450
club	-11451
oken	-11452
sche	-11453
▁26-	-11454
▁Bat	-11455
▁Ful	-11456
ratic	-11457
▁lend	-11458
around	-11459
eepers	-11460
▁8,000	-11461
▁Danny	-11462
▁Manuel	-11463
▁format	-11464
▁sacked	-11465
▁topped	-11466
▁disagre	-11467
▁undersc	-11468
▁Cornwall	-11469
▁prisoner	-11470
▁Yesterday	-11471
▁sponsored	-11472
▁Schwarzenegger	-11473
.00	-11474
▁91	-11475
rock	-11476
▁2.7	-11477
▁Pap	-11478
arded	-11479
▁Rest	-11480
▁Ethiop	-11481
▁Foster	-11482
▁ignore	-11483
▁mosque	-11484
▁Electric	-11485
▁Phillies	-11486
▁arranged	-11487
▁decreased	-11488
▁furniture	-11489
..	-11490
ci	-11491
dem	-11492
unta	-11493
wart	-11494
▁Sym	-11495
▁Moon	-11496
▁menu	-11497
▁toss	-11498
▁urge	-11499
▁metres	-11500
▁slowed	-11501
▁Freedom	-11502
▁distingu	-11503
▁subscrib	-11504
▁explaining	-11505
▁psychological	-11506
iah	-11507
agic	-11508
comm	-11509
▁Cab	-11510
▁Sex	-11511
▁lun	-11512
enter	-11513
▁cous	-11514
▁mamm	-11515
iverse	-11516
▁Tamil	-11517
▁drown	-11518
▁kidney	-11519
▁laptop	-11520
▁counted	-11521
▁pressed	-11522
▁recalls	-11523
▁awaiting	-11524
▁pandemic	-11525
controlled	-11526
▁hurricane	-11527
▁reviewing	-11528
▁Christians	-11529
▁PH	-11530
ista	-11531
orge	-11532
▁Ana	-11533
▁Kal	-11534
▁Kam	-11535
▁Lin	-11536
▁Sut	-11537
▁1987	-11538
▁Dise	-11539
▁Intel	-11540
▁arena	-11541
▁abused	-11542
▁debris	-11543
▁racist	-11544
▁Capello	-11545
▁basically	-11546
▁occasions	-11547
▁collective	-11548
▁deployment	-11549
▁occasional	-11550
▁preventing	-11551
ENT	-11552
▁09	-11553
▁OP	-11554
apes	-11555
tail	-11556
▁BMW	-11557
▁Dog	-11558
▁gig	-11559
ftime	-11560
▁bout	-11561
▁topic	-11562
powered	-11563
▁Ashley	-11564
▁absent	-11565
▁expend	-11566
▁Mohammad	-11567
▁cleaning	-11568
▁colleges	-11569
▁ensuring	-11570
▁dependent	-11571
Is	-11572
deg	-11573
itr	-11574
ppy	-11575
▁AA	-11576
▁HD	-11577
acon	-11578
iasm	-11579
▁125	-11580
▁twe	-11581
idges	-11582
inity	-11583
▁1986	-11584
▁Wire	-11585
▁jets	-11586
▁taxi	-11587
▁Nepal	-11588
▁Arnold	-11589
▁petrol	-11590
▁pocket	-11591
▁Belgium	-11592
▁Command	-11593
▁Katrina	-11594
▁Peterson	-11595
▁supervis	-11596
▁incentive	-11597
▁devastated	-11598
▁profitable	-11599
▁restricted	-11600
▁endorsement	-11601
▁populations	-11602
erm	-11603
leum	-11604
▁Gat	-11605
▁NHL	-11606
enson	-11607
licit	-11608
▁Kath	-11609
▁clim	-11610
▁epic	-11611
itudes	-11612
▁wrest	-11613
pointer	-11614
ullivan	-11615
▁Athens	-11616
▁assemb	-11617
▁bubble	-11618
▁Kingdom	-11619
▁Memorial	-11620
▁failures	-11621
▁halftime	-11622
▁volunteer	-11623
▁priorities	-11624
▁commodities	-11625
▁obligations	-11626
▁implications	-11627
▁94	-11628
math	-11629
▁2.0	-11630
▁2.8	-11631
aning	-11632
aukee	-11633
▁1930	-11634
▁grid	-11635
▁horm	-11636
▁cabin	-11637
▁safegu	-11638
▁Dodgers	-11639
▁Mohamed	-11640
▁Theatre	-11641
▁forever	-11642
▁insurer	-11643
▁coaching	-11644
▁Assistant	-11645
▁electrical	-11646
obb	-11647
oly	-11648
▁Si	-11649
drop	-11650
oria	-11651
ripp	-11652
▁160	-11653
▁bru	-11654
▁pod	-11655
uates	-11656
▁Brig	-11657
▁Moss	-11658
▁epid	-11659
▁glam	-11660
changes	-11661
▁booked	-11662
▁convoy	-11663
▁floods	-11664
▁sealed	-11665
▁wooden	-11666
▁Kremlin	-11667
▁assured	-11668
▁snapped	-11669
▁sounded	-11670
▁Emirates	-11671
▁Heathrow	-11672
▁dominant	-11673
▁phenomen	-11674
▁speeches	-11675
▁movements	-11676
▁perceived	-11677
▁accomplish	-11678
HA	-11679
ardi	-11680
arth	-11681
habi	-11682
stop	-11683
uers	-11684
▁7-6	-11685
▁Box	-11686
▁dim	-11687
rants	-11688
▁Main	-11689
▁Prin	-11690
▁boge	-11691
▁Surrey	-11692
▁locals	-11693
▁Greater	-11694
▁sheriff	-11695
▁Military	-11696
▁impressed	-11697
▁comparable	-11698
75	-11699
afe	-11700
▁DC	-11701
JING	-11702
▁3.8	-11703
▁dad	-11704
▁Hann	-11705
dering	-11706
ultane	-11707
▁Veter	-11708
▁Walsh	-11709
▁bunch	-11710
▁dubbed	-11711
▁Chamber	-11712
▁evident	-11713
▁neutral	-11714
▁volumes	-11715
▁battered	-11716
▁emphasis	-11717
▁Relations	-11718
▁Montgomery	-11719
▁bipartisan	-11720
▁kilometers	-11721
▁laboratory	-11722
▁subsequently	-11723
▁spy	-11724
▁Fish	-11725
▁foss	-11726
loaded	-11727
▁6,000	-11728
▁Burma	-11729
▁Delhi	-11730
▁bears	-11731
▁crazy	-11732
▁inner	-11733
▁tours	-11734
▁Merced	-11735
▁intend	-11736
▁Formula	-11737
▁Timothy	-11738
▁outdoor	-11739
▁wrapped	-11740
▁accepting	-11741
▁musicians	-11742
▁definition	-11743
▁acknowledge	-11744
▁disappearance	-11745
▁1-	-11746
▁Dak	-11747
▁Set	-11748
pound	-11749
▁Nato	-11750
rament	-11751
▁Casey	-11752
▁audio	-11753
▁Sussex	-11754
▁barred	-11755
▁BEIJING	-11756
▁Manning	-11757
▁objects	-11758
▁inquiries	-11759
▁astronauts	-11760
▁prevention	-11761
▁registration	-11762
▁assassination	-11763
dig	-11764
hist	-11765
post	-11766
▁Kay	-11767
▁Mut	-11768
▁Ric	-11769
build	-11770
▁guer	-11771
▁mere	-11772
▁slim	-11773
waukee	-11774
▁Shell	-11775
borough	-11776
▁Please	-11777
▁Wenger	-11778
▁dining	-11779
▁elabor	-11780
▁lengthy	-11781
▁offence	-11782
terrorism	-11783
▁gambling	-11784
▁aftermath	-11785
▁responding	-11786
▁maintaining	-11787
fty	-11788
kok	-11789
▁ax	-11790
opes	-11791
toff	-11792
claim	-11793
nesty	-11794
▁Jama	-11795
▁Lisa	-11796
▁Side	-11797
▁chol	-11798
ushing	-11799
▁2,500	-11800
▁Essex	-11801
▁sidel	-11802
▁openly	-11803
▁surveys	-11804
▁criteria	-11805
▁tribunal	-11806
▁addresses	-11807
▁conscious	-11808
▁governors	-11809
▁gradually	-11810
▁automakers	-11811
▁supplement	-11812
-14	-11813
osh	-11814
▁NA	-11815
▁tu	-11816
scri	-11817
▁McM	-11818
▁Pas	-11819
▁sid	-11820
▁Cape	-11821
▁desp	-11822
▁grim	-11823
▁intr	-11824
inating	-11825
▁loaded	-11826
▁Denmark	-11827
▁Monetary	-11828
▁advisory	-11829
▁genocide	-11830
▁separated	-11831
▁grandmother	-11832
▁acquisitions	-11833
▁Ca	-11834
iots	-11835
▁Pav	-11836
▁lap	-11837
▁abst	-11838
▁bron	-11839
▁dealer	-11840
▁marine	-11841
▁submit	-11842
▁Wallace	-11843
▁checking	-11844
▁withdrew	-11845
▁chemicals	-11846
▁teammates	-11847
▁designated	-11848
▁vegetables	-11849
bow	-11850
▁Fif	-11851
ugged	-11852
▁Drew	-11853
▁FRAN	-11854
▁Omar	-11855
▁slot	-11856
▁walks	-11857
▁assign	-11858
▁gentle	-11859
▁Overall	-11860
▁Margaret	-11861
▁briefing	-11862
▁talented	-11863
▁recognise	-11864
▁undermine	-11865
▁describing	-11866
lee	-11867
ribe	-11868
▁1,6	-11869
▁Tes	-11870
▁Bosn	-11871
▁Kenn	-11872
▁Mull	-11873
▁bell	-11874
▁buff	-11875
▁topp	-11876
50,000	-11877
assion	-11878
▁Money	-11879
▁Thank	-11880
▁backs	-11881
▁dirty	-11882
▁gloom	-11883
▁Article	-11884
▁bolster	-11885
▁advocacy	-11886
▁assigned	-11887
▁episodes	-11888
▁murdered	-11889
▁ambulance	-11890
▁probation	-11891
▁pronounced	-11892
▁remembered	-11893
▁willingness	-11894
ui	-11895
▁»	-11896
asm	-11897
okia	-11898
▁0.8	-11899
▁Led	-11900
▁Meg	-11901
▁None	-11902
▁corp	-11903
▁wors	-11904
ingham	-11905
▁Croat	-11906
▁Heart	-11907
▁Bangkok	-11908
▁artific	-11909
▁fragile	-11910
▁Election	-11911
▁cancelled	-11912
▁divisions	-11913
▁immigrant	-11914
▁categories	-11915
▁connections	-11916
bie	-11917
count	-11918
court	-11919
umble	-11920
▁Baby	-11921
▁View	-11922
opular	-11923
▁minus	-11924
ramento	-11925
▁Person	-11926
▁salmon	-11927
▁produces	-11928
▁stepping	-11929
▁simultane	-11930
▁credibility	-11931
mat	-11932
iard	-11933
iances	-11934
▁alien	-11935
▁Sheikh	-11936
▁storms	-11937
▁employs	-11938
▁absolute	-11939
▁adoption	-11940
▁meltdown	-11941
▁Emergency	-11942
▁displayed	-11943
▁followers	-11944
▁chancellor	-11945
▁photographer	-11946
IR	-11947
ook	-11948
acles	-11949
ovich	-11950
▁grab	-11951
▁nick	-11952
▁Dhabi	-11953
▁disgr	-11954
▁fines	-11955
▁rated	-11956
▁chairs	-11957
▁150,000	-11958
▁Doctors	-11959
▁declare	-11960
▁calendar	-11961
▁enjoying	-11962
100	-11963
opez	-11964
▁fer	-11965
▁liv	-11966
▁oxy	-11967
▁Fein	-11968
▁Half	-11969
▁dign	-11970
▁peer	-11971
▁burgl	-11972
▁cruel	-11973
▁soared	-11974
▁assumed	-11975
▁hostage	-11976
▁railway	-11977
▁Aberdeen	-11978
▁witnessed	-11979
▁compelling	-11980
▁contractor	-11981
▁sentencing	-11982
▁youngsters	-11983
▁=	-11984
fin	-11985
▁Kl	-11986
▁Ug	-11987
▁ug	-11988
icyc	-11989
▁3.4	-11990
▁Hull	-11991
uating	-11992
▁magic	-11993
▁orange	-11994
▁replay	-11995
▁superb	-11996
▁surged	-11997
▁payroll	-11998
▁subscri	-11999
ationally	-12000
▁unaccept	-12001
▁Milwaukee	-12002
▁processes	-12003
▁enthusiasm	-12004
▁structures	-12005
▁programming	-12006
▁constituency	-12007
oft	-12008
annon	-12009
ienna	-12010
ouces	-12011
isting	-12012
manuel	-12013
▁Favre	-12014
▁Nokia	-12015
▁chips	-12016
▁indef	-12017
▁rever	-12018
▁scrat	-12019
▁fright	-12020
▁poised	-12021
▁safely	-12022
▁Classic	-12023
▁Downing	-12024
▁beliefs	-12025
▁studios	-12026
▁midfield	-12027
▁pensions	-12028
▁motivated	-12029
▁partially	-12030
▁broadcaster	-12031
CA	-12032
fax	-12033
▁AD	-12034
uten	-12035
▁sne	-12036
asive	-12037
▁visa	-12038
utsche	-12039
▁deriv	-12040
▁gangs	-12041
▁patch	-12042
▁raids	-12043
▁Hunter	-12044
▁voices	-12045
▁premiums	-12046
▁considers	-12047
▁inventory	-12048
▁Philippines	-12049
▁agriculture	-12050
▁counterpart	-12051
▁ingredients	-12052
▁Ern	-12053
▁Kle	-12054
▁Dodd	-12055
▁gate	-12056
▁irre	-12057
iaries	-12058
▁Armed	-12059
▁Brady	-12060
▁demol	-12061
▁Forces	-12062
▁garage	-12063
etheless	-12064
▁Glouces	-12065
▁embrace	-12066
▁fiction	-12067
▁strongh	-12068
▁churches	-12069
▁Sacramento	-12070
▁aggressively	-12071
▁0.7	-12072
▁Cos	-12073
▁MyS	-12074
▁1967	-12075
▁Could	-12076
▁moder	-12077
▁Legisl	-12078
▁Secret	-12079
▁cheese	-12080
▁listing	-12081
▁bathroom	-12082
▁tropical	-12083
▁Bangladesh	-12084
▁nationally	-12085
▁phenomenon	-12086
▁Ta	-12087
storm	-12088
▁Anna	-12089
▁Golf	-12090
▁Hass	-12091
▁Luis	-12092
▁Zard	-12093
ainted	-12094
degree	-12095
▁Qatar	-12096
▁brows	-12097
▁repro	-12098
▁refund	-12099
▁screens	-12100
▁climbing	-12101
▁strategist	-12102
▁successive	-12103
-16	-12104
▁Imm	-12105
▁McA	-12106
isure	-12107
▁Cour	-12108
▁Full	-12109
▁Mack	-12110
▁Vent	-12111
▁Zuma	-12112
▁tower	-12113
▁flames	-12114
▁jacket	-12115
▁panels	-12116
▁marking	-12117
▁outlets	-12118
▁trainer	-12119
▁Richards	-12120
▁Whatever	-12121
▁admission	-12122
▁forgotten	-12123
phis	-12124
▁Bed	-12125
▁Palm	-12126
▁Swan	-12127
achers	-12128
insula	-12129
▁Diana	-12130
▁Mason	-12131
otherap	-12132
rawling	-12133
▁gunman	-12134
▁nurses	-12135
▁Zardari	-12136
▁anymore	-12137
▁debates	-12138
▁fingers	-12139
▁runners	-12140
▁Homeland	-12141
▁Malaysia	-12142
▁Mercedes	-12143
▁shortage	-12144
▁approaching	-12145
▁transparency	-12146
oda	-12147
oped	-12148
▁FOX	-12149
amped	-12150
igate	-12151
isely	-12152
ippers	-12153
▁Along	-12154
▁Wazir	-12155
▁suits	-12156
▁Around	-12157
▁cinema	-12158
▁Experts	-12159
▁Housing	-12160
▁dragged	-12161
▁filings	-12162
▁hosting	-12163
▁tremend	-12164
▁presents	-12165
▁switched	-12166
▁Northwest	-12167
iri	-12168
rov	-12169
ideo	-12170
▁Kur	-12171
▁god	-12172
doing	-12173
▁drum	-12174
▁eleg	-12175
▁musc	-12176
istair	-12177
▁Karen	-12178
▁exile	-12179
ortions	-12180
▁Bishop	-12181
▁halted	-12182
▁tunnel	-12183
▁prolong	-12184
▁rehabil	-12185
▁Montreal	-12186
▁certific	-12187
▁missions	-12188
▁weakened	-12189
▁accidents	-12190
▁sacrifice	-12191
▁Sunderland	-12192
▁classified	-12193
▁expression	-12194
omo	-12195
alez	-12196
▁Hew	-12197
▁Mov	-12198
▁Rat	-12199
inees	-12200
▁Sale	-12201
▁Slam	-12202
▁mask	-12203
▁Fried	-12204
▁jewel	-12205
▁junta	-12206
▁minim	-12207
▁vocal	-12208
▁Living	-12209
▁blacks	-12210
▁spaces	-12211
▁creates	-12212
▁guerrill	-12213
▁naturally	-12214
▁acceptable	-12215
▁billionaire	-12216
▁settlements	-12217
19	-12218
TH	-12219
aga	-12220
har	-12221
oga	-12222
ski	-12223
▁PM	-12224
erves	-12225
▁Reed	-12226
▁Wang	-12227
▁jazz	-12228
▁tech	-12229
minded	-12230
▁Brent	-12231
▁comply	-12232
▁ethics	-12233
▁sooner	-12234
▁strang	-12235
▁suburb	-12236
▁Montana	-12237
▁squeeze	-12238
▁explicit	-12239
▁patterns	-12240
▁conflicts	-12241
▁confusion	-12242
▁notorious	-12243
▁interrogation	-12244
asa	-12245
och	-12246
▁Na	-12247
▁ECB	-12248
▁gal	-12249
▁les	-12250
▁bats	-12251
▁folk	-12252
▁seas	-12253
ecting	-12254
phones	-12255
ranean	-12256
▁Krist	-12257
▁Place	-12258
▁flown	-12259
▁stole	-12260
▁aspect	-12261
▁Memphis	-12262
▁bidding	-12263
▁bombers	-12264
▁careers	-12265
▁turnout	-12266
▁viewing	-12267
▁Alistair	-12268
▁Princess	-12269
▁examples	-12270
▁terminal	-12271
▁threaten	-12272
▁charities	-12273
▁exchanges	-12274
rik	-12275
▁8-	-12276
▁PGA	-12277
▁biz	-12278
eties	-12279
▁Dere	-12280
▁McCl	-12281
▁cens	-12282
▁Blake	-12283
▁Joint	-12284
▁punch	-12285
▁spray	-12286
▁Potter	-12287
▁carpet	-12288
▁clever	-12289
▁gaming	-12290
▁horror	-12291
▁oxygen	-12292
▁revive	-12293
▁tenure	-12294
▁youths	-12295
▁Village	-12296
▁consent	-12297
▁sisters	-12298
▁testify	-12299
▁Movement	-12300
▁external	-12301
▁homeland	-12302
▁unpopular	-12303
▁arrangement	-12304
In	-12305
ika	-12306
iva	-12307
airy	-12308
cost	-12309
▁Jav	-12310
▁cab	-12311
▁tag	-12312
orest	-12313
▁turb	-12314
▁Mills	-12315
▁inapp	-12316
▁marry	-12317
▁utter	-12318
amework	-12319
▁Durham	-12320
▁resemb	-12321
▁runway	-12322
▁Jeffrey	-12323
▁Osborne	-12324
▁nowhere	-12325
▁rockets	-12326
▁headline	-12327
▁magnitude	-12328
▁mandatory	-12329
▁postponed	-12330
▁unacceptable	-12331
16	-12332
fly	-12333
imm	-12334
uri	-12335
dick	-12336
▁3.2	-12337
▁3.3	-12338
▁FSA	-12339
▁Gaz	-12340
▁Tri	-12341
▁1976	-12342
▁Mitt	-12343
author	-12344
▁Sotom	-12345
▁defer	-12346
itement	-12347
▁excuse	-12348
▁silent	-12349
▁Besides	-12350
▁Manager	-12351
▁doubles	-12352
▁plummet	-12353
▁realised	-12354
▁defendant	-12355
▁currencies	-12356
▁transformed	-12357
▁confidential	-12358
Ne	-12359
-13	-12360
irez	-12361
leep	-12362
▁BNP	-12363
▁Sev	-12364
▁glo	-12365
bridge	-12366
▁1,200	-12367
▁bones	-12368
▁deton	-12369
▁Dublin	-12370
▁Oliver	-12371
▁fabric	-12372
▁infant	-12373
▁rental	-12374
▁Clemens	-12375
▁anxious	-12376
▁unhappy	-12377
▁Deutsche	-12378
CH	-12379
NE	-12380
bi	-12381
ali	-12382
odox	-12383
rard	-12384
wear	-12385
▁dent	-12386
▁lake	-12387
▁plug	-12388
▁seal	-12389
ittees	-12390
listed	-12391
riages	-12392
▁Billy	-12393
▁Osset	-12394
▁consp	-12395
▁torch	-12396
▁incumb	-12397
▁reiter	-12398
▁unanim	-12399
▁Brandon	-12400
▁Century	-12401
▁engaging	-12402
▁Sotomayor	-12403
▁physician	-12404
▁unsuccess	-12405
▁Venezuelan	-12406
▁Waziristan	-12407
▁approaches	-12408
▁discipline	-12409
▁materially	-12410
▁organizers	-12411
▁controlling	-12412
▁3.1	-12413
▁nod	-12414
▁Chan	-12415
▁mart	-12416
▁pile	-12417
▁Colin	-12418
▁Lopez	-12419
▁Prior	-12420
▁Bailey	-12421
▁Bolton	-12422
▁Harper	-12423
▁Puerto	-12424
▁chains	-12425
▁spends	-12426
cessions	-12427
iscovery	-12428
▁Strauss	-12429
▁greatly	-12430
▁rushing	-12431
▁counting	-12432
▁observed	-12433
▁accounted	-12434
▁excluding	-12435
▁integrity	-12436
▁neighbours	-12437
fu	-12438
dan	-12439
rin	-12440
sky	-12441
▁7-	-12442
▁Iv	-12443
▁Rw	-12444
▁SA	-12445
▁Won	-12446
▁Maur	-12447
▁Traff	-12448
▁cyber	-12449
▁steam	-12450
▁tanks	-12451
▁Calder	-12452
▁Norman	-12453
▁Produc	-12454
▁Torres	-12455
▁diesel	-12456
▁firmly	-12457
▁tissue	-12458
▁tragic	-12459
▁affects	-12460
▁Midlands	-12461
▁reminder	-12462
▁institutional	-12463
14	-12464
hum	-12465
lay	-12466
▁AR	-12467
▁Ib	-12468
hyth	-12469
ogen	-12470
▁toy	-12471
amine	-12472
earns	-12473
▁Carn	-12474
erable	-12475
▁Based	-12476
▁Bever	-12477
▁Forum	-12478
▁Libya	-12479
▁bands	-12480
▁insult	-12481
▁parked	-12482
▁permit	-12483
▁placing	-12484
▁Columbus	-12485
▁Nicholas	-12486
▁conceded	-12487
▁deficits	-12488
▁superior	-12489
▁concessions	-12490
ERS	-12491
anne	-12492
igen	-12493
nsic	-12494
ouds	-12495
▁0-0	-12496
▁2.9	-12497
▁Neb	-12498
drome	-12499
▁Doug	-12500
▁Expl	-12501
▁preca	-12502
▁simpl	-12503
▁steal	-12504
inction	-12505
▁Celtics	-12506
▁Roddick	-12507
▁ceiling	-12508
▁Gonzalez	-12509
identified	-12510
▁creditors	-12511
▁Prevention	-12512
cr	-12513
ALL	-12514
illo	-12515
▁Rah	-12516
▁shy	-12517
amous	-12518
▁Cass	-12519
▁myth	-12520
▁worn	-12521
▁Derek	-12522
▁sorts	-12523
▁trump	-12524
▁bronze	-12525
▁Circuit	-12526
▁betting	-12527
▁refusal	-12528
▁enhanced	-12529
▁nominees	-12530
▁outlined	-12531
▁searches	-12532
▁Colombian	-12533
▁succeeded	-12534
▁corporation	-12535
▁inspiration	-12536
▁integration	-12537
ommunications	-12538
aky	-12539
orse	-12540
vals	-12541
▁Sel	-12542
▁1983	-12543
▁Swat	-12544
▁UCLA	-12545
▁conj	-12546
▁item	-12547
▁leth	-12548
▁fails	-12549
▁Arctic	-12550
▁Castle	-12551
▁Retail	-12552
▁priest	-12553
▁MySpace	-12554
▁Reports	-12555
▁poorest	-12556
▁Paterson	-12557
▁clearing	-12558
▁displays	-12559
▁hardware	-12560
▁supplier	-12561
▁insisting	-12562
▁completion	-12563
▁reflecting	-12564
▁fundraising	-12565
occ	-12566
▁AS	-12567
▁TD	-12568
best	-12569
esto	-12570
▁3.7	-12571
▁Ext	-12572
▁PAR	-12573
▁ber	-12574
▁haul	-12575
▁yuan	-12576
▁Cable	-12577
▁Johan	-12578
▁Lloyd	-12579
▁Muham	-12580
▁Nixon	-12581
▁antib	-12582
▁embry	-12583
▁lease	-12584
▁sheer	-12585
▁copper	-12586
▁enemies	-12587
▁loyalty	-12588
▁mounted	-12589
▁pursuit	-12590
▁updates	-12591
▁advertis	-12592
▁hostages	-12593
▁continent	-12594
▁literally	-12595
▁nightclub	-12596
BIT	-12597
uda	-12598
prom	-12599
lings	-12600
▁gene	-12601
▁7,000	-12602
▁Against	-12603
▁Diamond	-12604
▁jumping	-12605
▁removal	-12606
▁stalled	-12607
▁Medicaid	-12608
▁uncomfort	-12609
▁Depression	-12610
▁Commonwealth	-12611
cker	-12612
eyer	-12613
▁Too	-12614
▁Wel	-12615
onomy	-12616
▁Karl	-12617
▁Nine	-12618
▁load	-12619
▁vend	-12620
berman	-12621
usting	-12622
▁Cohen	-12623
▁Point	-12624
▁landl	-12625
▁Posted	-12626
▁sheets	-12627
▁Banking	-12628
▁Ferrari	-12629
▁homosex	-12630
▁Franklin	-12631
▁Sudanese	-12632
▁equipped	-12633
▁stripped	-12634
▁perception	-12635
▁philosophy	-12636
iev	-12637
lon	-12638
▁ET	-12639
ovan	-12640
wait	-12641
will	-12642
encer	-12643
▁1985	-12644
▁dawn	-12645
▁eBay	-12646
writer	-12647
▁Globe	-12648
▁Steph	-12649
▁annoy	-12650
▁Vienna	-12651
▁hockey	-12652
▁riders	-12653
▁Belgian	-12654
▁History	-12655
▁McLaren	-12656
▁batting	-12657
▁filling	-12658
▁greeted	-12659
▁diagnosis	-12660
▁southeast	-12661
▁wholesale	-12662
▁incredible	-12663
▁exclusively	-12664
▁flexibility	-12665
24	-12666
eh	-12667
300	-12668
zza	-12669
▁1⁄	-12670
ania	-12671
card	-12672
moon	-12673
uity	-12674
▁Ald	-12675
aksin	-12676
▁Bent	-12677
funded	-12678
▁audit	-12679
▁Gibson	-12680
▁Survey	-12681
▁prayer	-12682
▁Madonna	-12683
▁corrupt	-12684
▁farming	-12685
▁flooded	-12686
▁seasonal	-12687
▁addressing	-12688
▁completing	-12689
▁deliberately	-12690
▁installation	-12691
▁confrontation	-12692
TE	-12693
▁Ep	-12694
▁Kr	-12695
azed	-12696
roid	-12697
▁Alz	-12698
▁Few	-12699
▁Tar	-12700
ulent	-12701
▁1975	-12702
▁Coal	-12703
▁Knox	-12704
▁mans	-12705
▁woes	-12706
emeter	-12707
▁Alger	-12708
▁Death	-12709
▁Stars	-12710
▁genes	-12711
▁skill	-12712
▁whist	-12713
▁Rachel	-12714
▁Rivers	-12715
▁capped	-12716
▁poorly	-12717
▁barrier	-12718
▁rallies	-12719
▁Harrison	-12720
▁controll	-12721
▁flexible	-12722
▁inspector	-12723
▁wondering	-12724
▁intelligent	-12725
▁Indianapolis	-12726
-17	-12727
▁ts	-12728
▁Cav	-12729
▁Cho	-12730
▁Pic	-12731
▁agg	-12732
atoes	-12733
story	-12734
▁2013	-12735
▁Capt	-12736
▁Left	-12737
▁Piet	-12738
▁manif	-12739
▁naval	-12740
▁ought	-12741
▁radar	-12742
▁Airbus	-12743
▁Samuel	-12744
▁hazard	-12745
▁Ramirez	-12746
▁Similar	-12747
▁courtroom	-12748
▁negotiated	-12749
▁exceptional	-12750
▁Ry	-12751
amas	-12752
beit	-12753
ulty	-12754
▁FOR	-12755
▁gau	-12756
ifies	-12757
owder	-12758
ucker	-12759
▁Sign	-12760
▁navy	-12761
▁swap	-12762
▁Gabri	-12763
▁draws	-12764
running	-12765
▁Athlet	-12766
▁Knicks	-12767
▁Munich	-12768
▁hunger	-12769
▁nightm	-12770
▁academy	-12771
▁indefin	-12772
▁securing	-12773
▁spectrum	-12774
▁stranded	-12775
▁classroom	-12776
▁withdrawn	-12777
▁physically	-12778
▁complaining	-12779
even	-12780
ritz	-12781
▁jam	-12782
uffed	-12783
▁Ches	-12784
▁acid	-12785
▁dirt	-12786
▁unle	-12787
abbing	-12788
kinson	-12789
▁alike	-12790
▁Geneva	-12791
▁hailed	-12792
▁priced	-12793
▁Between	-12794
▁Centers	-12795
▁Cowboys	-12796
▁Markets	-12797
▁discour	-12798
▁drought	-12799
▁earmark	-12800
▁extract	-12801
▁secular	-12802
▁surpass	-12803
▁advocate	-12804
▁contamin	-12805
▁educated	-12806
▁matching	-12807
▁Residents	-12808
▁precisely	-12809
▁satisfied	-12810
▁shootings	-12811
▁inspectors	-12812
▁performers	-12813
27	-12814
isd	-12815
olo	-12816
folk	-12817
▁Sha	-12818
ateur	-12819
▁Deal	-12820
herent	-12821
▁Costa	-12822
▁Rosen	-12823
▁Stern	-12824
▁Cambod	-12825
▁Hilton	-12826
▁cattle	-12827
▁foster	-12828
▁propag	-12829
▁balloon	-12830
▁bizarre	-12831
▁upgrade	-12832
▁contests	-12833
▁removing	-12834
▁Companies	-12835
▁communicate	-12836
▁recruitment	-12837
▁unnecessary	-12838
▁productivity	-12839
News	-12840
auer	-12841
▁1,0	-12842
▁maj	-12843
owski	-12844
▁HSBC	-12845
▁Kash	-12846
▁damp	-12847
▁drag	-12848
▁Geoff	-12849
▁frank	-12850
▁picks	-12851
▁zones	-12852
bedroom	-12853
▁Adrian	-12854
▁Danish	-12855
▁birdie	-12856
▁Comment	-12857
▁bearing	-12858
▁conting	-12859
▁appetite	-12860
▁rational	-12861
▁altogether	-12862
▁meaningful	-12863
jo	-12864
ple	-12865
▁Bi	-12866
▁TS	-12867
▁Rut	-12868
print	-12869
▁Dame	-12870
▁Hugo	-12871
acious	-12872
anchez	-12873
▁resur	-12874
▁wheat	-12875
▁Master	-12876
▁lovely	-12877
▁unbeat	-12878
▁Britons	-12879
▁Griffin	-12880
▁Reading	-12881
▁contrad	-12882
▁surplus	-12883
▁averaged	-12884
▁decisive	-12885
▁everyday	-12886
▁Alzheimer	-12887
▁editorial	-12888
▁attendance	-12889
▁consortium	-12890
▁endangered	-12891
▁architecture	-12892
▁celebrations	-12893
26	-12894
cap	-12895
grad	-12896
▁Kid	-12897
▁ecl	-12898
▁pap	-12899
umper	-12900
esterol	-12901
▁Sanchez	-12902
▁Studies	-12903
▁dynamic	-12904
▁fantasy	-12905
▁grocery	-12906
▁justify	-12907
▁weighed	-12908
▁stealing	-12909
▁injection	-12910
▁northeast	-12911
▁responses	-12912
▁routinely	-12913
▁coordinator	-12914
▁recommendation	-12915
hl	-12916
zer	-12917
olan	-12918
▁IBM	-12919
▁Bird	-12920
▁Data	-12921
▁Hunt	-12922
▁Pete	-12923
▁Trip	-12924
▁gren	-12925
▁root	-12926
▁Ellis	-12927
▁bicyc	-12928
▁polar	-12929
▁Annual	-12930
▁Darren	-12931
▁Rescue	-12932
▁Rogers	-12933
▁divide	-12934
▁habits	-12935
efficient	-12936
▁actively	-12937
▁lighting	-12938
▁maintains	-12939
▁acceptance	-12940
▁capability	-12941
▁intentions	-12942
▁litigation	-12943
▁instructions	-12944
▁substantially	-12945
HP	-12946
sm	-12947
▁om	-12948
bour	-12949
erie	-12950
urer	-12951
▁USC	-12952
▁CITY	-12953
▁Prim	-12954
▁Rush	-12955
▁lets	-12956
▁Storm	-12957
▁facil	-12958
▁patri	-12959
▁spite	-12960
▁timet	-12961
▁Action	-12962
▁Eagles	-12963
▁Peters	-12964
▁bosses	-12965
▁racism	-12966
▁Disease	-12967
▁Morning	-12968
▁Thaksin	-12969
▁Weather	-12970
▁compare	-12971
▁undergo	-12972
▁rankings	-12973
▁shifting	-12974
▁objective	-12975
13	-12976
VI	-12977
-15	-12978
weg	-12979
▁Plus	-12980
▁Soon	-12981
▁bite	-12982
ancers	-12983
ashire	-12984
▁Hamid	-12985
▁donor	-12986
▁flags	-12987
▁naked	-12988
▁trash	-12989
▁topics	-12990
▁Bradley	-12991
▁beaches	-12992
▁dangers	-12993
▁hardest	-12994
▁incomes	-12995
▁reinfor	-12996
president	-12997
▁blocking	-12998
▁credited	-12999
▁delivers	-13000
iterranean	-13001
▁unusually	-13002
▁afterwards	-13003
▁inspection	-13004
▁description	-13005
OD	-13006
lav	-13007
yon	-13008
▁FD	-13009
▁MI	-13010
eton	-13011
size	-13012
▁5.5	-13013
▁Prix	-13014
▁forb	-13015
▁Quinn	-13016
▁Start	-13017
▁aging	-13018
▁arbit	-13019
▁highs	-13020
▁immin	-13021
▁stere	-13022
▁palace	-13023
▁phrase	-13024
▁artistic	-13025
▁humanity	-13026
▁marathon	-13027
▁allowance	-13028
▁apartments	-13029
▁marketplace	-13030
▁projections	-13031
Ar	-13032
FO	-13033
ogg	-13034
▁GE	-13035
inho	-13036
inos	-13037
sson	-13038
ttes	-13039
▁170	-13040
▁6.5	-13041
▁60-	-13042
▁Auto	-13043
▁Chev	-13044
▁Djok	-13045
▁lone	-13046
ocaust	-13047
▁Basra	-13048
▁airpl	-13049
General	-13050
entials	-13051
▁Father	-13052
▁cleric	-13053
▁poster	-13054
▁Martine	-13055
▁Stearns	-13056
▁lasting	-13057
▁Djokovic	-13058
▁councill	-13059
▁outright	-13060
generation	-13061
▁narrative	-13062
▁invitation	-13063
▁reconstruction	-13064
sa	-13065
oum	-13066
seat	-13067
asted	-13068
leton	-13069
rived	-13070
▁EBIT	-13071
▁sore	-13072
aments	-13073
ifford	-13074
▁Lords	-13075
▁Miche	-13076
▁Using	-13077
▁sweat	-13078
▁60,000	-13079
▁authen	-13080
▁disast	-13081
▁replic	-13082
▁protein	-13083
▁Criminal	-13084
▁Wireless	-13085
▁mainland	-13086
▁passport	-13087
▁shocking	-13088
▁struggles	-13089
▁Lancashire	-13090
▁recruiting	-13091
CE	-13092
agne	-13093
bish	-13094
pher	-13095
vili	-13096
▁Cai	-13097
▁Cut	-13098
▁ESP	-13099
▁Mul	-13100
▁1974	-13101
▁Lear	-13102
▁ling	-13103
▁orph	-13104
▁ware	-13105
amount	-13106
olving	-13107
▁Boliv	-13108
▁Opera	-13109
▁Pharm	-13110
▁Modern	-13111
▁Review	-13112
▁wisdom	-13113
▁Jessica	-13114
▁sponsor	-13115
▁bacteria	-13116
▁disagree	-13117
▁freshman	-13118
▁interpre	-13119
▁precious	-13120
▁tackling	-13121
▁wounding	-13122
▁assaulted	-13123
▁contracted	-13124
▁enrichment	-13125
▁Technologies	-13126
▁contributing	-13127
DAD	-13128
▁BT	-13129
enza	-13130
only	-13131
▁32-	-13132
▁7-5	-13133
▁rib	-13134
▁Fiat	-13135
▁Make	-13136
▁Mans	-13137
▁Wade	-13138
▁hamp	-13139
▁tune	-13140
▁slugg	-13141
▁Dakota	-13142
▁parall	-13143
▁rumors	-13144
▁scared	-13145
▁Afghans	-13146
▁Certain	-13147
▁Nothing	-13148
▁Spitzer	-13149
▁applaud	-13150
▁leather	-13151
▁slashed	-13152
▁Sullivan	-13153
▁Blackburn	-13154
▁addiction	-13155
▁diversity	-13156
▁collecting	-13157
▁excitement	-13158
▁literature	-13159
▁respondents	-13160
▁Mediterranean	-13161
▁internationally	-13162
aco	-13163
enz	-13164
pen	-13165
▁Hut	-13166
▁sew	-13167
adequ	-13168
▁pole	-13169
▁puzz	-13170
school	-13171
▁Being	-13172
▁Caval	-13173
▁Magic	-13174
▁eleph	-13175
enguins	-13176
▁Herald	-13177
▁Nobody	-13178
▁Summer	-13179
▁Yemeni	-13180
▁fossil	-13181
▁Trafford	-13182
▁profound	-13183
▁reminded	-13184
▁suitable	-13185
▁municipal	-13186
▁Enterprise	-13187
▁Agriculture	-13188
▁CB	-13189
▁BAG	-13190
▁1968	-13191
▁Less	-13192
▁Rain	-13193
▁Sharp	-13194
▁Smart	-13195
▁Video	-13196
▁aston	-13197
▁sheep	-13198
▁albeit	-13199
▁toilet	-13200
▁Bennett	-13201
▁bargain	-13202
▁congest	-13203
▁minimal	-13204
▁Muhammad	-13205
▁contacts	-13206
▁literary	-13207
▁Southeast	-13208
▁concentrate	-13209
▁inventories	-13210
▁nominations	-13211
▁foreclosures	-13212
nal	-13213
ser	-13214
iffe	-13215
▁Conc	-13216
▁sank	-13217
▁ugly	-13218
▁util	-13219
▁wary	-13220
anking	-13221
square	-13222
ributes	-13223
▁Design	-13224
▁abuses	-13225
▁albums	-13226
▁entert	-13227
▁Madison	-13228
▁gardens	-13229
▁murders	-13230
▁preserv	-13231
▁Delaware	-13232
▁adequate	-13233
▁realistic	-13234
▁trademark	-13235
▁commentary	-13236
▁hospitalized	-13237
▁AB	-13238
▁Ka	-13239
onso	-13240
▁EPA	-13241
▁Ott	-13242
▁cam	-13243
▁ESPN	-13244
▁Shel	-13245
▁mock	-13246
▁slid	-13247
▁giants	-13248
▁jurors	-13249
▁pedest	-13250
▁reader	-13251
▁locally	-13252
▁barriers	-13253
▁Discovery	-13254
▁Lieberman	-13255
▁adventure	-13256
▁breakdown	-13257
▁institute	-13258
▁platforms	-13259
▁cholesterol	-13260
▁Thanksgiving	-13261
aman	-13262
hard	-13263
▁28-	-13264
▁Emp	-13265
▁mac	-13266
acker	-13267
▁Carr	-13268
▁Hoff	-13269
▁Wool	-13270
▁flee	-13271
▁holy	-13272
attled	-13273
▁Berks	-13274
▁Kraft	-13275
▁exped	-13276
▁fuels	-13277
▁unins	-13278
▁Online	-13279
▁exists	-13280
▁intrig	-13281
▁valley	-13282
▁viable	-13283
▁insight	-13284
▁reveals	-13285
▁portrait	-13286
▁permitted	-13287
▁prestigious	-13288
▁achievements	-13289
▁alternatives	-13290
▁commissioned	-13291
17	-13292
-21	-13293
roc	-13294
spe	-13295
usc	-13296
quis	-13297
▁4.2	-13298
▁Log	-13299
▁lon	-13300
gence	-13301
roper	-13302
▁Mood	-13303
▁Uigh	-13304
▁rede	-13305
emetery	-13306
▁Bright	-13307
▁confer	-13308
▁dumped	-13309
▁wishes	-13310
▁reacted	-13311
▁Russians	-13312
▁confused	-13313
▁imported	-13314
▁component	-13315
▁framework	-13316
▁desperately	-13317
▁introducing	-13318
23	-13319
pa	-13320
dri	-13321
tis	-13322
▁DA	-13323
▁Aer	-13324
▁Alt	-13325
▁MTV	-13326
▁Gram	-13327
▁Mall	-13328
▁bids	-13329
arming	-13330
ffield	-13331
▁loves	-13332
▁releg	-13333
▁hearts	-13334
▁jurisd	-13335
▁landsl	-13336
▁reaches	-13337
▁seniors	-13338
▁transit	-13339
itionally	-13340
▁Moreover	-13341
▁Province	-13342
▁imposing	-13343
▁improper	-13344
▁admitting	-13345
▁shortages	-13346
▁embarrassing	-13347
▁spokesperson	-13348
PR	-13349
▁AG	-13350
▁Ga	-13351
uese	-13352
▁Ele	-13353
▁Mao	-13354
etown	-13355
owner	-13356
ucked	-13357
▁HBOS	-13358
▁Iron	-13359
▁Mend	-13360
▁dose	-13361
▁rehe	-13362
enberg	-13363
arettes	-13364
▁Johnny	-13365
▁memoir	-13366
▁Francis	-13367
▁Gerrard	-13368
▁Haitian	-13369
▁Spencer	-13370
▁avoiding	-13371
▁boosting	-13372
▁contempl	-13373
▁Political	-13374
▁anonymous	-13375
▁committees	-13376
▁tremendous	-13377
kei	-13378
▁Ecu	-13379
eness	-13380
entry	-13381
otton	-13382
spons	-13383
▁BAGH	-13384
▁Peru	-13385
▁adap	-13386
▁leaf	-13387
▁plag	-13388
▁wash	-13389
▁wrap	-13390
icians	-13391
▁Bulls	-13392
▁Katie	-13393
▁rocks	-13394
anguage	-13395
▁Flight	-13396
▁Kuwait	-13397
▁Valent	-13398
▁agrees	-13399
▁iconic	-13400
▁yields	-13401
▁400,000	-13402
▁Vincent	-13403
▁distant	-13404
▁jeopard	-13405
▁manages	-13406
▁fraction	-13407
▁worrying	-13408
▁elaborate	-13409
▁intensive	-13410
▁unidentified	-13411
18	-13412
CIS	-13413
oug	-13414
▁km	-13415
asse	-13416
girl	-13417
with	-13418
▁103	-13419
raged	-13420
▁Kand	-13421
▁Phel	-13422
▁Roth	-13423
▁Suff	-13424
▁beds	-13425
▁rans	-13426
ateful	-13427
charge	-13428
▁Famil	-13429
▁liver	-13430
▁seeds	-13431
▁Holmes	-13432
▁McCann	-13433
▁BAGHDAD	-13434
▁lifting	-13435
▁dominate	-13436
▁indicted	-13437
▁monitors	-13438
▁recycling	-13439
▁Portuguese	-13440
▁rebuilding	-13441
▁transplant	-13442
▁differently	-13443
▁grandfather	-13444
▁Representative	-13445
▁implementation	-13446
UM	-13447
ONG	-13448
gov	-13449
oyle	-13450
▁sib	-13451
acent	-13452
rowth	-13453
▁1981	-13454
▁Beth	-13455
▁encl	-13456
spoken	-13457
▁awful	-13458
▁blogs	-13459
▁stark	-13460
▁Nikkei	-13461
▁multim	-13462
▁subway	-13463
▁Cadbury	-13464
▁filming	-13465
fordshire	-13466
▁benefited	-13467
▁assumptions	-13468
▁collections	-13469
oni	-13470
ocus	-13471
▁Cre	-13472
▁Hop	-13473
egoti	-13474
▁Band	-13475
▁Plat	-13476
▁owed	-13477
andals	-13478
antile	-13479
asting	-13480
▁Colon	-13481
▁overc	-13482
▁relay	-13483
lobally	-13484
▁Syrian	-13485
▁aiming	-13486
▁filmed	-13487
▁myster	-13488
▁poured	-13489
ominated	-13490
▁partial	-13491
▁smashed	-13492
▁Honduras	-13493
▁belonging	-13494
▁premature	-13495
▁surviving	-13496
▁televised	-13497
▁travelled	-13498
po	-13499
hou	-13500
▁PA	-13501
▁101	-13502
▁2-2	-13503
▁Nav	-13504
▁Bark	-13505
▁grey	-13506
▁judg	-13507
▁unst	-13508
ailing	-13509
▁Lower	-13510
▁Youth	-13511
▁aired	-13512
▁eased	-13513
▁fares	-13514
▁hills	-13515
▁inhab	-13516
▁ailing	-13517
▁felony	-13518
▁relent	-13519
▁tender	-13520
▁helpful	-13521
▁singled	-13522
▁wickets	-13523
▁Martinez	-13524
▁Argentine	-13525
▁southwest	-13526
▁automotive	-13527
▁biological	-13528
▁prosecuted	-13529
▁financially	-13530
▁subscribers	-13531
▁inappropriate	-13532
▁uncomfortable	-13533
into	-13534
tegr	-13535
▁Guy	-13536
▁lod	-13537
▁slo	-13538
▁Batt	-13539
▁Bran	-13540
▁Gust	-13541
▁pope	-13542
▁spur	-13543
string	-13544
▁twins	-13545
▁Hitler	-13546
▁abduct	-13547
▁autism	-13548
▁heated	-13549
▁lesser	-13550
▁receip	-13551
▁unfold	-13552
otherapy	-13553
▁Charter	-13554
▁FRANCIS	-13555
▁boycott	-13556
▁harvest	-13557
▁lowered	-13558
▁sellers	-13559
▁Aviation	-13560
▁dressing	-13561
▁opposing	-13562
▁secretly	-13563
▁universe	-13564
▁accessible	-13565
▁disastrous	-13566
▁respective	-13567
▁significance	-13568
vet	-13569
▁ol	-13570
aste	-13571
erts	-13572
▁Dim	-13573
▁Kan	-13574
▁dug	-13575
kirts	-13576
▁1978	-13577
▁Glen	-13578
hander	-13579
▁Tracy	-13580
▁aspir	-13581
▁edged	-13582
▁smell	-13583
writing	-13584
▁Letter	-13585
▁farmer	-13586
▁Carroll	-13587
▁precise	-13588
▁assisted	-13589
▁commonly	-13590
28	-13591
KY	-13592
EST	-13593
axy	-13594
▁CM	-13595
nity	-13596
vity	-13597
world	-13598
▁Late	-13599
▁vibr	-13600
taking	-13601
▁grace	-13602
▁incom	-13603
▁constr	-13604
▁Norfolk	-13605
▁forests	-13606
▁policing	-13607
▁steadily	-13608
▁Sheffield	-13609
▁functions	-13610
▁indicating	-13611
44	-13612
NC	-13613
sud	-13614
itte	-13615
just	-13616
▁Say	-13617
▁Born	-13618
▁Leno	-13619
▁Viol	-13620
abling	-13621
▁Randy	-13622
▁Wigan	-13623
▁ultra	-13624
▁unlaw	-13625
▁12,000	-13626
▁aggrav	-13627
▁culmin	-13628
▁midday	-13629
▁chapter	-13630
▁unnamed	-13631
▁immunity	-13632
▁limiting	-13633
▁militias	-13634
▁reserved	-13635
▁wondered	-13636
▁Cardinals	-13637
▁Europeans	-13638
▁Henderson	-13639
▁attackers	-13640
▁outskirts	-13641
▁incredibly	-13642
Mar	-13643
aho	-13644
ogs	-13645
▁SE	-13646
----	-13647
aton	-13648
ivic	-13649
aucus	-13650
cover	-13651
oding	-13652
▁Kyle	-13653
▁Talk	-13654
▁Wars	-13655
▁fren	-13656
Maliki	-13657
azines	-13658
forest	-13659
headed	-13660
ishops	-13661
unning	-13662
▁Chall	-13663
▁ferry	-13664
▁raped	-13665
▁rhyth	-13666
ouncing	-13667
▁Nature	-13668
▁heroin	-13669
▁whites	-13670
▁Mousavi	-13671
▁linking	-13672
▁advances	-13673
▁credible	-13674
▁imminent	-13675
▁retained	-13676
▁unbeaten	-13677
▁FRANCISCO	-13678
▁contender	-13679
▁shortfall	-13680
▁likelihood	-13681
▁wrongdoing	-13682
▁neighbouring	-13683
UC	-13684
inf	-13685
alin	-13686
anie	-13687
boat	-13688
oran	-13689
▁1⁄2	-13690
▁YOU	-13691
after	-13692
▁Cubs	-13693
▁Fame	-13694
▁McCh	-13695
▁OPEC	-13696
▁Temp	-13697
▁medi	-13698
▁pork	-13699
▁Blues	-13700
▁brave	-13701
itative	-13702
▁chiefs	-13703
▁statue	-13704
▁inadequ	-13705
▁kicking	-13706
▁layoffs	-13707
▁prisons	-13708
▁repairs	-13709
▁Nigerian	-13710
▁Stafford	-13711
▁relation	-13712
▁sticking	-13713
▁whenever	-13714
▁Christine	-13715
▁Holocaust	-13716
▁legendary	-13717
▁persuaded	-13718
▁cigarettes	-13719
KE	-13720
▁>	-13721
kar	-13722
▁Da	-13723
alid	-13724
izza	-13725
risk	-13726
▁voc	-13727
aired	-13728
orton	-13729
▁Lenn	-13730
▁Resp	-13731
▁deck	-13732
▁smok	-13733
▁Saint	-13734
▁Schum	-13735
▁click	-13736
▁fever	-13737
▁heels	-13738
olphins	-13739
uctions	-13740
▁destro	-13741
▁lethal	-13742
laughter	-13743
▁Digital	-13744
▁convinc	-13745
▁feeding	-13746
▁replied	-13747
▁tumbled	-13748
overished	-13749
▁forensic	-13750
▁meantime	-13751
▁pitching	-13752
▁pleasure	-13753
▁retiring	-13754
▁steroids	-13755
▁Berkshire	-13756
▁cooperate	-13757
▁incumbent	-13758
▁conversion	-13759
▁publishers	-13760
▁turnaround	-13761
▁countryside	-13762
▁permanently	-13763
▁OS	-13764
▁Try	-13765
liner	-13766
▁Craw	-13767
▁Fitz	-13768
▁Shaw	-13769
▁leak	-13770
▁pupp	-13771
erling	-13772
▁Moroc	-13773
▁acute	-13774
istical	-13775
▁Barnes	-13776
▁Norweg	-13777
▁labels	-13778
▁slower	-13779
▁Romania	-13780
▁reactor	-13781
▁Sciences	-13782
▁balanced	-13783
▁fortunes	-13784
▁justified	-13785
▁Blackwater	-13786
▁McChrystal	-13787
▁Continental	-13788
▁considerably	-13789
33	-13790
Pr	-13791
▁li	-13792
itez	-13793
▁Mol	-13794
▁bug	-13795
▁eve	-13796
▁gut	-13797
▁meg	-13798
▁org	-13799
▁tub	-13800
kward	-13801
unami	-13802
▁Bath	-13803
▁Hand	-13804
▁Luke	-13805
▁ears	-13806
▁noon	-13807
▁Tower	-13808
▁brink	-13809
▁orbit	-13810
▁riots	-13811
▁tipped	-13812
▁acclaim	-13813
▁broadly	-13814
▁surgeon	-13815
▁Heritage	-13816
▁Iranians	-13817
▁Spaniard	-13818
▁ambition	-13819
▁founding	-13820
▁attitudes	-13821
▁subjected	-13822
▁explosions	-13823
▁separatist	-13824
▁concentration	-13825
▁identification	-13826
29	-13827
mm	-13828
sl	-13829
mph	-13830
uis	-13831
▁BR	-13832
▁Buy	-13833
▁Syn	-13834
▁WHO	-13835
▁hes	-13836
asant	-13837
olves	-13838
proof	-13839
▁Gard	-13840
▁Mach	-13841
▁astr	-13842
▁Anglo	-13843
▁indec	-13844
markets	-13845
rection	-13846
sterdam	-13847
▁Fulham	-13848
▁Somers	-13849
▁embark	-13850
▁leaked	-13851
▁parole	-13852
▁coroner	-13853
▁glasses	-13854
▁handing	-13855
▁notable	-13856
▁realise	-13857
▁resumed	-13858
▁Students	-13859
▁concerts	-13860
▁freezing	-13861
▁theaters	-13862
▁tortured	-13863
▁authentic	-13864
▁murdering	-13865
▁predicting	-13866
▁convictions	-13867
▁derivatives	-13868
▁transparent	-13869
▁manslaughter	-13870
77	-13871
oid	-13872
▁CA	-13873
fish	-13874
issa	-13875
rose	-13876
stri	-13877
▁RAF	-13878
▁hem	-13879
itime	-13880
shirt	-13881
▁Gran	-13882
▁Wine	-13883
▁perf	-13884
▁dread	-13885
▁honey	-13886
▁jihad	-13887
▁skull	-13888
▁tally	-13889
grounds	-13890
itating	-13891
lements	-13892
▁Brooks	-13893
▁Felipe	-13894
▁bureau	-13895
▁impair	-13896
▁voiced	-13897
▁Benitez	-13898
▁borough	-13899
▁favored	-13900
▁posters	-13901
▁psychiat	-13902
▁receives	-13903
▁syndrome	-13904
▁Melbourne	-13905
▁diplomacy	-13906
▁shoulders	-13907
▁timetable	-13908
▁contention	-13909
anol	-13910
atra	-13911
race	-13912
walk	-13913
▁GPS	-13914
▁1972	-13915
▁1973	-13916
▁Dell	-13917
▁Kind	-13918
▁Sadr	-13919
▁Scar	-13920
▁Targ	-13921
▁Cairo	-13922
▁blown	-13923
itively	-13924
▁accuse	-13925
▁awkward	-13926
▁evangel	-13927
▁shifted	-13928
▁agreeing	-13929
▁appropri	-13930
▁liability	-13931
outheastern	-13932
▁concerning	-13933
▁generating	-13934
▁physicians	-13935
LS	-13936
ORE	-13937
addy	-13938
erez	-13939
isse	-13940
unct	-13941
word	-13942
▁Fig	-13943
alion	-13944
▁1964	-13945
▁2014	-13946
▁trio	-13947
arette	-13948
▁Celeb	-13949
▁Tesco	-13950
▁Think	-13951
▁neuro	-13952
▁scare	-13953
ashvili	-13954
▁EBITDA	-13955
▁Shakes	-13956
▁beside	-13957
▁trophy	-13958
▁Jenkins	-13959
▁cycling	-13960
▁focuses	-13961
▁cautioned	-13962
▁depressed	-13963
▁similarly	-13964
▁Industrial	-13965
▁legislators	-13966
▁accommodation	-13967
mid	-13968
uer	-13969
umm	-13970
via	-13971
iper	-13972
quer	-13973
ylum	-13974
▁29-	-13975
▁Pep	-13976
▁Pant	-13977
▁hood	-13978
▁lesb	-13979
▁sang	-13980
venile	-13981
▁Glenn	-13982
▁Linda	-13983
▁chase	-13984
▁trace	-13985
growing	-13986
thening	-13987
▁Kazakh	-13988
▁finale	-13989
▁rivers	-13990
▁worthy	-13991
▁Propert	-13992
▁shorter	-13993
▁Richmond	-13994
▁hometown	-13995
▁sympathy	-13996
▁Resources	-13997
▁classical	-13998
▁favorable	-13999
▁intensity	-14000
▁Mercantile	-14001
▁attributed	-14002
▁calculated	-14003
▁specialists	-14004
▁entrepreneur	-14005
si	-14006
ARC	-14007
ige	-14008
nik	-14009
frey	-14010
quir	-14011
▁4-1	-14012
▁450	-14013
▁Beh	-14014
▁Daw	-14015
▁Fly	-14016
▁Lan	-14017
peare	-14018
▁Jong	-14019
▁Read	-14020
▁Rudd	-14021
▁fold	-14022
▁laps	-14023
▁Ricky	-14024
▁bogey	-14025
▁chore	-14026
▁monks	-14027
▁reson	-14028
▁Phelps	-14029
▁cousin	-14030
▁pickup	-14031
▁plaint	-14032
▁themes	-14033
▁Taleban	-14034
▁bridges	-14035
▁costing	-14036
▁enforce	-14037
▁deserved	-14038
▁holdings	-14039
▁strained	-14040
▁releasing	-14041
▁sectarian	-14042
▁critically	-14043
▁influenced	-14044
▁postseason	-14045
▁supervision	-14046
▁impoverished	-14047
eor	-14048
▁Od	-14049
ante	-14050
east	-14051
▁Age	-14052
▁CDC	-14053
▁tex	-14054
▁Cand	-14055
▁Citi	-14056
▁Song	-14057
▁brew	-14058
▁clip	-14059
▁Final	-14060
▁Girls	-14061
▁Stoke	-14062
▁ounce	-14063
▁Freder	-14064
▁backup	-14065
▁fueled	-14066
▁mirror	-14067
▁roster	-14068
▁shipped	-14069
▁tracked	-14070
▁Regional	-14071
▁speakers	-14072
▁Amsterdam	-14073
▁Jefferson	-14074
▁sprawling	-14075
▁uncovered	-14076
▁purchasing	-14077
▁accomplished	-14078
65	-14079
UT	-14080
oop	-14081
rot	-14082
,200	-14083
lete	-14084
▁Moy	-14085
▁Rol	-14086
▁UAE	-14087
archy	-14088
berto	-14089
▁Nord	-14090
▁coat	-14091
▁cure	-14092
points	-14093
▁Osama	-14094
▁accum	-14095
▁creep	-14096
▁recre	-14097
▁sends	-14098
▁twist	-14099
▁hugely	-14100
▁hungry	-14101
▁regain	-14102
▁stockp	-14103
▁submar	-14104
▁venues	-14105
▁birdies	-14106
▁calories	-14107
▁prostate	-14108
▁Mickelson	-14109
▁applicants	-14110
▁reiterated	-14111
▁succession	-14112
▁sovereignty	-14113
▁Championships	-14114
GM	-14115
cop	-14116
▁PS	-14117
achi	-14118
oons	-14119
ulum	-14120
▁7.5	-14121
▁Suz	-14122
▁bay	-14123
▁abol	-14124
▁Fatah	-14125
▁Julie	-14126
▁Kenny	-14127
▁humor	-14128
▁wings	-14129
ricanes	-14130
utenant	-14131
▁speeds	-14132
▁detected	-14133
▁mentally	-14134
▁migrants	-14135
▁reversed	-14136
▁sections	-14137
▁Consumers	-14138
▁governance	-14139
▁harassment	-14140
▁simultaneously	-14141
adi	-14142
emi	-14143
lash	-14144
oust	-14145
▁Cox	-14146
▁Kib	-14147
▁gad	-14148
▁1940	-14149
▁1969	-14150
▁1977	-14151
▁Area	-14152
▁Cant	-14153
▁Cros	-14154
▁Falk	-14155
▁Rams	-14156
▁Sams	-14157
▁Kyoto	-14158
▁Silva	-14159
▁Tyler	-14160
▁boots	-14161
▁doses	-14162
▁Inside	-14163
▁atomic	-14164
▁trades	-14165
▁Andrews	-14166
▁Coleman	-14167
▁Highway	-14168
▁Library	-14169
▁lottery	-14170
▁Christie	-14171
▁applying	-14172
▁Pietersen	-14173
▁Shakespeare	-14174
mod	-14175
obe	-14176
ugs	-14177
core	-14178
home	-14179
oway	-14180
▁Wiz	-14181
ieves	-14182
▁lawn	-14183
▁Chuck	-14184
▁Harle	-14185
▁Moody	-14186
▁Venus	-14187
▁cater	-14188
▁cripp	-14189
▁lacks	-14190
▁stiff	-14191
▁wiped	-14192
forward	-14193
respons	-14194
▁Devils	-14195
▁Serena	-14196
▁Things	-14197
▁resent	-14198
▁shifts	-14199
▁contend	-14200
▁suspend	-14201
▁conclude	-14202
▁ordering	-14203
▁exploring	-14204
▁magazines	-14205
▁associates	-14206
▁ridiculous	-14207
▁credentials	-14208
▁Organisation	-14209
li	-14210
uy	-14211
ema	-14212
gart	-14213
ilis	-14214
▁3.9	-14215
▁Bin	-14216
▁Eve	-14217
▁Hey	-14218
▁Lah	-14219
ewalk	-14220
▁Room	-14221
▁bund	-14222
▁lane	-14223
▁Drive	-14224
▁Helen	-14225
▁Urban	-14226
▁jokes	-14227
▁sworn	-14228
▁vigil	-14229
▁banker	-14230
▁freely	-14231
▁newest	-14232
▁plunge	-14233
▁rubber	-14234
▁rubble	-14235
igration	-14236
▁Finland	-14237
▁Tonight	-14238
▁cartoon	-14239
▁crushed	-14240
▁denying	-14241
▁emotions	-14242
▁underway	-14243
▁Norwegian	-14244
▁detective	-14245
▁insurgent	-14246
▁underwent	-14247
▁overturned	-14248
▁tightening	-14249
▁participated	-14250
▁complications	-14251
▁effectiveness	-14252
99	-14253
HS	-14254
hey	-14255
emon	-14256
five	-14257
lins	-14258
ride	-14259
▁Hoy	-14260
track	-14261
▁Cruz	-14262
▁Reyn	-14263
▁Walt	-14264
▁boot	-14265
▁cher	-14266
▁cord	-14267
linary	-14268
prises	-14269
▁Armen	-14270
▁Thorn	-14271
▁mines	-14272
▁pilgr	-14273
▁silly	-14274
▁Across	-14275
▁Darwin	-14276
▁charts	-14277
▁relied	-14278
▁Fashion	-14279
▁Midwest	-14280
▁adverse	-14281
▁priests	-14282
▁stunned	-14283
▁Buddhist	-14284
▁licensed	-14285
▁teammate	-14286
▁Elsewhere	-14287
▁radiation	-14288
▁confronted	-14289
▁overweight	-14290
▁campaigners	-14291
▁establishing	-14292
gel	-14293
say	-14294
ahan	-14295
asha	-14296
▁Din	-14297
▁Lex	-14298
▁Liu	-14299
▁Son	-14300
▁Disc	-14301
▁wise	-14302
▁Autom	-14303
▁Minne	-14304
▁nickn	-14305
▁wrist	-14306
▁miners	-14307
▁powder	-14308
▁shrink	-14309
▁Serbian	-14310
▁bounced	-14311
▁lacking	-14312
▁leisure	-14313
▁spreads	-14314
▁trailed	-14315
▁Redskins	-14316
▁globally	-14317
▁mistaken	-14318
▁partisan	-14319
▁dividends	-14320
▁villagers	-14321
▁objections	-14322
▁progressive	-14323
▁trafficking	-14324
▁destinations	-14325
roe	-14326
▁Esc	-14327
▁Pub	-14328
books	-14329
raska	-14330
▁Come	-14331
▁Mind	-14332
▁Pick	-14333
▁gray	-14334
▁Antar	-14335
▁Hindu	-14336
▁dairy	-14337
▁jeans	-14338
▁queen	-14339
▁casino	-14340
▁commem	-14341
▁fights	-14342
▁flawed	-14343
▁pastor	-14344
▁polled	-14345
▁wholly	-14346
▁Ossetia	-14347
▁athlete	-14348
▁mixture	-14349
▁secrets	-14350
istically	-14351
▁deserves	-14352
▁reckless	-14353
▁artificial	-14354
▁stronghold	-14355
▁Minneapolis	-14356
▁interactive	-14357
BUR	-14358
una	-14359
▁ly	-14360
,600	-14361
aple	-14362
▁4.4	-14363
▁Cov	-14364
digit	-14365
immer	-14366
stock	-14367
▁Pitt	-14368
▁Pors	-14369
▁Sche	-14370
▁brig	-14371
▁poly	-14372
▁sket	-14373
egates	-14374
▁Aston	-14375
▁Fidel	-14376
▁flows	-14377
▁Greens	-14378
▁diving	-14379
▁judged	-14380
▁propri	-14381
▁Gallery	-14382
▁Holland	-14383
▁Leaders	-14384
▁printed	-14385
▁rehears	-14386
▁Nebraska	-14387
▁delicate	-14388
▁donation	-14389
▁organisers	-14390
▁undergoing	-14391
▁experiments	-14392
▁revelations	-14393
arn	-14394
ulu	-14395
▁DS	-14396
▁LP	-14397
grat	-14398
rove	-14399
▁Blu	-14400
▁Got	-14401
▁IRA	-14402
▁cyn	-14403
heads	-14404
▁Clay	-14405
▁Jazz	-14406
▁buoy	-14407
▁suck	-14408
itably	-14409
retion	-14410
▁2008.	-14411
▁disad	-14412
▁nasty	-14413
▁rings	-14414
▁Writer	-14415
▁bother	-14416
▁empire	-14417
▁ripped	-14418
▁solely	-14419
▁terrif	-14420
▁Witness	-14421
▁beloved	-14422
▁casting	-14423
▁powered	-14424
effective	-14425
▁Somerset	-14426
▁eventual	-14427
▁merchand	-14428
▁composite	-14429
▁stretched	-14430
▁experiencing	-14431
22	-14432
-40	-14433
azi	-14434
esy	-14435
▁IA	-14436
▁1,8	-14437
▁AND	-14438
▁Alb	-14439
▁Nig	-14440
guard	-14441
start	-14442
▁Nest	-14443
▁Opel	-14444
▁Guild	-14445
▁Idaho	-14446
▁femin	-14447
▁ignor	-14448
▁reimb	-14449
▁stays	-14450
fashion	-14451
issance	-14452
▁Button	-14453
▁caucus	-14454
▁define	-14455
▁floors	-14456
▁piracy	-14457
▁stored	-14458
▁summon	-14459
▁Records	-14460
▁Support	-14461
▁backdrop	-14462
▁grateful	-14463
▁leverage	-14464
▁weighing	-14465
▁Southwest	-14466
▁candidacy	-14467
▁motorists	-14468
▁recruited	-14469
▁Everything	-14470
▁Healthcare	-14471
▁campaigned	-14472
▁committing	-14473
▁compassion	-14474
▁productive	-14475
▁Revolutionary	-14476
▁environmentally	-14477
afi	-14478
rix	-14479
▁BC	-14480
▁NO	-14481
▁0.9	-14482
▁4.3	-14483
▁911	-14484
▁rit	-14485
anski	-14486
aunch	-14487
▁100-	-14488
▁2015	-14489
▁ther	-14490
▁whis	-14491
▁Separ	-14492
▁Shane	-14493
▁ranch	-14494
▁suite	-14495
▁tense	-14496
cutting	-14497
▁Beatles	-14498
▁Kenneth	-14499
▁Renault	-14500
▁fleeing	-14501
▁halfway	-14502
▁revenge	-14503
▁richest	-14504
▁Baseball	-14505
▁floating	-14506
▁warrants	-14507
▁Nashville	-14508
▁extremist	-14509
▁mechanism	-14510
▁utilities	-14511
▁volatility	-14512
▁fascinating	-14513
▁medications	-14514
ARP	-14515
adr	-14516
gue	-14517
rez	-14518
▁Aw	-14519
orns	-14520
▁Muk	-14521
▁ash	-14522
▁ram	-14523
aines	-14524
▁Hugh	-14525
▁Init	-14526
▁helm	-14527
ecraft	-14528
▁consc	-14529
▁irrit	-14530
▁swall	-14531
igenous	-14532
▁corrid	-14533
▁Strateg	-14534
▁exhibit	-14535
▁setback	-14536
▁strokes	-14537
▁suburbs	-14538
▁belonged	-14539
▁achieving	-14540
▁formation	-14541
▁uninsured	-14542
▁importantly	-14543
▁satisfaction	-14544
▁transmission	-14545
95	-14546
fa	-14547
fr	-14548
su	-14549
AND	-14550
lie	-14551
omy	-14552
tor	-14553
▁NI	-14554
▁SM	-14555
▁Mik	-14556
▁SUV	-14557
▁dot	-14558
▁zoo	-14559
onnie	-14560
▁Dian	-14561
▁IPCC	-14562
▁Lost	-14563
▁Unit	-14564
▁unre	-14565
▁Brett	-14566
▁Ghana	-14567
▁Guine	-14568
▁drain	-14569
▁uncle	-14570
ectives	-14571
▁bounce	-14572
▁cement	-14573
▁guided	-14574
▁reopen	-14575
▁Germans	-14576
▁Sanford	-14577
▁circles	-14578
▁clinics	-14579
▁congrat	-14580
▁exagger	-14581
▁shelves	-14582
▁massacre	-14583
▁narrowly	-14584
▁cigarette	-14585
▁graduated	-14586
▁nutrition	-14587
▁policeman	-14588
▁threatens	-14589
▁contraction	-14590
▁administrators	-14591
Sh	-14592
-18	-14593
KYO	-14594
▁07	-14595
▁Ru	-14596
,700	-14597
Neal	-14598
quet	-14599
weet	-14600
▁Hod	-14601
▁Hos	-14602
▁IRS	-14603
▁Ral	-14604
▁Rap	-14605
▁Tea	-14606
think	-14607
ungle	-14608
▁Beng	-14609
▁Joel	-14610
▁Lamp	-14611
▁Mour	-14612
▁Nico	-14613
urable	-14614
▁Check	-14615
▁Legal	-14616
▁TOKYO	-14617
▁ammun	-14618
▁tablo	-14619
atories	-14620
intendo	-14621
quality	-14622
▁aggreg	-14623
▁Borders	-14624
▁Croatia	-14625
▁Middles	-14626
▁enables	-14627
▁museums	-14628
▁pursued	-14629
▁visitor	-14630
▁athletic	-14631
▁equities	-14632
▁regulate	-14633
▁vaccines	-14634
▁Currently	-14635
▁languages	-14636
▁licensing	-14637
▁evaluation	-14638
▁misconduct	-14639
▁passionate	-14640
▁understands	-14641
▁rehabilitation	-14642
mel	-14643
kick	-14644
urry	-14645
▁115	-14646
▁4.6	-14647
▁Moz	-14648
▁Wen	-14649
▁hik	-14650
arthy	-14651
aters	-14652
▁dual	-14653
▁summ	-14654
thodox	-14655
▁drift	-14656
▁guilt	-14657
▁scept	-14658
▁tends	-14659
founder	-14660
▁briefed	-14661
▁dancers	-14662
▁drafted	-14663
▁issuing	-14664
▁tsunami	-14665
▁epidemic	-14666
▁lawmaker	-14667
▁examining	-14668
▁prolonged	-14669
▁Detectives	-14670
▁attracting	-14671
▁disruption	-14672
▁journalism	-14673
▁entrepreneurs	-14674
amy	-14675
▁na	-14676
abis	-14677
cats	-14678
deal	-14679
elin	-14680
fold	-14681
ping	-14682
rine	-14683
▁4.1	-14684
▁Dri	-14685
▁Kel	-14686
▁Soc	-14687
Neill	-14688
▁memo	-14689
▁seiz	-14690
estine	-14691
hedral	-14692
inging	-14693
▁2009.	-14694
▁Boyle	-14695
▁Colts	-14696
▁Speed	-14697
▁incon	-14698
▁knees	-14699
▁shook	-14700
▁thumb	-14701
▁Jacobs	-14702
▁Mehsud	-14703
▁buyout	-14704
▁flower	-14705
▁lately	-14706
▁Captain	-14707
▁Ecuador	-14708
▁Samsung	-14709
▁curious	-14710
▁dresses	-14711
▁isolation	-14712
▁medicines	-14713
▁orchestra	-14714
▁screaming	-14715
▁disability	-14716
▁disturbing	-14717
▁mysterious	-14718
▁forthcoming	-14719
▁independently	-14720
ede	-14721
▁Ax	-14722
▁IV	-14723
enth	-14724
rahi	-14725
ugee	-14726
user	-14727
▁pad	-14728
strom	-14729
▁Core	-14730
▁Heat	-14731
▁Rudy	-14732
▁Webb	-14733
▁cush	-14734
▁dece	-14735
▁pave	-14736
▁soap	-14737
▁Citiz	-14738
▁Janet	-14739
▁Prest	-14740
▁sauce	-14741
▁yacht	-14742
ounding	-14743
▁Harvey	-14744
▁alumin	-14745
▁colors	-14746
▁curric	-14747
▁oversh	-14748
▁Gregory	-14749
▁Looking	-14750
▁Suffolk	-14751
▁banning	-14752
▁decides	-14753
▁ethanol	-14754
▁honored	-14755
▁relaxed	-14756
▁comedian	-14757
▁homicide	-14758
▁turnover	-14759
▁ammunition	-14760
▁psychiatric	-14761
eme	-14762
ped	-14763
date	-14764
▁35-	-14765
▁Cob	-14766
▁Ori	-14767
▁rup	-14768
eston	-14769
▁Bash	-14770
▁Isle	-14771
▁Niss	-14772
▁tide	-14773
▁todd	-14774
▁Asset	-14775
▁Foods	-14776
▁franc	-14777
▁pants	-14778
▁pools	-14779
▁popul	-14780
▁retal	-14781
▁Holder	-14782
▁Treaty	-14783
▁bailed	-14784
▁cartel	-14785
▁dishes	-14786
▁patent	-14787
▁Kashmir	-14788
▁Vermont	-14789
▁battled	-14790
▁combine	-14791
▁endured	-14792
▁totaled	-14793
amination	-14794
quartered	-14795
▁Austrian	-14796
▁Majority	-14797
▁dictator	-14798
▁disposal	-14799
▁graduates	-14800
▁scattered	-14801
▁restoration	-14802
▁interference	-14803
38	-14804
gio	-14805
▁CR	-14806
▁DU	-14807
▁Dw	-14808
▁Md	-14809
olee	-14810
▁Joy	-14811
▁Mig	-14812
▁VAT	-14813
▁piv	-14814
brook	-14815
comes	-14816
▁True	-14817
▁Wake	-14818
▁sake	-14819
embers	-14820
orient	-14821
▁Lucas	-14822
▁Palmer	-14823
▁betray	-14824
▁crises	-14825
▁fertil	-14826
▁header	-14827
▁jersey	-14828
▁lacked	-14829
▁Beverly	-14830
▁Hungary	-14831
▁rubbish	-14832
▁tuition	-14833
▁Flintoff	-14834
▁McCarthy	-14835
▁Nintendo	-14836
▁downward	-14837
▁factions	-14838
▁computing	-14839
▁disorders	-14840
▁transfers	-14841
▁overseeing	-14842
▁predictions	-14843
▁Nevertheless	-14844
▁unexpectedly	-14845
▁administrator	-14846
▁accountability	-14847
66	-14848
AB	-14849
▁x	-14850
▁QC	-14851
nett	-14852
olve	-14853
raud	-14854
▁1-2	-14855
▁Wii	-14856
▁lin	-14857
▁ore	-14858
rahim	-14859
shine	-14860
▁Belt	-14861
▁Bros	-14862
▁bass	-14863
▁disg	-14864
embley	-14865
shirts	-14866
[...]
